!
"
#
##0
##1
##10
##11
##12
##13
##14
##15
##16
##17
##18
##19
##2
##20
##21
##22
##23
##24
##25
##26
##27
##28
##29
##3
##30
##31
##32
##33
##34
##35
##36
##37
##38
##39
##4
##40
##41
##42
##43
##44
##45
##46
##47
##48
##49
##5
##50
##51
##52
##53
##54
##55
##56
##57
##58
##59
##6
##60
##61
##62
##63
##64
##65
##66
##67
##68
##69
##7
##70
##71
##72
##73
##74
##75
##76
##77
##78
##79
##8
##80
##81
##82
##83
##84
##85
##86
##87
##88
##89
##9
##90
##91
##92
##93
##94
##95
##96
##97
##98
##99
$
%
&
'
(
)
*
+
,
-
.
/
0
00
000
001
004
005
006
008
01
010
011
012
015
017
018
019
02
020
021
022
026
027
029
03
031
033
034
04
041
042
043
044
045
046
047
048
05
050
051
052
055
056
059
06
060
061
064
066
07
070
071
072
074
075
077
079
08
081
082
086
088
089
09
091
093
094
096
097
1
10
100
1000
101
102
103
104
105
106
107
108
109
11
110
111
112
113
114
115
116
117
118
119
12
120
121
122
123
124
125
126
127
128
129
13
130
131
132
133
134
135
136
137
138
139
14
140
141
142
143
144
145
146
147
148
149
15
150
1500
151
1519
152
1520
1521
1522
153
154
155
156
1565
157
158
159
16
160
161
162
163
164
1642
165
166
167
168
169
17
170
1700
171
172
173
174
175
176
1760
177
178
179
18
180
1800
181
1811
1812
182
1821
1825
183
1830
184
1840
185
1858
186
1860
187
1870
1872
1875
1878
1879
188
1883
1887
1888
1889
189
1891
1892
1893
1894
1896
1897
1898
1899
19
190
1900
1901
1902
1903
1904
1908
191
1910
1914
1916
1917
1918
1919
192
1920
1921
1922
1925
1926
1927
1928
193
1930
1931
1932
1933
1934
1935
1936
1937
1938
1939
194
1940
1941
1942
1943
1944
1945
1946
1947
1948
1949
195
1950
1951
1952
1953
1954
1955
1956
1957
1958
1959
196
1960
1961
1962
1963
1964
1965
1966
1967
1968
1969
197
1970
1971
1972
1973
1974
1975
1976
1977
1978
1979
198
1980
1981
1982
1983
1984
1985
1986
1987
1988
1989
199
1990
1991
1992
1993
1994
1995
1996
1997
1998
1999
2
20
200
2000
2001
2002
2003
2004
2005
2006
2007
2008
2009
201
2010
2011
2012
2013
2014
2015
2016
2017
2018
2019
202
2020
202018
2021
2022
2025
203
204
205
206
207
208
209
21
210
212
213
214
215
216
217
218
219
22
220
221
222
223
224
225
226
227
228
229
23
230
231
232
233
234
235
236
237
238
239
24
240
241
242
243
244
245
246
247
248
249
25
250
251
252
253
254
255
256
257
258
259
26
260
261
262
263
264
265
266
267
268
269
27
270
271
272
273
274
275
276
277
278
279
28
280
281
282
283
284
285
286
287
288
289
29
290
291
292
293
294
295
296
297
298
299
3
30
300
301
302
303
304
305
306
307
308
309
31
310
311
312
313
314
315
316
317
318
319
32
320
321
322
323
324
325
326
327
328
329
33
330
331
332
333
334
335
336
337
338
339
34
340
341
342
343
344
345
346
347
348
35
350
351
352
353
354
355
356
357
358
359
36
360
361
362
363
364
365
366
367
37
370
371
372
373
374
375
376
377
379
38
380
381
382
383
385
386
387
388
389
39
390
392
393
394
395
397
398
399
4
40
400
401
402
403
404
405
406
407
408
409
41
410
411
412
413
414
415
416
417
418
419
42
420
421
422
423
424
425
426
427
428
429
43
430
431
432
433
434
435
436
437
438
439
44
440
443
444
445
446
447
448
449
45
450
451
452
453
454
455
456
457
458
459
46
460
461
462
463
464
465
466
467
469
47
470
471
472
473
474
475
476
478
479
48
480
481
482
483
484
485
486
488
49
490
491
492
493
494
495
496
497
498
499
5
50
500
501
502
503
504
505
506
507
508
509
51
510
511
512
513
514
515
516
517
518
519
52
520
521
522
523
524
525
526
527
528
529
53
530
531
532
533
534
535
536
537
538
539
54
540
541
542
543
545
546
547
548
55
550
551
552
553
554
556
557
558
559
56
560
561
562
563
564
565
566
567
568
569
57
570
571
572
573
574
575
576
577
578
579
58
580
581
582
583
584
585
587
588
589
59
591
592
593
594
595
596
597
598
599
6
60
600
601
602
603
604
605
606
607
608
609
61
610
611
612
613
615
616
617
618
619
62
620
621
622
623
625
626
629
63
630
631
632
633
634
635
6362
637
638
639
64
640
641
642
644
645
646
648
649
65
650
651
652
653
654
655
656
657
658
659
66
660
661
662
663
664
665
666
667
669
67
670
671
672
674
675
676
678
679
68
680
681
682
683
684
685
686
687
688
689
69
690
691
692
693
694
695
696
697
698
699
7
70
700
701
702
703
704
705
706
707
708
709
71
711
712
713
714
715
718
719
72
720
722
723
725
726
727
728
729
73
730
731
733
735
736
737
738
739
74
741
742
743
744
745
747
748
75
750
751
752
753
755
756
758
76
763
764
765
766
767
768
769
77
770
771
774
776
778
779
78
780
781
784
785
786
7864
787
788
789
79
791
792
793
794
795
796
797
798
799
8
80
800
802
803
804
805
807
808
809
81
811
812
813
814
815
816
817
819
82
820
821
822
823
824
828
83
830
831
832
833
834
835
836
838
839
84
840
842
843
844
845
846
847
848
849
85
851
852
853
855
856
857
858
859
86
862
863
865
867
868
869
87
871
872
873
874
875
876
878
879
88
881
882
884
886
887
889
89
890
891
892
893
895
896
897
898
899
9
90
900
901
902
906
907
908
909
91
911
912
914
915
917
918
92
920
922
923
927
928
93
930
931
933
935
936
937
939
94
940
941
942
943
944
948
949
95
950
951
952
953
954
955
956
957
958
96
960
9608
961
962
963
964
965
968
969
97
971
973
974
976
977
978
979
98
980
982
984
987
989
99
990
992
993
994
995
996
:
;
<
=
>
?
@
[
\
]
^
_
a
ab
abad
abadi
abaja
abajo
abandona
abandonar
abarca
abba
abc
abierta
abiertamente
abierto
abogado
abong
about
abra
abre
abril
abrio
abs
absoluta
abuela
abundancia
abundante
abundantes
abuso
ac
aca
acaba
acabar
acabo
acade
academia
academy
acantilados
accede
acceso
accidente
accidentes
accio
acciones
aceite
acepta
aceptar
acepto
acerca
acogida
acompan
acontecimientos
acorazado
acosta
acre
acta
acting
activa
actividad
actividades
activision
activist
activista
activo
activos
acto
actor
actores
actors
actos
actress
actriz
actu
actuacio
actuaciones
actual
actuales
actualidad
actualmente
acuerdo
acuerdos
acusaba
acusaciones
acusado
ad
ada
adams
adas
adc
adelante
adema
ademas
adentro
adicional
adio
administracio
administracion
administrada
administration
administrativa
administrativas
administrative
administrativo
ado
adolescentes
adolfo
adopta
adoptar
ados
adquirio
adultos
advertencia
ae
aec
aero
aeropuerto
aeropuertos
afganista
afganistan
afghanistan
afi
afirma
afluentes
africa
africana
africano
africanos
afrika
after
afuera
ag
agarra
age
aglipay
agosto
agraria
agri
agricultura
agrupa
agua
aguas
aguilar
aguilera
aguinaldo
aguirre
agusan
agusti
agustin
ahi
ahmed
ahora
ahoramente
ain
air
aire
aires
airport
aislados
aislamiento
akc
aklan
al
ala
alabat
alabel
alameda
alamedas
alaminos
alan
alapan
alas
alba
albania
albay
alberga
albert
alberto
album
albums
alcala
alcalde
alcaldes
alcanza
alcanzando
alcanzar
alcanzo
alcohol
aldea
aldeas
alegre
alegria
alejandro
aleluya
alema
aleman
alemana
alemanas
alemanes
alemania
alex
alexander
alfabeto
alfonso
alfred
alfredo
algo
algodo
algu
algun
alguna
algunas
alguno
algunos
ali
aliado
alianza
alias
alicia
alimento
alimentos
all
alla
allen
alli
allmovie
alma
almas
almeida
almirante
alo
alrededor
alreredor
also
alta
altar
altas
altiplano
altitud
alto
altos
altura
alturas
alumnos
alvarez
always
alza
am
ama
amante
amantea
amarillo
amazo
amazon
amazonas
amazoni
ambas
ambicioso
ambiente
ambos
ambrose
ame
amenaza
america
american
americana
americano
americanos
americans
amerindios
amiga
amigas
amigo
amigos
amihan
amistad
amo
among
amor
amores
ampatuan
amplia
ampliamente
amsterdam
an
ana
anabu
anaya
ancho
anchor
ancla
and
anda
andaluci
anderson
andes
andina
andinas
andino
andinos
andorra
andrade
andre
andres
andrew
andy
anexo
anfitrio
ang
angan
angel
angeles
angle
anglo
angola
aniban
anilao
animacio
animada
animados
animal
animales
animated
animation
anime
anjouan
anna
anne
annie
anno
annual
ano
another
ansina
anta
ante
antequera
anterior
anteriores
anteriormente
antes
anthony
anti
antigu
antigua
antiguas
antiguo
antiguos
antillas
antipolo
antiqua
antique
anto
antofagasta
antonio
antropomo
anual
anuales
anualmente
anuario
anunciado
anuncio
anyos
anza
anzas
anzoa
ao
ap
aparece
aparecen
aparecer
apareci
aparecio
aparicio
apariciones
aparte
apayao
apenas
apertura
aplaya
aplicacio
aplicar
apo
apodo
apoyado
apoyo
apple
applejack
appointed
aprende
aprender
april
aprobacio
aprobada
aprobo
aproximadamente
apure
aque
aquel
aquella
aquellos
aqui
aquino
ar
arabe
arabia
arago
aran
aranda
araneta
aravaca
arca
archipie
archivado
archive
archived
archives
archivo
arco
are
area
areas
arena
arequipa
arganzuela
argelia
argentina
argentino
aria
arica
ariola
aristides
arizona
arkham
armada
armadas
armado
armas
armenia
armin
armisticio
armm
armoni
army
aroma
around
arqueolo
arquipelago
arquitecto
arquitectura
arriba
arrin
arroyo
arroyos
arroz
art
arte
artes
artesani
arti
article
articles
artico
articulo
artificial
artilleri
artist
artista
artistas
arts
arturo
arzobispo
as
asa
asalto
asamblea
asan
ascendio
ase
asegun
asentamiento
asentamientos
asesinado
asi
asia
asian
asiento
asimismo
asistencia
asistir
asociacio
asociaciones
asociadas
asociado
asp
aspecto
aspectos
aspx
associated
association
astica
astronaut
astrono
asturias
asuka
asume
asumio
asuncio
asunto
asuntos
at
ataca
atacar
ataco
ataque
ataques
atenas
atencio
ateneo
atimonan
atla
atlantico
atlas
atocha
atracciones
atractivo
atractivos
atrio
attitude
attorney
au
audiencia
audio
auditorio
auge
august
augusto
aumentar
aumentaron
aumento
aun
aunque
aurora
austin
austral
australia
australian
austria
aute
author
authority
auto
autobuses
automo
autonoma
autonomi
autonomous
autopista
autor
autores
autoridad
autoridades
autovi
ave
avenida
avenidas
avenue
aves
aviacio
aviones
aviv
award
awards
away
ay
aya
ayacucho
ayala
ayan
ayuda
ayudar
ayudo
ayuntamiento
ayutthaya
az
azerbaiya
azu
azufre
azul
b
ba
babuyan
baby
baca
bachelet
bachiller
back
baclayon
bacolod
bad
bag
bagbag
bago
bagong
baguio
bagumbayan
bahay
bahi
bahia
baila
bailarina
bailarines
baile
baja
bajas
bajo
bajos
bal
bala
balada
balance
balanga
baler
balete
balintawak
ballet
balogo
baloncesto
balong
baluarte
bamban
bambang
bambu
ban
banaba
banco
band
banda
bandas
bandera
banderas
bang
banga
bangkok
bangsamoro
bani
bank
banks
bano
bantamweight
bantay
bar
barajas
barangay
barangays
barangka
baras
barbara
barcelona
barcos
bares
barinas
barira
barones
barquero
barquisimeto
barrameda
barras
barrio
barrios
bartolome
baryu
bas
basa
basada
basado
basados
basak
base
baseball
baseman
bases
basi
basics
basilan
basilica
bastante
basud
basura
bataan
batalla
batallas
batallo
batanes
batang
batangas
bateri
batman
bato
batuan
bautismo
bautista
bauxita
baviera
bawat
baxter
bay
bayabas
bayan
bayanihan
baybay
baybayin
bayog
bbc
bce
be
beatles
beautiful
bebe
bebidas
becky
become
been
before
behind
being
bele
belgrado
bella
bellas
belle
belleza
bello
belo
ben
bendito
benedicta
benedicto
benguet
beni
benigno
benito
benoit
berli
berlin
bernardo
besao
best
bet
betancourt
better
beyonce
bgy
bi
biblia
biblioteca
bibliotecas
bicol
bicolano
bielorusia
bien
bienestar
big
bilbao
biliran
bill
billboard
billones
billy
bin
bini
bio
biografi
biography
birmania
bisaya
bishop
bissau
black
blanca
blanco
blancos
blica
blicas
blico
blicos
bliss
blockchain
blog
bloom
blue
blues
bo
board
bob
bobby
bobon
boca
boccoli
boda
body
bogota
bohol
bol
boli
bolivariana
bolivia
bolsa
bomba
bonaparte
bonbon
bonga
bonifacio
bonito
bontoc
bonus
book
books
boom
borneo
bosley
bosnia
bosque
bosques
boston
bota
botswana
bottle
boulevard
box
boxeo
boxer
boxing
boy
br
brasil
brasilen
brasilia
bravo
bray
brazil
bret
bretan
breve
brevemente
brian
bricas
bright
brita
british
britney
broadcasting
broadway
brock
bronies
brooke
bros
brown
brujo
brunei
bruselas
bruto
bryan
btva
bu
buayan
bucana
buda
budas
buddha
budismo
budista
budistas
buen
buena
buenas
buenavista
bueno
buenos
buhay
bukal
bukidnon
bula
bulacan
bulgaria
bulod
buluan
bunawan
bunga
buques
burabod
burgos
burkina
burol
burundi
bus
busay
busca
buscando
buscar
bush
business
businessman
busuanga
but
buta
butuan
by
c
ca
caballero
cabangon
cabaroan
cabatuan
cabe
cabello
cabeza
cabezas
cabisera
cable
cabo
cabral
cabugao
cacao
cada
cadas
cadena
cadenas
cae
caesar
cafe
cagaya
cagayan
cagematch
cai
calabarzon
calamba
calapan
calatagan
calatrava
calauag
calbayog
calcula
caldera
calendario
calidad
california
callao
calle
calles
caloocan
calor
calumpang
cam
camalig
camara
camarines
camarinessur
cambia
cambiar
cambio
cambios
camboya
cameru
camiguin
camiling
camino
caminos
camp
campan
campeo
campeona
campeonato
campeonatos
campesino
campesinos
campo
campora
campos
campus
can
canada
canadian
canadiense
canadienses
canal
canales
canarias
cancio
cancion
canciones
candelaria
candidato
candidatos
candidatura
canelones
canta
cantando
cantante
cantantes
cantar
cantautor
canterbury
cantidad
cantidades
canto
cantor
cantora
caoayan
capa
capacidad
capaz
capi
capilla
capita
capital
capitales
capitalidad
capitan
capitani
capitol
capitolio
capitulo
capiz
capul
capuleto
car
cara
carabanchel
carabobo
caracas
caracteri
caracteriza
caracterizado
caracterizo
caraga
carbo
carbono
cardenal
cardenas
cardona
carey
carga
cargo
cargos
caribe
cariben
carles
carlos
carmella
carmen
carmesi
carmona
carnaval
carne
carolina
carrera
carreras
carretera
carreteras
carta
cartagena
cartelera
carter
cartier
cartoon
casa
casas
casco
casera
casi
casiguran
caso
casos
caspio
cast
castan
castellana
castellano
castilla
castillo
castro
catala
catalan
catalana
catali
catalina
catalun
catanduanes
catarman
catcher
catedral
categori
categoria
catholic
catmon
cato
catolica
catolico
causa
causas
causo
cavite
cawayan
cay
cayo
cbd
cbn
cd
ce
cebu
cebuano
celebra
celebracio
celebracion
celebrado
celebran
celebrar
celebro
celestia
cellulas
cementerio
cena
censo
census
censuses
center
centinel
central
centrales
centro
centroafricana
centros
ceo
cera
cerca
cercana
cercani
cercano
ceremonia
ceres
cerrado
cerro
certificacio
certificado
certification
cervantes
ces
cesar
cesaro
cesis
ch
cha
chad
chalbaud
chamarti
chamber
champion
championship
channel
charendoff
charles
charlotte
chart
charts
chavacano
chavez
chi
chicago
chicano
chico
children
chile
chilena
chileno
chilenos
chilla
china
chinas
chino
chinos
chipre
chira
choice
chris
christian
christina
christmas
christopher
church
ci
cia
ciccone
ciclo
cido
cielo
cien
ciencia
ciencias
cienti
cientifica
ciento
cientos
cierre
cierta
ciertas
cierto
ciertos
cifra
cifras
cilmente
cima
cimo
cinco
cincuenta
cine
cio
cipriano
cir
circa
circulacio
cita
citas
cite
cities
city
ciuda
ciudad
ciudadani
ciudadano
ciudadanos
ciudades
civil
civiles
civilizacio
civilizaciones
cl
cla
clara
clarin
claro
clase
clases
clasico
clasificacio
clasifican
classic
claudio
clausura
clave
claveria
cleo
cleos
clero
clicos
clifton
clima
climaco
climate
closing
club
clubes
clubs
cm
cnh
cnica
cnicas
co
coach
coalicio
coche
cocina
coco
code
codigo
cogon
cola
colabora
colaboracio
colapso
colas
cold
cole
coleccio
colecciones
colectiva
colectividad
colectivo
colegio
colima
colina
colinas
collection
college
colo
colombia
colombiana
colombiano
colonia
colonial
colonias
color
colorado
colores
columbia
columbus
columna
com
comandado
comandante
comares
combate
combates
combinacio
combustibles
come
comedia
comedian
comedy
comentarios
comenza
comenzara
comenzaron
comenzo
comer
comercial
comerciales
comerciantes
comercio
comic
comics
comida
comienza
comienzo
comisio
comisiones
comite
commonwealth
commun
community
como
comon
comoras
compan
company
comparacio
compartido
competencia
competencias
competicio
competir
compleja
complejo
completa
completamente
completar
complete
completo
compone
componentes
comporme
composicio
composita
compositor
compositora
compositores
compostela
compra
comprende
compuesta
compuesto
compuestos
computadora
comu
comun
comuna
comunes
comunica
comunicacio
comunicacion
comunicaciones
comunicado
comunidad
comunidades
comunio
comunista
comunistas
comunitario
con
concejo
concentracio
concepcio
concepcion
concepto
concert
concesio
concierto
conciertos
concluyo
concordia
concretamente
concreto
concurso
condado
conde
condenado
condes
condicio
condiciones
conduce
condujo
conecta
confederacio
conferencia
confessions
confi
confirmo
conflicto
conflictos
conformada
conformado
conforman
conforme
congo
congreso
congress
conjunta
conjunto
conmigo
conoce
conocer
conoci
conocida
conocidas
conocido
conocidos
conocimiento
conocio
conquista
conquistador
consecuencia
consecuencias
consecuentemente
consecutivos
conseguir
consejo
consejos
conserva
conservador
considera
considerable
considerablemente
considerada
considerado
considerados
consideran
considerando
considerar
considered
considero
consigo
consigue
consiguio
consiste
consisti
consolacion
consta
constante
constitucio
constitucion
constitucional
constitui
constituido
constituye
constituyente
construccio
construida
construido
construir
construye
construyeron
construyo
consuelo
consultado
consultor
consumo
conta
contabilida
contabilidad
contable
contables
contacto
contando
contempora
contemporary
contenido
content
conteo
contexto
contiene
contienen
contigo
continental
continente
continentes
continu
continua
continuacio
continuar
continuo
conto
contra
contrario
contrato
contratos
contreras
control
controlar
controversia
controversial
convencio
convento
convergencia
conversa
conversaciones
converti
convertido
convertiri
convertirse
convierte
convirti
convirtie
convirtiendo
convirtio
cooperacio
coordenadas
copa
copias
coquimbo
corazo
corazon
corbin
cord
cordillera
cordilleras
corea
coreana
coreano
coreografi
coritiba
coro
corona
coronacio
coronaciones
coronada
coronado
coronas
coronel
corporate
corporation
corrales
corre
correa
corresponde
correspondientes
corriente
corrientes
corrupcio
corrupcion
corta
corte
cortes
corteza
corto
cortometraje
cosa
cosacos
cosas
costa
costas
costera
costo
costumbre
costumbres
cotabato
cotabatoprov
could
council
country
court
cover
cp
crash
crata
crazy
cre
crea
creacio
creada
creado
creando
crear
creciendo
creciente
crecimiento
crecio
credits
cree
creencia
crei
creo
crew
creyentes
cri
criolla
criollo
criollos
crisis
cristiana
cristianismo
cristiano
cristianos
cristina
cristo
criterios
critico
cro
croacia
croata
cross
crossing
crowther
crudo
cruz
cter
ctica
cticamente
cticas
ctimas
ctor
ctrica
ctricas
cu
cua
cuadrado
cuadrados
cuadros
cual
cuales
cualquier
cuando
cuanto
cuantos
cuarta
cuarto
cuatro
cuauhte
cuba
cubagua
cubao
cubierta
cubo
cubre
cuenca
cuencas
cuenta
cuentan
cuentas
cuento
cuerpo
cuestio
cueva
cuevas
cula
culas
culmina
culmino
culo
culos
culpa
cult
cultiva
cultivan
cultivo
culto
cultura
cultural
culturales
culturas
culture
cum
cumana
cumbre
cumhuriyeti
cumplir
cun
cuna
cura
curitiba
curso
cursos
cusco
cut
cutie
cuya
cuyapo
cuyas
cuyo
cuyos
d
da
daan
daang
dada
dado
daily
dale
dallas
dame
dan
danao
dance
dando
dangerously
daniel
danny
danza
dao
dar
darle
das
dash
data
database
datos
datu
davao
david
davis
dawson
day
days
dc
de
dead
dean
death
debajo
debate
debe
deben
deberi
debi
debido
debio
debut
debuto
decada
decano
december
deci
decide
decidio
deciembre
decir
decisio
decisiones
declara
declaracio
declarada
declarado
declaro
declive
decoracion
decreto
decretos
dedica
dedicada
dedicado
dedico
default
defender
defensa
deferente
define
definicio
definiciones
definido
definitiva
definitivamente
deja
dejado
dejando
dejar
dejaron
dejo
del
dela
delante
delegado
delgado
delhi
delicias
dels
delta
dema
demanda
demo
democra
democracia
democratic
democratico
demogra
deng
denomina
denominacio
denominada
denominado
densidad
dentro
deo
departamento
departamentos
department
dependencia
dependencias
dependientes
deporte
deportes
deportiva
deportivas
deportivo
depresio
der
derecha
derecho
derechos
deres
deriva
derivados
derrocado
derrota
derrotando
derrotar
derroto
des
desaparecido
desaparicio
desarrolla
desarrollado
desarrollados
desarrollan
desarrollar
desarrollo
descalzos
descargas
descendiente
descendientes
describe
descubierta
descubierto
descubre
descubrimiento
descubrio
desde
dese
desembocadura
desempen
deseo
desfile
desierto
designada
designado
despierta
despue
despues
destaca
destacadas
destacado
destacados
destacan
destacando
destacar
destilacio
destinada
destino
destruccio
detra
deuda
development
devotos
dgeec
di
dia
dialecto
dialectos
diamantina
diana
diario
diarios
dias
diaton
diaz
dibujos
dica
diccionario
dice
dicha
dichas
dicho
diciembre
dico
dicos
dictador
dictadura
didn
die
diego
dieron
dies
diez
diferencia
diferencias
diferente
diferentes
difi
difunde
difusio
digital
digitales
dijo
diliman
dina
dinagat
dinamarca
dinasti
dinastia
dinero
ding
dio
dios
diosa
dioses
diploma
dipolog
diputado
diputados
direccio
direccion
directa
directamente
directas
directo
director
directorio
directos
dirige
dirigente
dirigentes
dirigida
dirigido
dirigidos
dirrty
disc
disciplina
disco
discogra
discos
discotecas
discurso
disen
disney
disolucio
disponibles
disputo
distancia
distintas
distinto
distintos
distribucio
district
districto
distrito
distritos
dita
dito
diutay
diva
divas
diversas
diversidad
diversos
divida
divide
dividen
dividi
dividida
dividido
divisas
divisio
division
divisoria
divorcio
diz
dj
dnie
do
doble
doc
doce
doctor
doctrina
documento
documentos
dog
dokic
dolor
dolores
dome
dominante
domine
domingo
dominicana
dominio
don
donde
dong
doo
doors
dorada
dorado
doreen
dos
double
down
downs
dr
dra
drama
dramaturgo
drew
drive
drogas
drummer
du
duda
dudas
duen
duero
dueto
dulag
dulce
dulo
dulong
dum
duo
dura
duracio
duran
durante
durazno
during
duro
dvd
e
early
east
eastern
ebro
ecija
eclesia
econo
economi
economia
economic
economico
economicos
economist
ecosistemas
ecuador
ecuatorial
ecw
ed
edad
eddie
edgar
edgardo
edge
edicio
ediciones
edificio
edificios
edison
edit
editado
editar
edition
editor
editorial
edo
edsa
edu
eduardo
educac
educacio
educacion
educator
edward
ee
eeuu
efecto
efectos
egipto
ehir
einstein
eje
ejecucio
ejecutiva
ejecutivo
ejemplo
ejemplos
ejerce
ejercio
ejercito
el
elaboracio
elcano
ele
eleccio
eleccion
eleccione
elecciones
electa
election
electo
electoral
electos
electricidad
electro
elegida
elegido
elegidos
elemento
elementos
elena
elevada
elevado
eli
elias
elige
eligio
elimination
elizabeth
ell
ella
ellas
elle
elliott
ello
ellos
elpidio
em
embajador
embargo
emilio
emiratos
emisio
emisoras
emmanuel
emmy
emperador
empesa
empeza
empezar
empezaron
empezo
empieza
empleado
empleados
empleo
emprendio
empresa
empresarial
empresas
empu
en
enamora
encabeza
encarga
encargado
encarnacio
encendido
enciclope
encima
encontra
encontraba
encontrado
encontramos
encontrar
encontrarse
encuentra
encuentran
encuentro
encyclopedia
end
ende
energi
enero
enfermedad
enfermedades
enfermo
enfrentamiento
enfrentamientos
enfrentar
enfrentaron
enfrente
english
enlace
enlaces
enorme
enrique
ensen
entablado
ente
entero
entertainment
entidad
entidades
entonces
entorno
entra
entrada
entrar
entre
entrega
entrenamiento
entretenimiento
entro
enumerated
envi
enviado
envio
ep
episode
episodes
episodio
episodios
equestria
equipo
equipos
er
era
eran
eres
eric
eritrea
ermita
ernesto
ero
erotica
error
es
esa
esamar
esas
escala
escapar
escasa
escenario
escenas
esclavitud
esclavos
escobar
escocia
escolar
escribe
escribi
escribido
escribio
escribir
escrita
escrito
escritor
escritora
escritores
escritos
escritura
escrituras
escuadra
escuchar
escudo
escuela
escuelas
escultor
escultura
esculturas
ese
esencial
esfuerzo
esfuerzos
eslavos
eslovaquia
eslovenia
eso
esos
espacial
espacio
espacios
espan
especi
especial
especiales
especializada
especialmente
especie
especies
especta
especulacio
espejo
espera
esperanto
esperanza
esperanzas
espi
espiritu
espiritual
esposa
essayist
est
esta
estaba
estaban
establece
establecer
establecida
establecido
establecimiento
establecimientos
establecio
estacio
estaciones
estadi
estadio
estado
estados
estadounidense
estadounidenses
estancia
estando
estanza
estar
estara
estari
estas
estasyon
estatal
estatua
estatuas
estatus
estava
este
esteban
estelar
estepas
ester
esteroides
esti
estigmas
estilo
estilos
estima
estimado
estimao
estimates
estis
esto
estonia
estos
estoy
estrada
estrecho
estrella
estrellas
estreno
estructura
estructuras
estudia
estudiando
estudiante
estudiantes
estudiar
estudio
estudios
estuvieron
estuvo
eswatini
et
etapa
etapas
etc
etiopi
etiqueta
etnia
etnias
eu
eurasia
europa
europe
europea
european
europeas
europeo
europeos
euskadi
eve
evento
eventos
eventual
eventualmente
everfree
every
evita
evitar
evolucio
evoluciono
ew
ex
excepcio
excepciones
excepto
exclusivamente
exclusive
exclusivo
executive
exhale
exiliados
exilio
existe
existen
existencia
existentes
existi
existio
exitosa
exitoso
exitosos
expandio
expansio
expedicio
experiencia
experiencias
experimento
explotacio
expo
exponente
exponentes
exportacio
exportaciones
exposicio
exposiciones
expresar
expresidente
expresio
extende
extendio
extensa
extensio
extension
extenso
extensos
exterior
exteriores
externa
extiende
extraccio
extranjera
extranjeras
extranjero
extranjeros
extraordinario
extreme
extremo
eyes
ez
f
fa
fabrica
facebook
factbook
facto
factor
factores
facultad
facultades
fado
fago
fairview
fajardo
falco
fall
fallecido
fallecimiento
falsas
falta
fama
fame
famer
familia
familiar
familiares
familias
family
famosa
famoso
famosos
fan
fana
fans
farmacia
fase
fashion
faso
fatima
fauna
faust
favor
favorite
favorito
fc
fe
featherweight
features
febrero
february
fecha
fechas
federacio
federal
federales
federation
federativa
feira
feje
felipe
felix
female
femenina
femenino
feno
ferdinand
feria
ferna
fernandez
fernando
feros
ferrocarril
ferrocarriles
ferroviario
festival
festivales
fi
fica
ficamente
ficas
ficha
fico
ficos
fidel
field
fiesta
fiestas
fifa
fighter
figura
figuras
figures
fijacio
fiji
fila
filas
files
filial
filibusterismo
filipina
filipinas
filipino
filipinos
film
films
filo
filomena
filosofi
filosofia
fin
final
finales
finalidad
finalizo
finalmente
financial
financiera
financieras
financiero
financieros
finanzas
fines
finlandia
finn
fino
fire
firma
firmado
firmar
firmas
firmo
first
five
fixation
flag
flair
flamenco
flecha
floor
flor
flora
flores
florida
flota
floto
fluttershy
fluvial
fluviales
fmi
fo
folk
fomento
fona
fondo
fondos
fono
fonos
football
footnotes
for
foreign
forestales
forever
forlasis
forma
formacio
formada
formado
formal
forman
formando
formar
formaron
formas
formato
former
formo
foro
fort
fortaleza
fortuna
fotografi
fotos
found
founder
fourth
fox
fr
fra
fracaso
fraccio
franc
france
frances
francesa
francesas
francesco
franceses
francia
francisco
franco
franja
frank
franklin
franquicia
fray
frecuencia
frecuente
frecuentemente
frecuentes
free
freestyle
french
frente
frescos
fri
frica
friend
friendship
froedden
from
frontera
fronteras
frontieras
frutas
fruto
fu
fue
fuego
fuente
fuentes
fuera
fueran
fueron
fuerte
fuertemente
fuertes
fuerza
fuerzas
fuga
fujimori
full
funcio
funciona
funcionamiento
funcionarios
funciones
funda
fundacio
fundacion
fundada
fundado
fundador
fundamental
fundamentales
fundo
funodacio
fusio
futbol
futbolista
futuro
fy
g
ga
gabaldon
gabinete
gabo
gabriel
gadafi
gala
galeri
galicia
galilei
galileo
gallardo
gallego
gallegos
gama
game
games
gana
ganaderi
ganado
ganador
ganadora
ganando
ganar
gandhara
gandhi
gano
garci
garcia
gary
garza
gas
gasolina
gasto
gastronomi
gata
gate
gautama
gay
ge
geishas
gen
gena
genas
genera
generacio
general
generales
generalmente
genero
generos
genes
genie
genio
geno
gente
gentes
gentilicio
geo
geogra
geografi
geografia
geographic
george
georgia
georgiano
ger
gerais
gerente
germa
german
gerona
gerweck
gestio
get
gettin
ghana
gibraltar
gica
gicas
gico
gicos
gilberto
gimen
gimme
gina
giorgi
giovanni
gira
girl
girls
giuseppe
giussani
global
globo
gloria
gma
go
gobernador
gobernar
goberno
gobierno
gobiernos
godal
goia
goicoechea
going
gold
golden
golf
golfo
golpe
gomez
gonza
gonzaga
gonzales
gonzalez
gonzalo
good
google
gospel
got
gov
governance
government
governor
goya
gra
graba
grabacio
grabaciones
grabado
grabados
grabar
grabo
gracia
gracias
grado
gradua
grafo
grafos
grammy
grammys
gran
granada
grand
grande
grandes
grandor
grave
gre
great
greatest
grecia
greco
green
gregoriano
gregorio
grey
griega
griego
griegos
grito
group
grueso
grupo
grupos
gs
gu
gua
guadalajara
guadalupe
guadarrama
guaira
guam
guardia
guatemala
guayana
guayaquil
gubat
gubernamental
gubernamentales
guerra
guerras
guerrero
guest
guez
gui
guia
guide
guila
guillermo
guimaras
guine
guinea
guingona
guitarist
guitarra
gulod
gumaca
gupta
gusto
gutie
guy
guyana
guzma
gwen
h
ha
hab
haber
haberse
habi
habiendo
habilidad
habilidades
habitacio
habitante
habitantes
habitual
habitualmente
habla
hablado
hablan
hablante
hablantes
hablar
habri
hace
hacen
hacer
hacerse
haci
hacia
hacie
hacienda
haciendo
had
hadji
hagonoy
haiti
hall
halla
hambre
hambruna
han
happy
hara
hard
hardy
hari
harina
harley
harold
harp
harris
harry
hart
has
hasbro
hasta
have
hay
haya
hayes
hazan
haß
hdr
he
head
heart
heaven
heavy
heavyweight
hebreo
hechas
hecho
hechos
hecta
hector
heel
hefe
heights
helena
hemisferio
hende
henrique
henry
her
herald
hercegovina
heredero
herencia
herido
hermana
hermano
hermanos
hermosa
herna
hernandez
hero
heroes
herrera
herzegovina
hi
hicieron
hidalgo
hidro
hidrocarburos
hidroele
hierro
high
highly
hija
hijo
hijos
hill
hills
himno
hindi
hindu
hinduismo
hinojosa
hip
hips
his
hispa
hispana
hispanic
hispanio
hispano
histo
historia
historiador
historiadores
historias
historical
history
hit
hitler
hits
hizo
hl
ho
hockey
hodie
hogan
hogar
hogares
hojas
holanda
holiday
hollywood
holy
hombre
hombres
home
homenaje
homer
homero
homes
homo
hondo
hong
honor
hope
hora
horas
horizonte
hospital
hospitales
hospitalidad
host
hot
hotel
house
housing
houston
hoy
htm
html
http
https
hu
hualpe
huang
hubiese
hubo
huc
huelga
huerta
huesca
hugo
hulk
human
humana
humanas
humanidad
humanidades
humano
humanos
humboldt
humedad
hungri
i
iata
iba
ibaba
iban
ibarra
ibc
ibe
ibf
ica
icaza
ichiro
id
idea
ideal
ideas
identidad
ideologi
idioma
idiomas
ido
if
ifpi
ifugao
iglesia
iglesias
ignacio
igual
igualmente
ii
iii
ika
il
ilawod
ilaya
ildefonso
ili
illustrated
ilocano
ilocos
ilog
iloi
iloilo
ilonggo
ilos
ima
image
imagen
imdb
imelda
immaculate
impacto
imperial
imperio
importaciones
importancia
importante
importantes
impuesto
impuestos
in
ina
inaugura
inauguracio
inauguro
inc
inca
incendio
incidence
inclui
incluida
incluido
incluidos
incluso
incluye
incluyen
incluyendo
incluyo
incorpora
incorporo
incremento
independencia
independent
independente
independentista
independiente
independientes
index
indi
india
indias
indica
indican
indico
indigenas
indio
indios
indirectamente
indo
indonesia
indu
industria
industrial
industriales
industrializacio
industrias
industry
ine
inegi
inestabilidad
infancia
infantil
inferior
inferiores
infielder
inflacio
influencia
influencias
info
informacio
informacion
informar
information
informe
informes
infraestructura
infraestructuras
ingenieri
inglatera
inglaterra
ingle
ingles
inglesa
ingleses
ingreso
ingresos
ingrid
inicia
iniciado
iniciales
inicialmente
iniciaron
iniciativa
inicio
inicios
inmediata
inmediatamente
inmigracio
inmigrantes
inquirer
inspiracio
inspirado
instalaciones
instancia
institucio
institucional
instituciones
institute
instituto
instruccio
instrumental
instrumento
instrumentos
insular
insuloj
inte
integracio
integrante
integrantes
intelectual
intencio
intenso
intenta
intentaron
intento
intentos
interaccio
interactive
intercambio
intere
intereses
interino
interior
interlingua
internacional
internacionales
internacionalmente
international
internet
interno
interpreta
interpretacio
interpretado
interpretando
interpretar
interpreto
interview
interviews
intramuros
introduccio
introducido
invasio
invento
inversio
inversiones
investigacio
investigaciones
invierno
inviernos
inxs
ipa
ipanaro
ipanoj
ipil
ipoj
iprage
iquique
ir
ira
iraq
irlanda
is
isabel
isabela
isagani
isbn
isbol
isidro
isko
isla
islam
island
islands
islas
israel
israeli
istas
istmo
it
ita
itaas
italia
italiana
italiano
italianos
its
iv
ivan
ix
iz
izquierda
j
ja
jaao
jaca
jacinto
jack
jackson
jacques
jae
jaena
jaime
jalisco
jama
jambangan
james
jane
janeiro
january
japan
japanese
japo
japon
japone
japones
japonesa
japonesas
japoneses
jardi
jardin
jardines
jaro
jasaan
jasmine
jason
javier
jay
jazjazjaz
jazz
je
jean
jeep
jeepney
jefe
jefes
jeff
jelena
jendeh
jeremy
jerry
jersey
jerusale
jerusalem
jesse
jessica
jesu
jesucristo
jesus
jim
jime
jimenez
jimmy
jk
jo
joan
joaqui
joaquin
joe
joey
john
johnny
johnson
jones
jonestown
jong
jordan
jordania
jorge
jose
josefina
joseph
josh
journal
journalist
joven
jovenes
joyas
jpg
jr
ju
jua
juan
juana
juda
judai
judge
judi
judicial
jueces
juega
juego
juegos
jueves
juguetes
juicio
julia
julian
juliano
julieta
julio
july
june
junio
junta
junto
juntos
juramento
juri
jurisdiccio
juscelino
just
justicia
justin
justo
juvenil
juventud
k
ka
kabuntalan
kaj
kalayaan
kalilangan
kalinga
kanamon
kanluran
kansas
kapatagan
karate
kate
katipunan
kauswagan
kawit
kay
ke
keempee
keeps
keith
kelly
ken
kenia
kevin
keys
khan
khz
ki
kick
kids
kiev
kilo
kilometro
kilometros
kim
kind
king
kingdom
kingston
kipner
kirchner
kirguizista
kiribati
kita
kiu
km
know
knowles
known
ko
kong
korea
korean
koronadal
kosovo
krung
ku
kubitschek
kudarat
kun
kurt
kuwait
kyle
l
la
labor
labrador
lachey
ladies
lado
ladrones
lady
laga
lago
lagos
laguna
lagunas
lake
lamao
lambayeque
lamitan
lamut
lana
lanao
land
lang
language
lanka
lanza
lanzada
lanzado
lanzamiento
lanzo
lao
laos
lapu
lapulapu
lapuz
lar
lara
lares
larga
largo
las
lashley
lati
latido
latin
latina
latino
latinoame
latinoamericanos
latinos
latitud
latorre
laundry
laura
laurel
lauren
lauro
lavalleja
law
lawaan
lbum
lbumes
ldez
lds
le
lead
leader
leal
lealtad
lectura
lee
leer
legal
legazpi
legend
legislativa
legislativo
legislativos
legislatura
lego
lei
lejos
lema
lengua
lenguaje
lenguas
leo
leon
leona
leonardo
leones
leos
les
lesio
lesnar
let
letonia
letra
letras
levanta
levantamiento
level
ley
leyenda
leyendas
leyes
leyte
lez
lgica
lgu
li
lia
libas
liberacio
liberal
liberales
liberalismo
liberia
libertad
libertador
libertadores
liberty
libia
libis
libjo
library
libre
libres
libro
libros
libya
lica
licas
licencia
licenciado
lico
licos
lida
lider
liderado
liderazgo
lido
lie
life
liga
ligas
ligero
light
lightweight
like
lil
lila
liloan
lima
limen
limi
limita
limitado
limited
linao
linda
line
linea
lineal
lineales
linebacker
lineman
lingu
lingua
lio
lipa
lipay
lisa
lisboa
lisis
list
lista
listas
lite
literalmente
literatura
litoral
litorales
little
lituania
liturgia
live
llama
llamada
llamadas
llamado
llamados
llamar
llamarse
llamo
llanera
llano
llanos
llanura
llanuras
llega
llegaba
llegada
llegado
llegan
llegando
llegar
llegari
llegaron
llego
llena
lleno
lleva
llevado
llevan
llevar
llevaron
llevo
lluvia
lluvias
lo
local
locales
localidad
localidades
localiza
localizacio
localizada
localizado
localizan
logi
logica
logo
logos
logra
logrado
lograr
lograron
logro
logros
lola
lolo
lomas
london
londres
lonely
long
longitud
longos
looc
lopez
lor
lord
lorenzo
loreto
los
lota
lou
louis
louise
lourdes
love
lower
loyola
ltima
ltimas
ltimo
ltimos
ltiples
lu
lublin
lucas
lucban
lucena
luces
lucha
luchador
luchadores
luchando
luchar
luchas
lucia
luego
lugar
lugares
luigi
luis
luisa
luiz
lujo
lula
luma
lumad
luna
lunes
lupa
luuk
luxemburgo
luz
luzo
luzon
lvaro
lydia
lynch
lyon
m
ma
maasin
mabini
mabolo
mabuhay
mac
macao
macapagal
macarthur
macedonia
machete
machine
mactan
madagascar
made
madeira
madera
madia
madonna
madre
madrid
madrilen
madrina
maestro
maestros
mag
maga
magallanes
magas
magazine
magdalena
magellan
magia
magic
magne
magni
magnitude
magno
magsaysay
maguindanao
maha
maharlika
mahayag
mahayahay
mahayana
mai
main
mainit
maipo
major
makati
maker
mal
mala
malacan
malagasang
malasia
malasin
malawi
malaya
malayo
maldonado
maleti
mali
maligaya
maliksi
malinao
malitbog
malo
malolos
malta
malvar
mama
mamasapano
mambajao
mambog
man
management
manager
mancha
mancomunidad
manda
mandaluyong
mandatario
mandato
mandaue
mando
manera
maneras
manga
mangga
manglares
manhattan
manifestaciones
manifiesta
manila
manns
manny
mano
manos
mansio
mantener
mantenido
mantenimiento
mantiene
mantienen
mantuvo
manual
manuel
manzanares
mao
map
mapa
maps
mar
mara
maracaibo
maracay
maras
marc
marca
marcas
marcelino
marcelo
march
marcha
marcial
marco
marcos
marfil
margarita
margen
mari
maria
mariah
mariana
marianas
mariano
marido
marie
marikina
marina
marinas
marinduque
marineri
marineros
marino
marinos
mario
mariscal
marisol
mariza
mark
marks
marktl
marruecos
marshall
marso
martes
marti
martial
martin
martinez
marval
marvel
mary
marzo
mas
masa
masas
masbate
mascota
masculina
masiva
maslog
masquen
massey
massiel
mata
match
matema
matematica
matematico
mateo
materia
material
materna
mathura
mati
matias
matrimonio
mauricio
mauritania
mauswagon
max
may
maynila
mayo
mayon
mayor
mayores
mayori
mayoria
mayotte
mazamitla
mbito
mbitos
mbolo
mbolos
mcfarland
mcintyre
mcmahon
me
measures
meca
meda
medal
medalist
medalla
media
mediados
mediante
medias
medicina
medicion
medida
medidas
medieval
medina
medio
medios
mediterra
mediterraneo
medo
mejor
mejora
mejorar
mejores
melodi
member
memoria
memorial
mencio
mencionado
mencionar
mendez
mendoza
meneses
meno
menor
menores
menos
mensaje
mentiras
menudo
mercado
mercados
mercedes
mercosur
mercurio
mercury
meridional
mero
meros
mes
mesa
meses
meseta
mesetas
mestizaje
mestizas
mestizo
mestizos
meta
metal
metas
meteorolo
metro
metropolitan
metropolitana
metros
mexican
mexicana
mexicano
mexicanos
mexico
mez
mezcla
mg
mga
mi
mia
mica
micamente
micas
michael
michaels
michelle
michigan
mico
micos
micronesia
mid
middle
middleton
midfielder
mie
miedo
miembro
miembros
miente
mientras
migay
miguel
mike
mil
mila
milagros
milagrosa
milenio
miles
militar
militares
military
millas
milliones
millo
millon
millones
mimaropa
mina
minas
mindanao
mindoro
minerales
mineri
minh
minister
ministerio
ministerios
ministro
ministros
minori
minsk
minutes
minuto
minutos
minuyan
mio
mira
miranda
miriam
mis
misa
misamis
misio
misionarios
misma
mismas
mismo
miss
missy
mitad
mite
mites
mix
mixed
miz
mizuki
mkbmemorial
mlb
mm
mma
mo
moc
moda
model
modelo
moderado
modern
moderna
moderno
modernos
modo
mohamed
mohammad
mohe
moldavia
moldavo
moldova
mole
molina
molino
momento
momentos
mon
monagas
monarca
monarqui
moncloa
monday
mondt
moneda
money
mongolia
monica
monje
mont
montan
monte
montenegro
montero
montes
montevideo
montoya
montre
montreal
monumento
monumentos
moon
mora
moral
morales
morato
more
moreno
morgan
mori
morir
morning
moro
morrison
mortal
mortales
moscu
mostrar
mostro
moti
motivo
motivos
mountain
movement
movie
movieplay
movies
movilizacio
movimiento
movimientos
mozambique
mpica
mpico
mpicos
mr
mrs
msnm
mtv
mu
mucha
muchas
mucho
muchos
muerte
muertes
muerto
muertos
muestra
muestran
mujer
mujeres
mulman
mulo
multitud
mun
mundial
mundiales
mundialmente
mundo
municipal
municipales
municipalidad
municipalidades
municipality
municipio
municipios
muntinlupa
muralist
muralla
murcia
muri
murieron
murio
muro
musculo
museo
museos
music
musica
musical
musicales
musician
musico
muslim
musulma
musulmana
musulmanes
muy
my
myanmar
n
na
nace
naci
nacida
nacido
nacidos
nacimiento
nacio
nacion
nacional
nacionales
nacionalismo
nacionalista
naciones
nada
naga
nagbukel
naguilian
naic
nam
name
names
namibia
nana
napo
napoleo
naranja
narciso
narra
narrativa
nasa
nashville
natal
natalia
national
natividad
nativo
nativos
natural
naturales
naturaleza
nature
nava
naval
navales
navarro
nave
naves
navi
navidad
naviden
navotas
navy
nayon
nazca
nazi
nbc
nchez
ncia
ncipe
ncr
nd
nde
ndez
ndice
ndico
ndola
ndole
ndolo
ndose
ndum
ne
nea
neamente
neas
necesarias
necesario
necesidad
necesita
need
negativo
nego
negociaciones
negocio
negocios
negra
negro
negros
nelson
neo
nepal
nero
neros
net
network
nevada
never
new
newlyweds
news
newton
next
nez
nfl
ng
nga
ngaro
ngel
ngeles
ni
nia
nibaliw
nica
nicamente
nicas
nichols
nick
nico
nicola
nicolas
nicole
nicos
nieta
nieve
nieves
nigeria
night
nightmare
nima
nimo
nin
ningu
ninguna
ninoy
nio
niog
niso
nisos
nitro
nivel
niveles
nmente
no
nobel
noble
nobleza
noche
noches
nocturno
noe
noemi
noli
noma
nomas
nombra
nombrada
nombrado
nombrados
nombrar
nombre
nombres
nombro
nominacio
nominaciones
nominada
nominado
nominated
nomo
non
none
norcentral
norcoreana
nord
nordeste
noreste
norma
normal
normalmente
normas
noroeste
norte
norteame
norteamerica
norteamericanos
norten
north
northern
noruega
nos
nosotros
not
nota
notable
notables
notas
notes
noticia
noticias
notre
novaliches
novela
novelist
november
novembro
noveno
novia
novicio
noviembre
now
ns
nsamar
nscrito
nsito
nso
nstra
nsula
ntesis
ntica
ntico
nu
nuclear
nuestra
nuestro
nuestros
nueva
nuevamente
nuevas
nueve
nuevo
nuevos
numa
numero
numerosas
numeroso
numerosos
nunca
nwa
nxt
o
oa
oaci
oasis
oaxaca
obispo
objetivo
objeto
objetos
obra
obras
obrero
observa
obstante
obtene
obtener
obtenido
obteniendo
obtuvo
ocampo
ocasio
ocasiones
occidental
occidentales
occidente
oce
oceania
oceano
ocho
ocio
octavo
october
octubre
ocupa
ocupacio
ocupacion
ocupada
ocupado
ocupar
ocupo
ocurre
ocurrio
odo
odos
oeste
of
ofensiva
oferta
off
offensive
office
official
oficial
oficiales
oficialmente
oficina
oficinas
oficio
ofrece
ofreci
often
og
ohio
oi
ojos
okinawa
okinawano
ol
ola
olaeta
olas
old
oleadas
oles
oli
oliveira
olympic
oma
omar
on
once
one
ones
ong
online
only
onu
open
opep
opera
operaciones
operation
opinio
oportunidad
oposicio
opositores
oquendo
or
ora
oracio
oral
orden
order
org
organ
organismos
organiza
organizacio
organizacion
organizaciones
organizada
organizado
orgullo
ori
oriental
orientales
oriente
origami
origen
original
originales
originalmente
orilla
orinoco
orlando
oro
orquesta
ortiz
ortodoxa
orton
os
osas
oscar
oscila
osmen
oso
otero
other
oton
otorga
otorgado
otorgo
otra
otras
otro
otros
otso
ottawa
otto
our
out
outfielder
outstanding
over
owen
owens
own
oxi
oz
p
pa
pablo
paci
pacifico
paco
pacquiao
pacto
padilla
padre
padres
pag
paga
pagadian
pagalungan
pagar
pagatin
pagbilao
page
pagina
paglat
pago
pai
paige
painter
pais
paisaje
paisajes
paises
pajaro
pakista
pakistan
palabra
palabras
palacio
palacios
palanas
palau
palawan
palestina
palestinos
pali
palma
palmas
palo
paloma
pambansa
pame
pamela
pames
pampanga
pamplona
pan
panama
panapaan
pandan
panganiban
pangasinan
pangdan
panglima
panorama
panteo
papa
papel
papua
papulidad
par
para
parada
parade
parado
parafi
parafinas
paraguay
parai
paraiso
paralelo
paran
parana
parang
pardo
parece
parecer
paredes
parejas
pari
paria
paris
park
parks
parlamentario
parlamento
parol
parque
parques
parra
parroquias
part
parte
partes
participa
participacio
participan
participantes
participar
participaron
participo
particular
particulares
particularmente
partida
partido
partidos
partir
parton
party
pasa
pasaba
pasado
pasajeros
pasando
pasar
pasay
pascua
pascual
paseo
pasig
pasil
pasillo
pasio
paso
pasong
pasos
pat
patag
patnanungan
patria
patricia
patricio
patrick
patrimonio
patrio
patro
patrona
pau
paul
paula
paulina
paulo
pay
paysandu
paz
pdf
pdvsa
pe
peace
peces
pedi
pedir
pedro
pegaso
peiken
peki
pelea
peli
pelicula
peligro
pelle
pelo
pen
penal
peni
peninsula
pennsylvania
pensaba
pensamiento
pensar
people
pequen
per
perde
perder
perdere
perdido
perdiendo
perdio
perdona
perez
perfil
performance
peri
perio
periodico
periodista
periodistica
periodo
periodos
perlas
permanecer
permanecido
permanecio
permanente
permite
permitido
permitio
pero
perro
perry
persona
personaje
personajes
personal
personales
personalidad
personalidades
personality
personas
pertenece
perteneciente
pertenecientes
peru
peruana
peruano
perugia
pesada
pesado
pesar
pesca
pese
peso
pesos
pete
peter
petro
petrolera
petrolero
pez
pg
pga
ph
philadelphia
philatlas
philippine
philippines
phonographic
photographer
photos
php
pi
piagapo
piano
pias
pib
pica
picasso
pico
picos
pidamente
pido
pie
piedra
piedras
piel
pierre
pies
pietrelcina
piezas
pigafetta
pila
pilar
pili
pin
pinar
pino
pinochet
pintor
pintura
pinturas
pio
pip
piratas
pista
pita
pitcher
pitogo
piura
pizza
pl
pla
placa
place
placer
plan
planes
planeta
planificacio
plano
planta
plantaciones
plantas
plantilla
plaridel
plata
plataforma
platino
platinum
plato
platos
playa
playas
player
plaza
plazo
plebiscito
plena
pleno
pli
plomo
png
po
pob
poblacio
poblacion
poblacional
poblaciones
poblada
poblado
pobladores
pobre
pobres
pobreza
poca
pocas
poco
pocos
podemos
poder
poderes
poderoso
podi
podido
podri
poema
poemas
poesi
poet
poeta
point
pol
polaca
polaco
pole
poli
police
polici
policy
polinesia
polite
politica
political
politicamente
politician
politico
polo
polonia
pone
poner
poni
ponis
pono
pontevedra
pontificia
pony
ponyville
pook
poona
poor
pop
populacion
populado
popular
populares
popularidad
popularmente
population
poquito
por
porcentaje
porcio
pornographic
porque
port
porta
portada
portal
portero
portion
porto
portugal
portugue
portuguesa
portuguesas
portuguese
portugueses
posadas
posee
poseen
posesio
posesion
posesiones
posibilidad
posible
posicio
posicion
posiciones
post
postal
posterior
posteriores
posteriormente
postres
potencia
potencial
potenciano
potencias
potosi
poverty
power
powerpuff
pp
pra
practica
prado
prayer
prc
pre
precio
precios
preciosa
precipitaciones
precisamente
precision
predecesor
predominante
pregunta
premio
premios
prendas
prensa
prepara
preparacio
presencia
present
presenta
presentacio
presentaciones
presentan
presente
presentes
presento
presidencia
presidencial
presidenciales
president
presidenta
presidente
presidentes
presidential
presio
preso
press
presupuesto
prevista
pri
price
prieto
prima
primaria
primavera
prime
primer
primera
primeras
primero
primeros
primo
princesa
principa
principado
principal
principales
principalmente
principia
principio
principios
prinsipia
print
prisio
prisioneros
privada
privadas
private
pro
proa
probablemente
problema
problemas
procedentes
proceso
procesos
proclama
produccio
produce
producer
produci
producida
producido
production
producto
productor
productora
productores
productos
produjo
profesional
profesionales
profesor
professional
professor
profunda
profundos
program
programa
programado
programas
programo
progreso
prohibido
project
promedio
promete
prominente
promocio
promocion
promocionar
promotor
promover
promovio
pronto
proper
propia
propias
propiedad
propiedades
propio
propios
propo
propone
proporcio
proporciones
propuesta
propuesto
prosperidad
protagonista
protagonistas
proteccio
proteger
protesta
protestantes
protestas
provee
proveniente
provenientes
providencia
proviene
provienen
province
provincia
provincial
provincias
provoco
proyeccio
proyecto
proyectos
pru
prueba
psa
psgc
pt
pu
public
publica
publicacio
publicaciones
publicado
publicidad
publico
publique
publishing
pudiendo
pudiera
pudieron
pudo
pueblo
pueblos
puede
pueden
puedes
puente
puerta
puertas
puerto
puertorriquen
puertos
pues
puesto
pula
pulmon
pulo
pulong
pulot
puna
puni
punk
punta
punto
puntos
pura
puso
py
pyongyang
pza
q
qaeda
qatar
qin
quadros
quarterback
que
quebec
quechua
queda
quedan
quedando
quedaron
quedo
queen
queens
quema
queremos
queri
querida
queso
quezon
qui
quida
quie
quien
quienes
quiere
quiero
quince
quinn
quinta
quintana
quintanilla
quintin
quinto
quirino
quita
quito
quiza
r
ra
rabe
rabes
radical
radio
radios
rafael
rai
rain
rainbow
rajah
rama
ramas
rami
ramificadas
ramirez
ramo
ramon
ramos
randy
rango
rap
rapper
rapu
rarity
rascacielos
rasgado
ratzinger
rau
raul
raven
raw
ray
rayo
raza
razo
razonamiento
razones
rbol
rboles
rca
rcega
rcito
rctv
rculo
rd
rdenes
rdida
rdidas
rdoba
re
rea
reagan
real
reales
realidad
realista
realistas
reality
realiza
realizacio
realizadas
realizado
realizar
realizarse
realizo
realmente
reas
rebaja
rebeldes
rebelio
receiver
rechazada
rechazo
recibe
recibi
recibido
recibiendo
recibieron
recibio
recibir
recie
reciente
recientemente
recientes
reconocer
reconocida
reconocidas
reconocido
reconocidos
reconocimiento
reconquista
record
recording
records
recorrido
recto
rector
recuerdos
recuperacio
recurso
recursos
red
redaccio
redes
reducido
ref
refere
referencia
referencias
referi
refiere
refineri
refleja
reflejo
reforma
reformacio
reformas
refugio
reg
regio
region
regional
regionales
regiones
regions
registro
regla
regresa
regresar
regreso
regular
rehabilitacio
reigns
reina
reinado
reino
reinos
relacio
relacion
relacionadas
relacionado
relacionados
relaciones
relativa
relativamente
relatos
released
releases
relief
relieve
religio
religion
religiones
religiosa
religiosas
religioso
religiosos
remedios
remix
remixed
remixes
ren
renacimiento
rendicio
rene
renta
renuncia
renuncio
reo
reporter
reportero
representa
representacio
representaciones
representan
representante
representantes
representative
representatives
represio
repu
republic
republica
republicano
republika
research
resen
reserva
reservas
reside
residencia
residencial
residenciales
residente
residentes
resistencia
resolucio
resources
respectivamente
respectivos
respecto
respeto
responsable
respuesta
restantes
restauracio
restaurante
restaurantes
resto
restobars
restos
resulta
resultado
resultados
resulto
retirada
retiro
retrato
retrieved
reu
reunio
reuniones
revancha
review
revisio
revista
revistas
revolucio
revolucion
revolucionaria
revolucionario
revolucionarios
revuelta
rey
reyes
rez
rgano
ri
ria
riaa
rica
ricamente
ricardi
ricardo
ricas
richard
richardson
rick
ricky
rico
ricos
rida
rido
ries
rights
rin
ring
rio
rios
riqueza
rise
rita
ritchie
ritmo
rito
ritu
ritual
rius
rivales
river
rivera
rizal
rkiye
rmica
rmino
rminos
rmula
ro
road
robert
roberto
roberts
robinson
robles
robot
roca
rocha
roche
rock
rocks
rodea
roderick
rodolfo
rodri
rodrigo
rodriguez
roe
roig
roja
rojas
rojo
roles
roll
rolling
rollins
roma
roman
romana
romance
romanico
romano
romanos
romblon
romeo
romero
romo
romper
rompio
romua
ron
ronda
ronquillo
ropa
roque
rosa
rosales
rosario
rosas
rose
ross
rossonoemi
roster
rousey
row
roxas
roxy
royal
rprete
rquez
rquicas
rrez
rtico
ru
rube
ruben
rubio
rudy
rueda
ruido
ruiz
rule
rules
rumani
rumania
rumano
rumble
rumbo
run
rupa
rural
rurales
rus
rusa
rusia
ruso
rusos
russo
ruta
rutas
rwanda
ryan
s
sa
saavedra
sabado
sabana
sabang
sabe
sabi
sabida
sabrina
saca
sacerdote
sacerdotes
saco
sacramento
saens
sagay
sagrada
said
saint
sal
sala
salamanca
salas
salazar
salcedo
sale
sales
salida
saliendo
salinas
salio
salir
salle
salo
salsa
salto
salud
saludable
salvacion
salvador
salvo
sam
sama
samar
samoa
sampaguita
sampaloc
sampao
samuang
samurai
san
sana
sanchez
sanciones
sandra
sang
sangre
sanguine
sanlu
sant
santa
santana
santander
santi
santiago
santo
santol
santos
sanz
sapa
sapang
sar
sara
sarangani
sarco
sargento
sariaya
sasha
saturday
saudita
say
scene
scholar
school
schools
schroeders
science
scootaloo
scott
scout
script
se
sea
sean
search
season
sebastia
sebastian
seca
seco
second
secret
secretari
secretario
secretary
secreto
secta
sector
sectores
secuencia
secular
seculo
secundaria
secundarias
secundarios
sed
seda
sede
sedes
see
seen
segmento
segu
segui
seguido
seguidores
seguidos
seguir
segun
segunda
segundo
seguridad
seguro
seis
seleccio
selena
sello
selva
semana
semanas
semi
seminario
sen
senado
senador
senadores
senate
senator
sencillo
sencillos
senegal
seno
sentido
separa
separacio
separada
separado
september
septentrional
septiembre
sepulcro
ser
sera
serbia
serena
sergio
seri
seria
serie
series
serra
serrani
serrano
servi
service
servicio
servicios
servir
ses
sesenta
set
setenta
seth
setiembre
seu
sevilla
sexo
sexto
sexual
seychelles
shake
shakira
shane
shanghai
shariff
shawn
she
sheamus
shelly
sheyne
show
shows
si
sia
siasi
sibugay
sica
sicamente
sicas
sico
sicos
siddharta
sido
siembra
siempre
siendo
sierra
siete
sig
sigla
siglas
siglo
siglos
significa
significado
significativa
significativo
significo
sigue
siguen
siguiendo
siguiente
siguientes
siguieron
siguio
sila
silang
silangan
silva
silver
silvio
sima
simbolo
similar
simo
simon
simple
simplemente
simpson
simulta
sin
singapur
singer
singh
single
singles
sino
sinsuat
sinulog
siquijor
siria
sirve
sirvi
sirvio
sison
sistema
sistemas
site
sites
sitio
sitios
sito
situ
situa
situacio
situada
situadas
situado
situados
skateboarder
slaughter
slex
sleyte
smackdown
smith
smo
sn
so
soberani
soberano
soberanos
sobre
soccsksargen
social
sociales
socialista
socialistas
sociedad
society
socio
socorro
sofi
sofia
sofo
sol
sola
solamente
solana
solano
solar
soldados
soldao
soledad
solicito
solidaridad
solis
solista
solitario
solo
solomon
somalia
sombra
some
sometidos
son
song
songwriter
sonido
sonidos
sono
sonora
sony
sophie
sora
soria
soriano
soro
sorsogon
sotavento
soul
soundtrack
south
southern
sovie
soy
space
spanish
spears
special
spera
spicaj
sports
square
squeda
sr
sra
sri
st
sta
standard
star
stars
start
stas
state
states
statistics
status
ste
steembecker
stephanie
stephen
steve
steward
stica
sticamente
sticas
stico
sticos
sting
sto
stone
stones
stories
story
stos
street
stripped
strong
strowman
studies
studio
studios
styles
su
sua
suarez
sub
suba
subanon
subdivide
subdivisio
subdivision
subdivisiones
subi
subio
sublevacio
sublevados
subliminal
submarino
subterra
subtropical
suburbio
succession
sucede
sucedido
sucedieron
sucedio
sucesivamente
suceso
sucesor
sucesos
sucre
sucursal
sud
suda
sudafrica
sudame
sudamerica
sudamericana
sudeste
sue
suecia
sueldos
suele
suelen
suelo
suen
suerte
suez
sufri
sufrimiento
sufrio
sui
suicide
suicidio
suiza
sul
sulla
sultan
sulu
suma
sumariocompacto
summer
summerslam
sun
sunday
sung
super
supera
superado
superando
superar
superficial
superficie
superior
superiores
superstar
supone
suprema
supremo
supuestamente
supuesto
supuso
sur
sureste
surge
surgieron
surigao
suroeste
survivor
sus
susana
suspensio
suyo
svg
sweet
sweetie
symone
system
systema
t
ta
tabaco
tabing
tabla
tablas
table
tacloban
tacna
tacuarembo
taekwondo
taft
tag
tagalo
tagalog
tago
tagoloan
taguig
tai
tailandia
taiwa
take
tal
talaba
talacogon
talavera
talayan
talcahuano
talent
talento
talentos
tales
talisay
talitay
talla
talon
taman
tambie
tambien
tambor
tamen
tampoco
tan
tanauan
tandang
tandil
tang
tangere
tanto
tanza
tanzang
tanzania
tapa
tara
tarde
tarlac
tarragona
tasa
tasas
tata
tawi
tayabas
taylor
taytay
tbol
te
team
teatro
teatros
tecnolo
tecnologi
teen
tegui
teinta
tejano
tel
tela
tele
telecomunicaciones
telefe
telefonico
telenovela
televidentes
televisio
television
televisiva
tell
tema
temas
temperatura
temperaturas
templado
temple
templo
templos
temporada
temporadas
temporalmente
temprana
ten
tendencia
tendra
tendri
tene
tenemos
tener
teni
tenia
tenido
teniendo
teniente
tenis
tensiones
teo
teori
teoria
tequen
tercer
tercera
tercero
terciario
tercio
terciopelo
teresa
teresita
teritorio
termales
termina
terminado
terminal
terminar
termino
ternate
terra
terreno
terrenos
terrestre
terrestres
territorial
territorio
territorios
territory
terroristas
terry
tesis
testamento
tetuan
texas
textil
textiles
texto
textos
th
that
the
their
thep
therava
there
they
thiessen
think
third
this
thomas
thomson
three
threshold
through
ti
tiaong
tibetano
tica
ticamente
ticas
tico
ticos
tiempo
tiempos
tiendas
tiende
tiene
tienen
tierra
tierras
tigbao
til
tiles
tima
timbiriche
time
times
timo
timog
timor
timos
tina
tinago
tinambacan
tio
tipo
tipos
tira
tito
titula
titulada
titulado
titulo
tlc
tnica
to
tobago
toca
toclong
toda
todas
todavi
todo
todos
together
tokio
toledo
tom
toma
tomado
tomando
tomar
tomas
tome
tomo
tomos
toneladas
tonga
tonight
tony
top
tordesillas
torero
tormentas
torno
toro
toronto
toros
torre
torres
torsten
tortura
total
totalidad
totalmente
tots
tour
tourism
tovar
tower
toy
tra
trabaja
trabajado
trabajador
trabajadores
trabajando
trabajar
trabajo
trabajos
track
tracks
tradicio
tradicion
tradicional
tradicionales
tradicionalmente
tradiciones
traduccio
tragedia
trai
traicio
trailer
trajo
tramo
transcontinental
transferencia
transformo
transicio
transporte
transportes
tras
trascendencia
traslado
trata
tratado
tratados
tratar
trave
tre
trece
treinta
tren
trenes
trento
tres
tri
tribo
tribos
tribunal
tribunales
tribune
tribus
tributo
trilogi
trinidad
trinidado
triple
tripulacio
tripulaciones
triste
triunfo
triunfos
trl
tro
trofes
trono
tropas
tropical
tropicales
true
trujillo
tu
tubigon
tubo
tubod
tuburan
tuca
tudela
tugas
tulo
tulos
tumbes
tunga
tupi
turca
turco
turi
turing
turismo
turista
turkey
turn
turner
turqui
tus
tuvieron
tuvo
tv
tweet
twilight
two
u
ubica
ubicada
ubicado
ubican
ucrania
ucraniana
ucraniano
ucranianos
ucv
udec
ue
ufc
uganda
uk
ultima
ultimo
ultimos
ultramar
um
uma
umpisa
un
una
unas
und
under
undp
une
unesco
unico
unicornio
unida
unidad
unidades
unidas
unido
unidos
unio
union
unir
united
universal
universidad
universidade
universidades
universitaria
university
universo
unkikirikiriunkikirikiri
uno
unos
unplugged
until
unu
up
updated
upi
upper
urban
urbana
urbanas
urbanized
urbano
urbanos
urdaneta
urss
uruguay
us
usa
usada
usado
usando
usar
userbox
uso
usted
utilities
utiliza
utilizada
utilizado
utilizan
utilizar
utilizo
uu
uzbekista
v
va
valdeande
valdez
valdivia
valencia
valentina
valenzuela
valladolid
valle
vallecas
vallenato
valles
valley
valor
valores
valparai
valparaiso
vamos
van
vancouver
vanessa
vanuatu
vao
var
vargas
vari
variables
variadas
varias
variedad
varios
various
vasco
vasquez
vaticano
vayas
ve
veces
vecina
vecino
vecinos
vega
vegetacio
vegetariano
vehi
veinte
vela
velocidad
ven
venados
vence
vencer
vendas
vende
vender
vendidas
vendido
vendidos
vendiendo
vendio
vene
venecia
veneno
venera
venes
veneto
venezolana
venezolano
venezolanos
venezuela
veni
venido
venta
ventas
ventriculo
ver
vera
verano
veranos
verba
verdad
verdadera
verdadero
verde
verdes
vergara
veronica
verse
versio
version
versiones
very
vez
vhs
vi
via
viaje
viajes
vica
vice
vicente
vicepresidente
vico
victor
victoria
victorioso
victory
vida
vidas
video
videoclip
videos
vieja
viejo
viejos
viena
viene
vienen
viento
vientos
viernes
vieron
vietnam
view
vigan
vii
viii
viktorio
vil
vila
viles
villa
village
villahermosa
villanueva
villaverde
ville
vin
vince
vincent
vino
vinta
vio
violencia
virac
virgen
virgin
virginia
virreinato
virtual
visayas
vision
visita
visitantes
vista
viste
visto
visual
viva
vive
viven
vivi
vivienda
vivir
vivo
vizcaya
vocablo
vocabulario
vocal
vocalista
voces
voice
voices
voivodeship
vojag
vol
volca
volumen
voluntad
volve
volver
volveri
volvieron
volvio
von
votacio
voto
votos
voz
vs
vuelo
vuelos
vuelta
vuelve
vuoto
w
wa
waiting
walter
wanna
want
wants
war
waray
warner
was
washington
watch
water
wawa
way
wba
wcw
we
web
website
welterweight
were
west
weste
western
westminster
what
when
whenever
where
wherever
which
white
whitney
who
why
wide
wife
wiki
wikimedia
wikipedia
wikiquote
wikisource
wild
will
william
wilson
wind
winner
winning
with
within
woman
women
won
work
world
would
wow
wrestlemania
wrestler
wrestlers
wrestling
wrestlingdata
writer
wubbzy
wwe
wwf
www
wyatt
x
xavier
xi
xico
xii
xiii
xima
ximas
ximo
ximos
xito
xitos
xiv
xix
xlsx
xv
xvi
xvii
xviii
xx
xxi
xxx
xxxx
y
ya
yacimiento
yacimientos
yan
ye
year
years
yes
yo
york
you
young
your
youth
youtube
yu
yugoslavia
yunga
z
za
zack
zambales
zambia
zamboanga
zamboangadelnorte
zamboanguen
zamora
zapote
zar
zaragoza
zayn
zds
zelanda
zimbabwe
zona
zonas
zone
zquez
zu
zulia
{
|
}
~
¡
ª
«
°
²
³
´
·
º
»
¿
ı
ŋ
ʰ
ʲ
ʻ
ˈ
ː
̀
́
̂
̃
̄
̆
̇
̈
̉
̊
̌
̛
̣
̦
̧
̨
̭
͂
͡
α
ν
ο
ς
в
и
на
республика
у
украі
я
ا
ة
دولة
ّ
ٔ
ٕ
ހ
ރ
އ
ޖ
ާ
ި
ު
ެ
ް
ं
क
ग
ज
त
द
ध
न
प
य
र
ल
स
ह
ा
ि
ी
ो
ौ
्
া
্
ੀ
ા
க
ச
ட
ா
ி
ு
்
ක
ත
ර
ල
්
ා
ි
ී
ร
ั
ิ
ี
ุ
์
་
ུ
င
န
မ
ာ
ု
ေ
်
ြ
ជ
ព
រ
ា
្
​
‌
‍
‑
–
—
―
‘
’
“
”
„
•
…
′
″
€
↔
↷
−
③
④
⑦
ⴰ
ⴳ
ⴷ
ⴻ
ⵔ
ⵜ
ⵢ
ⵣ
⺀
⺄
⺆
⺈
⺊
⺌
⺕
⺝
⺸
⺼
⿰
⿱
⿲
⿳
⿴
⿵
⿶
⿷
⿸
⿹
⿺
⿻
〢
い
う
え
お
か
き
く
け
こ
さ
し
た
っ
て
な
の
ふ
る
を
ん
゙
゚
ア
イ
オ
キ
ク
コ
シ
ス
ソ
テ
ト
ニ
ハ
ヒ
フ
ヘ
ュ
ユ
ョ
ロ
ヲ
ン
・
ー
㇁
㇂
㇄
㇇
㇈
㇉
㇓
㐁
㐄
㐅
㐌
㐫
㐬
㐭
㐮
㐱
㑒
㒵
㒸
㒼
㓁
㓞
㔾
㕛
㕣
㖾
㘝
㚅
㚇
㚔
㚘
㝉
㝡
㝴
㝵
㞋
㞢
㞷
㠩
㠭
㠯
㡀
㡭
㡿
㢲
㢴
㣇
㣺
㥯
㪅
㫄
㫐
㫒
㫺
㬅
㬎
㬥
㬰
㲋
㳄
㷠
㸒
㸚
㸦
㼌
㼲
㽞
㿟
䀠
䂞
䍃
䏍
䒑
䖍
䖒
䖝
䖵
䙴
䚻
䜌
䝿
䡛
䧹
䪞
一
丁
丂
七
丄
丅
丆
万
丈
三
上
下
丌
不
与
丏
丐
丑
专
且
丕
世
丘
丙
业
东
丞
丢
丣
两
严
並
丨
丩
个
丫
丬
中
丮
丰
丱
串
丵
丶
丷
丸
丹
为
主
丽
丿
乀
乂
乃
久
乆
乇
么
义
之
乌
乍
乎
乏
乐
乑
乔
乖
乗
乘
乙
乚
乛
乜
九
乞
也
习
乡
乳
乾
亀
亅
了
亇
予
争
事
二
亍
于
亏
亐
云
互
亓
五
井
亘
亚
亜
亞
亟
亠
亡
亢
交
亥
亦
产
亨
亩
享
京
亭
亮
亯
亰
亲
亳
亶
亷
人
亻
亼
亾
仁
今
介
仌
从
仐
仑
仒
仓
仕
他
付
仝
代
令
以
任
企
伊
伏
伐
休
会
伝
伯
但
位
何
佘
余
作
佥
使
來
侈
侌
侖
侯
侵
便
保
俞
信
修
倉
倍
候
倠
備
僉
僕
儿
兀
允
兂
元
兄
充
兆
兇
先
光
兊
克
兌
免
兑
兒
兓
兔
党
兜
兟
入
全
兩
兪
八
公
六
兮
兰
共
关
兵
其
具
典
兹
兼
冀
冂
冃
冄
内
冈
冉
冊
冋
册
再
冎
冏
冐
冒
冓
冖
冗
冘
军
农
冝
冡
冥
冫
冬
冷
几
凡
凢
凵
凶
凷
凸
凹
出
函
凾
刀
刁
刂
刃
刄
刅
分
切
刍
刑
刕
刖
列
刘
则
初
別
利
别
到
制
刺
則
削
剌
前
剡
剽
劉
力
功
加
劦
助
劫
劳
劵
勃
勇
勉
勒
動
務
勞
勤
勹
勺
勻
勾
勿
匀
匂
包
匆
匈
匊
匋
匍
匕
化
北
匚
匝
匡
匪
匱
匸
匹
区
医
匽
匿
區
十
卂
千
卄
卅
卆
升
午
卉
半
卌
华
卑
卒
卓
单
卖
南
卜
卝
卞
占
卡
卢
卣
卤
卦
卩
卪
卬
卯
印
危
即
却
卵
卷
卸
卻
厂
厃
厄
历
厈
厉
厌
厓
厘
厚
原
厤
厥
厨
厭
厲
厶
厷
厸
去
厼
厽
叀
参
參
叅
又
叉
及
友
双
反
叐
发
叒
叔
叕
取
受
叚
叜
叟
口
古
句
另
叩
只
召
可
台
叱
史
右
叵
号
司
叹
吂
各
吅
合
吉
吊
吋
同
名
后
吏
向
吕
君
吝
吞
否
含
启
吳
吴
吹
吾
呂
呆
呈
告
员
呙
周
命
咅
和
咎
咠
咢
咨
咸
咼
哀
品
哉
員
哥
哲
唐
商
啇
問
啚
啬
啻
善
喜
喬
單
喿
嗇
噩
嚴
囊
囗
囘
囙
囚
四
回
囟
因
囧
囬
困
囱
囷
固
国
圂
圅
國
圍
圓
土
圡
圣
圥
在
圭
地
圶
圼
坐
坒
坚
坴
垂
垔
垚
埀
埋
埶
執
基
堂
堅
堆
堇
堯
塞
墨
壘
士
壬
壯
声
壳
壴
壹
壺
壽
夂
处
夅
夆
备
夊
夋
夌
复
夏
夒
夕
外
夗
夘
多
夜
夢
大
夨
天
太
夫
夬
夭
央
失
夲
头
夷
夸
夹
夻
夾
奂
奄
奇
奈
奉
奎
奏
奐
契
奓
奔
奚
奞
奠
奢
奥
奭
女
奴
奻
好
如
妄
妙
妟
妥
妻
妾
姑
委
姜
威
娄
婁
婴
嬰
嬴
子
孑
孔
孕
孖
字
存
孚
孛
孝
孟
季
孤
学
孫
孱
學
宀
宁
宂
它
宅
宇
守
安
宋
完
宏
宓
宗
官
定
宛
宜
宝
客
宣
室
宮
宰
害
家
容
宾
宿
寄
寅
密
富
寒
察
寧
審
寫
寬
寮
寸
对
寺
寻
寽
対
寿
封
尃
射
将
將
專
尉
尊
尋
尌
對
小
少
尒
尓
尔
尖
尗
尚
尞
尢
尣
尤
尧
尨
尭
就
尸
尹
尺
尻
尼
尽
尾
尿
局
居
屈
屋
屎
屏
屑
展
屖
屚
属
屠
屡
屬
屮
屯
屰
山
屵
屾
岁
岂
岑
岡
岩
岳
岸
峯
島
崇
崑
崔
崖
崙
崩
嵬
嶲
巂
巛
川
州
巟
巠
巢
巤
工
左
巧
巨
巩
巫
差
己
已
巳
巴
巷
巸
巽
巾
巿
帀
市
布
希
帚
帛
帝
带
師
席
帶
常
干
平
年
幵
并
幷
幸
幺
幻
幼
幽
幾
广
広
庄
床
底
店
庚
府
度
庫
庭
庶
康
庸
廉
廌
廛
廣
廩
廴
延
廷
建
廾
廿
开
弁
弃
弄
弇
弋
式
弓
弔
引
弗
弘
弜
弟
弥
弦
弱
張
強
强
彊
彌
彎
彐
彑
当
彔
录
彖
彗
彡
形
彥
彦
彧
彭
彳
役
彼
往
待
律
徒
得
徙
從
復
微
徵
心
忄
必
忌
忍
志
忝
忠
忩
快
念
忽
忿
思
怠
急
怱
恆
恒
恩
恭
息
悉
患
悤
悲
悶
惠
惡
惢
愁
愈
意
愛
感
慈
慧
慮
憂
憲
應
懐
戀
戈
戉
戊
戋
戌
戍
戎
成
我
戒
戔
或
戚
戠
戢
截
戲
戶
户
戹
戼
戾
房
所
扁
扇
手
扌
才
打
托
执
承
折
拉
拜
拿
掌
推
提
摩
支
攴
攵
收
攸
改
放
政
敄
敏
敕
敖
敗
敝
敞
敢
散
敦
敫
敬
数
敷
數
斂
文
斉
斊
斗
斤
斥
斩
斬
斯
新
方
於
施
斿
旁
旋
族
无
旡
既
旣
日
旦
旧
旨
早
旬
旱
旲
时
旾
昆
昇
昌
昍
明
昏
易
昔
昗
昜
星
春
昬
是
昱
昴
昷
時
晃
晋
晏
普
景
晶
智
暑
暴
曇
曩
曰
曲
曳
更
曷
書
曹
曼
曾
替
最
朁
會
月
有
朋
服
朔
朕
朗
望
朝
木
朩
未
末
本
札
朮
术
朱
朵
朶
朿
杀
杏
杜
束
条
来
東
杲
杳
松
析
林
枚
果
枝
枲
枼
某
柔
查
柬
柰
柴
栗
桀
桑
桼
梁
條
梟
梨
棘
棠
棥
森
楚
業
楽
榮
樂
樊
欠
次
欣
欮
欲
欶
欽
款
歆
歇
歌
歛
止
正
此
步
武
歨
歪
歮
歯
歰
歲
歴
歷
歸
歹
歺
死
殳
段
殷
殸
殹
殺
殻
殿
毋
毌
母
每
毒
比
毕
毚
毛
毳
氏
氐
民
气
氣
水
氵
氶
氷
永
氺
氾
求
汝
汞
江
沃
沓
沖
沙
沝
泉
法
波
泣
泥
泰
洛
洪
活
派
流
浦
浪
浮
海
淡
淮
清
渚
渠
湯
滿
漸
火
灬
灭
灰
灵
灷
炅
炎
炏
炗
炙
炭
為
烈
烏
烝
焉
無
焦
焱
然
煞
熊
熏
熱
燕
營
燮
爪
爫
爭
爯
爰
爱
爲
爵
父
爻
爽
爾
爿
片
牙
牚
牛
牜
牟
牢
牧
牪
牽
犀
犬
犭
犮
狂
狄
狊
独
狺
猋
猒
猪
献
獻
玄
率
玉
王
玟
玨
珎
班
琴
瑟
瑩
瓜
瓦
甘
甚
生
産
用
甫
甬
田
由
甲
申
电
甶
男
甸
甹
画
甾
畀
界
畏
畐
留
畜
畟
畢
畧
畨
番
畫
異
畱
當
畺
畾
疊
疋
疌
疑
疒
疾
癶
癸
癹
登
發
白
百
皀
皃
的
皆
皇
皋
皐
皕
皮
皷
皿
盃
盆
盇
盈
益
盍
盎
监
盒
盖
盛
盡
監
盤
盧
目
直
相
盾
省
眇
眉
看
眔
眞
真
眷
眼
眾
着
睘
睪
睿
瞏
瞢
瞿
矍
矛
矞
矢
矣
知
矦
短
石
破
碎
磊
磨
示
礻
礼
祟
票
祭
禀
禁
禸
禹
禺
离
禽
禾
禿
秀
秃
秉
秋
科
秝
秦
移
稟
穀
穌
穴
究
穹
空
穿
突
窄
窒
立
竒
竜
竝
竟
章
童
竹
笑
笠
筆
等
答
箕
算
箴
節
篤
篭
米
粉
粛
粟
粤
粦
粲
糞
糸
糹
系
約
納
素
索
紫
累
細
絜
絫
絲
維
綿
縄
縣
繇
纍
纟
缶
网
罒
罔
罕
罗
罙
罡
罢
罪
署
罷
羅
羊
羌
羍
美
羔
羕
羗
羞
羡
羣
群
義
羲
羸
羽
翁
翏
習
翕
翟
翠
翼
老
耂
考
者
耆
而
耎
耑
耒
耳
耴
耶
耷
聂
聊
聖
聚
聶
聿
肀
肃
肅
肉
肖
肙
肥
肩
肯
育
肴
胃
背
胡
胥
能
脊
脩
膚
臣
臤
臧
自
臬
臭
臯
臱
至
致
臺
臼
臽
臾
臿
舀
舂
舄
與
興
舉
舌
舍
舛
舜
舞
舟
般
船
艮
良
色
艸
艹
艾
芒
芔
芬
芮
花
芳
芺
芻
苔
苗
苟
若
苦
英
茶
茸
荅
草
荒
荣
荼
莆
莧
莫
莽
菆
菊
菐
華
萬
落
葉
著
葛
董
葵
蒙
蒦
蒼
蓋
蓬
蓺
蔑
蔡
蕉
蕭
薄
薛
薦
薰
藍
藏
藥
蘭
虍
虎
虐
虒
虔
處
虖
虗
虘
虚
虛
虜
虞
虫
虽
蚤
蚩
蜀
蜜
蟲
蠡
血
行
衍
衛
衣
衤
表
衮
衰
袁
袞
褭
褱
襄
襾
西
覀
要
覃
見
規
覓
覧
親
覽
见
角
解
言
訁
訇
計
記
詹
誩
諸
讠
谷
豆
豈
豊
豐
豕
豖
豙
象
豦
豩
豪
豸
貇
貝
貞
貟
負
貢
貧
貪
貫
責
貳
貴
買
費
賁
資
賈
賏
賓
賔
賛
賞
賢
賣
質
賴
贊
贝
贡
责
贯
贲
贵
赖
赞
赤
赦
走
越
足
路
蹇
身
躬
車
軍
軎
軟
輦
车
辛
辜
辟
辥
辰
辱
農
辵
辶
边
达
过
近
连
迷
追
退
送
逆
逐
通
速
造
逢
連
逮
進
遀
遂
過
道
達
遣
適
遷
遺
邊
邑
邕
那
邦
邪
郎
部
郭
都
鄉
酉
酋
配
酓
釆
采
里
重
野
量
金
釒
錢
钅
長
镸
长
門
閃
閉
開
閏
閑
閒
間
閔
閵
閻
闌
门
间
闷
阑
阜
阝
阿
降
陳
隆
隊
隋
隡
隨
隱
隶
隹
隺
隻
隼
隽
难
雀
雁
集
雈
雋
雍
雐
雔
雙
雚
雜
雝
離
難
雨
雩
雪
雲
零
雷
需
霍
霜
霝
霞
霸
靈
靑
青
非
靡
面
靣
革
韋
韦
韭
韯
韱
音
頁
頃
項
須
頗
頡
頻
顛
页
風
风
飛
飞
食
飠
養
饣
首
香
馬
馮
駦
马
骨
高
髟
鬥
鬯
鬲
鬼
魂
魚
魯
鮮
鱼
鲁
鳥
鳳
鸟
鹵
鹿
麃
麗
麥
麦
麻
黃
黄
黍
黎
黑
黒
黨
黹
黽
黾
鼎
鼓
鼠
鼻
齊
齋
齐
齒
齿
龍
龙
龜
龟
龠
龰
龱
龴
龵
龶
龷
龸
龹
者
艹
﻿
？
～
𑀜
𠀁
𠀃
𠀆
𠀉
𠀎
𠀐
𠁁
𠁣
𠂆
𠂇
𠂈
𠂉
𠂊
𠂋
𠂎
𠂒
𠂔
𠂛
𠂡
𠂢
𠂤
𠂬
𠂭
𠂹
𠃊
𠃋
𠃌
𠃍
𠃎
𠃑
𠃓
𠃔
𠃜
𠄌
𠄎
𠄠
𠄢
𠆢
𠆥
𠇍
𠈌
𠌵
𠓜
𠔉
𠔥
𠔼
𠔽
𠔿
𠕀
𠕁
𠕋
𠘧
𠘨
𠙻
𠙼
𠚏
𠚒
𠚤
𠚪
𠣏
𠤎
𠤕
𠥓
𠦄
𠦑
𠦝
𠧒
𠧗
𠧪
𠩺
𠪚
𠫓
𠫔
𠫤
𠬛
𠬝
𠬞
𠬢
𠬤
𠬶
𠮛
𠮦
𠮷
𠯑
𠱠
𠳮
𠷎
𡈼
𡉀
𡉵
𡌥
𡍮
𡏳
𡕒
𡕩
𡕰
𡖅
𡗗
𡗜
𡘆
𡘤
𡧱
𡨄
𡩧
𡬠
𡭽
𡰣
𡰥
𡰪
𡰯
𡰱
𡷈
𡸁
𡿨
𡿩
𡿪
𡿺
𢀖
𢀛
𢀩
𢁙
𢆉
𢆰
𢆶
𢇁
𢇇
𢉖
𢌬
𢌿
𢏚
𢑑
𢑚
𢖻
𢙣
𢛳
𢦏
𢦒
𢧵
𢼄
𢾕
𣁋
𣄼
𣅀
𣅽
𣍘
𣎳
𣎵
𣏋
𣏼
𣗥
𣥂
𣥖
𣦵
𣦼
𣧄
𣪊
𣪠
𣬉
𣳾
𣶒
𤇾
𤊽
𤐫
𤓰
𤔔
𤕨
𤣩
𤰇
𤰔
𤰞
𤴓
𤴔
𤽄
𥁑
𥁕
𥃦
𥃩
𥃭
𥇡
𥑟
𥘅
𥘈
𥝢
𥫗
𥱡
𦈢
𦉪
𦉬
𦉼
𦍌
𦍒
𦎧
𦐇
𦓔
𦔮
𦘒
𦙃
𦚏
𦣝
𦣞
𦣻
𦥑
𦥔
𦥯
𦨉
𦭝
𦰩
𧆞
𧈧
𧘇
𧰨
𧴪
𧴮
𧵩
𧾷
𨸏
𨾴
𩙿
𩠐
𩫏
𩵋
𪉷
𪜀
𪟽
𪠲
𪩲
𫇦
𫔭
𫜸
𫝀
𫠣
𫠩
𫢉
𫥞
𫩏
𫩠
𫪡
𫲽
𫶧
𬀷
𬐘
𬗌
𬙙
𬛸
𬜯
𬟩
𬯁
𬴘
𬺻
𬼉
𬼖
𭀰
𭁈
𭁨
𭅰
𭑈
𭕄
𭗼
𭤨
𭥫
𭻾
𮅕
𮊿
𮍌
𮍏
𮓗
𮥼
𮧮
廾
𰀁
𰀄
𰀈
𰀉
𰀕
𰀠
𰀡
𰀢
𰀪
𰁜
𰃮
𰆊
𰆘
𰋙
𰕎
𰢴
𰧭
𰯲
a--
ab--
abu--
ac--
aca--
acce--
acon--
ad--
addi--
adel--
admini--
adya--
afec--
afi--
afro--
ag--
age--
agra--
agu--
ai--
ak--
al--
ale--
ali--
all--
alter--
am--
ama--
ambi--
ame--
an--
ana--
ances--
ang--
ani--
ante--
anun--
ap--
apo--
apro--
aprove--
ar--
are--
arre--
arreg--
as--
ascende--
ase--
asi--
asig--
aso--
assas--
at--
atrac--
atrap--
au--
aumen--
auxi--
avi--
ay--
az--
azu--
b--
ba--
bac--
badi--
bag--
bal--
bali--
ban--
bar--
bau--
be--
ben--
benefi--
ber--
bi--
bielor--
bin--
bio--
bis--
blo--
bo--
bod--
boli--
bom--
bor--
bord--
borde--
br--
bri--
bu--
budd--
bul--
bule--
bur--
c--
ca--
caba--
cag--
cal--
cala--
calu--
cam--
can--
candi--
capa--
car--
cara--
cat--
cata--
cau--
caw--
ce--
cen--
cer--
ch--
cha--
che--
chi--
chichi--
cho--
ci--
cin--
cir--
circunsta--
cl--
cli--
co--
col--
colum--
com--
con--
concen--
conclu--
condu--
confe--
confu--
conme--
consu--
coor--
cor--
cose--
cri--
crite--
cru--
cruz--
cry--
cu--
cuar--
cubi--
cum--
cur--
cy--
d--
da--
de--
defe--
del--
deli--
den--
des--
desas--
di--
dia--
dic--
dig--
dis--
dismi--
dist--
diversi--
do--
domi--
don--
dos--
dr--
dre--
du--
dum--
dx--
dy--
e--
ed--
ef--
egip--
eje--
el--
elab--
eli--
em--
emo--
en--
encu--
enfer--
enfr--
entre--
erig--
erup--
es--
esca--
esco--
escog--
escu--
ese--
espe--
est--
estre--
et--
eu--
evange--
evi--
ew--
ex--
expl--
extrema--
f--
fa--
faci--
fal--
far--
fe--
fer--
fest--
feu--
fi--
figh--
fir--
fis--
fla--
fly--
fo--
fol--
for--
fr--
fran--
fron--
fu--
fue--
funera--
g--
ga--
gal--
gar--
ge--
geo--
gigan--
gla--
go--
gober--
gra--
gro--
gu--
gua--
guer--
gui--
h--
ha--
he--
hela--
hen--
her--
hi--
hina--
hini--
ho--
hom--
hor--
hu--
i--
identi--
if--
ig--
il--
ilus--
im--
impi--
in--
inclu--
inde--
indi--
influ--
inscrip--
inspi--
insta--
inte--
inter--
inva--
invi--
ir--
irel--
irre--
is--
it--
j--
ja--
jan--
je--
jefa--
ji--
jin--
jo--
ju--
juz--
k--
ka--
kay--
kazaj--
ke--
ki--
ko--
kor--
ku--
l--
la--
lag--
lan--
law--
le--
lec--
leg--
len--
li--
libe--
lo--
los--
lu--
lum--
m--
ma--
mac--
mag--
magis--
mal--
mala--
mam--
man--
manif--
mar--
mara--
mari--
mas--
mat--
mau--
may--
me--
medi--
mel--
men--
mercan--
mi--
mic--
mid--
mil--
mini--
miste--
mo--
mon--
monaste--
monte--
monumen--
mor--
mos--
mu--
mul--
muz--
n--
na--
naf--
nau--
nd--
ne--
neer--
neo--
ngu--
ni--
no--
nor--
nos--
nu--
o--
ob--
oc--
occu--
octa--
ocur--
ol--
on--
op--
opti--
or--
ori--
ork--
oro--
orto--
os--
p--
pa--
pag--
pal--
pala--
pam--
pan--
pang--
par--
pari--
pat--
pe--
pen--
per--
pere--
permiti--
pertene--
peti--
ph--
pi--
pic--
pid--
pin--
pl--
plu--
po--
pol--
pon--
por--
posi--
pra--
pre--
predo--
pri--
pro--
prohi--
promo--
promulga--
pronu--
prote--
provo--
pt--
pti--
pu--
pul--
pun--
pur--
q--
qu--
quebr--
qui--
r--
ra--
ran--
rap--
rati--
ray--
re--
reac--
rebe--
reci--
recla--
reco--
recu--
red--
reem--
ref--
refor--
reg--
regi--
regis--
rele--
reli--
rendi--
renova--
reperto--
res--
respo--
respub--
reuni--
rhy--
ri--
rin--
riva--
ro--
rob--
roc--
ron--
roo--
rou--
roy--
rti--
ru--
rus--
s--
sa--
sab--
sal--
sam--
san--
sau--
se--
sec--
secu--
sen--
sept--
ser--
shi--
si--
sil--
sim--
sin--
so--
socio--
soft--
sol--
solu--
some--
sor--
sospe--
spi--
st--
ste--
sto--
stu--
su--
sub--
subor--
sufi--
super--
sur--
sus--
sustitu--
t--
ta--
tag--
tal--
tam--
tan--
tar--
tayiki--
te--
teac--
tele--
tem--
ter--
th--
ti--
tig--
to--
tor--
tow--
tradu--
trans--
tri--
tru--
tu--
tub--
tum--
turi--
ty--
u--
uf--
um--
un--
unif--
univ--
universita--
up--
ur--
us--
usu--
v--
va--
vari--
vas--
ve--
vel--
verti--
vi--
vir--
vo--
volunta--
vul--
w--
wa--
wal--
wel--
wild--
xi--
y--
ya--
ye--
yi--
yo--
yu--
z--
za--
ze--
zo--
--0
--1
--2
--3
--4
--5
--6
--7
--8
--9
--a
--aba
--able
--ac
--acio
--ad
--ada
--ades
--ado
--ados
--ag
--aga
--ai
--ak
--al
--ald
--ales
--am
--ame
--amiento
--an
--ance
--ando
--ano
--ao
--ap
--apa
--ar
--ario
--as
--at
--ate
--ation
--ato
--au
--awan
--ay
--b
--ba
--bal
--ban
--be
--berg
--bes
--bi
--ble
--bo
--bog
--bon
--bra
--bre
--bro
--bs
--bu
--c
--ca
--cal
--calan
--cao
--cas
--cat
--ce
--cede
--cedentes
--ch
--che
--cho
--cht
--ci
--cia
--cio
--cion
--ciones
--ck
--cle
--co
--cos
--cra
--cta
--cto
--cusio
--cy
--d
--da
--dad
--dag
--dalo
--das
--ddy
--de
--den
--di
--dia
--dida
--dido
--dio
--dir
--do
--dor
--dores
--doro
--dos
--dri
--dro
--ds
--dt
--duci
--dy
--e
--ea
--eak
--ece
--ecen
--eci
--ed
--eda
--ef
--eg
--ei
--eiro
--ejo
--ek
--el
--ela
--en
--ena
--endo
--eno
--eos
--er
--eri
--ero
--eron
--es
--eses
--et
--ete
--etta
--ez
--f
--fa
--fe
--fer
--fi
--fico
--ft
--g
--ga
--gacio
--gal
--gan
--gante
--gao
--gas
--gawan
--ge
--gest
--gi
--gida
--gin
--gio
--gir
--go
--gol
--gon
--gondon
--gory
--gra
--gro
--gue
--h
--ha
--ham
--han
--hc
--i
--ia
--ian
--iana
--ic
--ica
--icas
--ice
--ico
--ida
--idad
--idades
--idas
--ie
--iel
--ig
--igo
--igos
--ii
--iki
--ila
--imo
--in
--ing
--ino
--ins
--io
--ion
--ios
--ip
--ir
--ira
--is
--ismo
--ista
--istas
--it
--ite
--ito
--ivas
--ivo
--iza
--izacio
--izado
--izados
--izo
--j
--ja
--jan
--je
--ji
--jo
--jos
--k
--ka
--kan
--ke
--ki
--ko
--l
--la
--lad
--lada
--lag
--lam
--lan
--lao
--ld
--lde
--ldo
--le
--ler
--les
--lf
--li
--lig
--lin
--lio
--ll
--lla
--llah
--ller
--llo
--lls
--lmente
--lo
--lon
--lta
--lu
--ly
--m
--ma
--mada
--man
--mba
--mbo
--mbre
--me
--men
--mente
--mento
--mi
--miento
--mo
--mos
--mpa
--my
--n
--na
--nada
--nado
--nados
--nal
--nalmente
--nan
--nao
--nar
--nary
--nas
--nc
--nca
--nce
--ncia
--ncy
--nd
--nda
--ndan
--ndi
--ndida
--ndio
--ndo
--ne
--ner
--nero
--nes
--ney
--ng
--nge
--ni
--nia
--nismo
--nk
--nlıg
--no
--nog
--nos
--ns
--nsio
--nt
--nta
--nte
--ntes
--nti
--nto
--ntos
--ny
--nza
--nzo
--o
--oc
--od
--og
--oi
--ok
--ol
--om
--on
--ondo
--oni
--ono
--op
--or
--os
--osa
--osas
--ots
--ough
--oy
--p
--pa
--pad
--pe
--phy
--po
--pto
--r
--ra
--rada
--rado
--ral
--ran
--rao
--ras
--rca
--rd
--re
--res
--ri
--ria
--rio
--rios
--rizo
--rmo
--rn
--rna
--rno
--ro
--roco
--ron
--ros
--rra
--rs
--rse
--rt
--rta
--rte
--rto
--ry
--s
--sa
--san
--sas
--scos
--se
--ses
--sh
--shi
--si
--side
--sio
--sista
--sita
--siva
--smo
--so
--sor
--sos
--ss
--st
--sta
--t
--ta
--tac
--tada
--tado
--tados
--tar
--taria
--tario
--tas
--te
--ted
--ter
--teri
--ters
--tes
--th
--thing
--ti
--tic
--tido
--ting
--tino
--tion
--tiva
--tivas
--tivo
--to
--ton
--tor
--toria
--torio
--tos
--tre
--ts
--tt
--tu
--tud
--tura
--ty
--u
--ua
--uan
--ud
--ue
--ug
--ugan
--ugo
--ui
--ul
--ula
--ult
--um
--ument
--un
--ur
--ura
--uras
--uro
--us
--usio
--uti
--v
--va
--vado
--vas
--ve
--vi
--visio
--vo
--vos
--w
--wa
--wan
--we
--wi
--wn
--woman
--wood
--x
--y
--ya
--yan
--yao
--yawan
--ye
--yo
--z
--za
--zado
--zas
--ze
--zo
--zos
--zu
