!
"
#
##0
##1
##10
##11
##12
##13
##14
##15
##16
##17
##18
##19
##2
##20
##21
##22
##23
##24
##25
##26
##27
##28
##29
##3
##30
##31
##32
##33
##34
##35
##36
##37
##38
##39
##4
##40
##41
##42
##43
##44
##45
##46
##47
##48
##49
##5
##50
##51
##52
##53
##54
##55
##56
##57
##58
##59
##6
##60
##61
##62
##63
##64
##65
##66
##67
##68
##69
##7
##70
##71
##72
##73
##74
##75
##76
##77
##78
##79
##8
##80
##81
##82
##83
##84
##85
##86
##87
##88
##89
##9
##90
##91
##92
##93
##94
##95
##96
##97
##98
##99
$
%
&
'
(
)
*
+
,
-
.
/
0
00
000
01
02
03
04
05
06
07
08
09
1
10
100
1007
101
1016
102
103
1038
104
105
106
107
108
11
110
111
112
115
116
117
118
119
12
120
122
123
125
126
126442
13
130
131
132
134
135
136
137
14
140
143
1445
15
150
153
155
16
160
17
18
180
1883
189
19
1917
1918
1920
1925
1930
1937
1939
1940
1941
1945
1946
1947
1948
1949
1950
1951
1953
1954
1955
1956
1957
1958
1959
1960
1961
1962
1963
1964
1965
1966
1967
1968
1969
1970
1971
1972
1973
1974
1975
1976
1977
1978
1979
1980
1981
1982
1983
1984
1985
1986
1987
1988
1989
1990
1991
1992
1993
1994
1995
1996
1997
1998
1999
2
20
200
2000
2001
2002
2003
2004
2005
2006
2007
2008
2009
201
2010
2011
2012
2013
2014
2015
2016
2017
2018
2019
2020
2021
2022
21
22
220
23
230
238
24
240
25
250
26
27
28
29
3
30
300
31
313
32
33
34
343
346
35
36
37
38
39
4
40
400
41
415
42
43
44
45
46
47
48
49
5
50
500
51
52
521
53
54
55
56
57
58
59
6
60
600
60944
61
62
63
64
65
66
67
68
69
69306
7
70
71
72
73
74
75
76
77
78
79
8
80
800
81
82
83
84
85
86
87
88
89
9
90
91
92
93
94
95
96
97
974
978
98
99
:
;
<
=
>
?
@
[
\
]
^
_
`
a
aa
ab
abc
able
about
above
abstaining
ac
academic
academy
access
accessed
according
account
achievement
across
act
action
active
ad
add
addition
additional
address
adj
administration
administrative
af
afc
affairs
afghan
afghanistan
africa
african
after
again
against
age
agency
agreement
agriculture
ah
ai
aid
air
aircraft
airport
aise
al
alan
albert
album
alex
alexander
alexandre
align
aligned
all
allen
alliance
almost
along
alpha
already
also
although
always
am
america
american
americas
among
amsterdam
an
analysis
ananda
ancient
and
andrew
angeles
angkor
angle
animal
animals
anime
anne
annual
another
anthem
anthropocene
anti
any
ap
appendix
apple
application
applied
approach
april
ara
arab
arccos
archaeology
architecture
archive
archived
archives
arcsin
arctan
are
area
areaname
areas
argentina
argument
armed
armenia
arms
army
around
art
arthur
article
articles
artist
arts
as
asean
ash
asia
asian
asiatique
assembly
associated
association
at
atlas
attack
attempt
au
audio
august
aung
australia
australian
author
authority
aux
available
award
awards
away
ax
b
ba
back
background
bad
balance
ban
bang
bangkok
bank
bar
base
based
basic
bat
battle
bay
bb
bbc
bc
bce
bd
be
became
because
become
becomes
been
before
began
begin
beginning
behind
beijing
being
beings
belarus
below
ben
benjamin
berkeley
berlin
bernard
best
beta
better
between
beyond
bi
bible
bien
big
bill
billboard
biography
biology
birth
black
blackpink
blanc
blog
blood
blue
bmatrix
bo
board
body
boeng
book
books
border
born
boston
both
boundary
box
brian
bridge
brief
bring
britain
britannica
british
brown
bts
buddha
buddhism
buddhist
building
built
bulletin
bureau
burma
burmese
bush
business
but
bx
by
c
ca
california
call
called
cambodge
cambodia
cambodian
cambridge
came
camera
camp
campaign
can
canada
cannot
capital
car
care
carthage
case
cases
cast
category
catfish
catholic
cause
cc
cd
cdc
cdot
cdots
ce
cell
cells
census
center
central
centre
centuries
century
ceremony
certain
cf
ch
cha
cham
champa
chan
chandler
chang
change
changes
channel
chapter
character
charles
chart
chevrolet
chi
chiang
chicago
chief
child
children
china
chinese
choose
chris
christian
christopher
chu
church
cia
cinema
circ
citation
cite
cities
city
civil
civilization
class
classical
climate
clinical
clio
close
club
cm
cnn
co
code
codes
cold
cole
collection
college
colonial
color
columbia
columbus
com
come
commercial
commission
committee
common
commonly
commons
commune
communication
communist
community
como
company
comparative
comparison
complete
completed
complex
computer
con
concatenate
concentration
concept
concepts
conditions
conference
conflict
congress
consciousness
conservation
considered
constitution
construction
consumer
contact
contemporary
content
context
control
convention
cooperation
coordinates
copy
coronavirus
corporation
corresponding
cos
cosh
cot
coth
could
council
countries
country
coup
coupe
course
court
cov
covid
cp
create
created
crespigny
crisis
critical
cross
crown
cs
csc
cu
cuba
cultural
culture
cup
curie
current
cut
cx
czech
d
da
daily
dan
dance
daniel
dark
data
database
date
david
day
days
dc
de
dead
deal
death
deaths
dec
december
decision
default
defense
defined
definition
degree
del
delta
democracy
democratic
denmark
department
deprecated
der
des
described
description
design
designed
detail
details
developed
development
dhamma
dharma
di
dictionary
did
die
died
dies
different
digital
direct
director
discourse
discovery
disease
diseases
disney
displaystyle
district
division
dn
do
doctrine
document
documentation
documents
does
dog
doi
domain
don
donald
down
dq
dr
dragon
dt
du
due
during
dx
dy
dynasty
e
each
earliest
early
earth
east
eastern
eat
ec
economic
economics
economist
economy
ed
edit
edition
editor
eds
edu
education
edward
effect
eight
either
el
election
elections
electric
electronic
element
elemental
elements
elite
elizabeth
em
embassy
emergency
emperor
empire
en
encyclopedia
encyclopædia
end
energy
eng
engineering
england
english
enlightenment
enter
entertainment
entries
entry
environment
equal
era
error
es
espan
especially
est
established
estimate
estimates
et
etc
ethics
ethnic
eu
euler
europa
europe
european
even
events
ever
every
everything
evidence
evil
evolution
ex
example
examples
exchange
exist
existence
exodus
expected
experience
express
expression
extre
eye
f
fa
face
facebook
fact
factbook
factors
facts
faith
fall
false
family
famous
far
father
fc
fe
features
february
federal
federation
feeling
female
festival
feu
few
ff
field
fields
fifa
fight
fighter
fighting
figure
figures
file
files
film
films
final
financial
find
fire
first
fish
five
flag
flight
fly
fm
focus
following
food
football
for
forall
forbes
force
forces
ford
foreign
forest
form
formal
formation
formed
former
forms
forum
found
foundation
four
fourth
fox
fr
frac
framework
franc
france
francis
frank
franklin
free
freedom
french
friendship
from
front
frontier
frost
ft
fu
full
funan
function
fund
further
future
fxtop
g
ga
game
games
gamma
ganymede
gazetteer
gb
gdp
ge
gen
general
generally
genocide
geographic
geography
george
geq
german
germany
get
gia
giang
giant
gini
girl
give
given
global
go
god
goddess
going
gold
golden
good
google
got
gov
government
grammar
gran
grand
great
greater
greatest
greek
green
greenwood
ground
group
groups
growth
gt
guardian
guide
h
ha
had
half
hall
han
hand
handbook
hanoi
hard
harry
harvard
harvey
has
have
having
hawaii
hdr
he
head
headword
health
heart
hebrew
held
help
henri
henry
her
herald
here
heritage
hertz
hi
high
higher
hill
him
hindu
hiragana
his
histoire
historic
historical
history
hl
ho
hoa
hold
hollywood
home
honda
hong
host
hour
house
houses
housing
how
however
htm
html
http
https
hu
huatl
human
hun
i
ian
ice
id
idea
ideas
identity
if
ii
iii
il
illinois
illustrated
im
image
images
imf
impact
imperial
important
in
inc
include
included
includes
including
income
incorporates
independence
independent
index
india
indian
individual
indo
indochina
indonesia
industrial
industry
inequality
infection
influence
info
information
infty
initial
innamespace
inscriptions
inside
instead
institute
institution
institutions
int
intelligence
interest
international
internet
interview
into
introduction
invalid
invasion
ipa
ipairs
iran
iraq
iron
is
isbn
islam
islamic
island
islands
iso
israe
israel
issn
issue
issues
it
italian
italy
its
itself
iucn
iv
ix
j
ja
jack
jackie
jacques
james
jan
jane
january
japan
japanese
java
jean
jeffrey
jerusalem
jewish
john
johnson
jonathan
jones
joomla
joseph
journal
jp
jpg
jr
july
jump
june
jupiter
just
justice
k
ka
kambuja
kampong
kampot
kampuchea
kao
karl
kaɲ
kde
ke
keep
kep
key
kh
kha
khan
khmer
khmers
khmum
ki
kiernan
kill
killed
killing
kim
kimigayo
kind
king
kingdom
kingdoms
kings
kk
km
know
knowledge
known
ko
kong
korea
korean
kyiv
kɑ
kɑmm
l
la
lama
land
lang
language
languages
lanka
lao
laos
large
largest
las
last
late
later
latin
law
lay
le
leader
leaders
leading
league
learning
least
led
lee
left
legacy
legal
legendary
leq
les
less
let
letter
letters
level
leviticus
lewis
li
libraries
library
libya
lie
lieberman
life
light
like
lim
limited
line
linguistic
linguistics
link
links
list
literature
little
liu
live
lives
living
ll
lloyd
ln
lo
local
located
log
logic
london
long
lookup
lord
los
lost
lotus
louis
love
low
lower
ltd
lu
lua
luang
m
ma
machine
macmillan
made
mag
magazine
magnolia
maha
mahayana
mai
main
maji
major
make
making
malaysia
man
management
many
map
maps
march
marie
mark
market
mars
martin
mary
mass
massachusetts
master
material
math
mathbb
mathbf
mathematical
mathematics
mathrm
matrix
matthew
max
may
mazda
mbox
me
mean
meaning
means
meas
media
medical
medicine
medieval
meeting
mehta
mekong
member
members
memory
men
mental
method
metropolitan
mi
michael
michigan
microsoft
mid
middle
migration
military
million
mind
minh
minister
ministry
mismatch
miss
mission
mit
mitsubishi
mm
mn
mo
mobile
model
modern
module
mon
monetary
money
month
moon
moral
more
morning
morris
moscow
most
mot
mother
mountain
mountains
move
movement
movie
mr
mu
much
multiple
museum
music
must
mx
my
myanmar
n
na
nai
nam
name
named
names
namespace
nan
napoleon
nasa
nation
national
nations
nato
natural
nature
nb
nd
ne
near
need
needs
neq
net
netflix
netherlands
network
never
new
news
next
nfc
ng
ngo
nguye
nh
nha
ni
night
nikaya
nil
nirvana
nis
nissan
nn
no
noble
non
norodom
north
northern
norway
not
note
notes
noun
novel
november
now
nu
nuclear
number
numbers
nytimes
o
object
objects
ocean
oclc
october
oecd
of
off
offering
offerings
office
official
officials
often
ogg
oil
ol
old
olympic
omega
on
once
one
onepage
online
only
open
openstreetmap
operation
operatorname
or
orc
order
org
organization
orient
origin
original
origins
orthodox
os
other
others
ou
our
out
outlook
output
outside
over
overline
overrightarrow
overview
own
oxford
p
pa
pacific
padding
page
pages
pakistan
palace
palestine
pali
pan
paper
papers
para
parameter
paris
park
parliament
part
partial
particular
parts
party
past
path
patients
paul
pdf
pe
peace
penguin
penh
pennsylvania
people
per
perception
period
persian
person
personal
perspective
peter
pg
ph
phayre
philippines
philosophers
philosophical
philosophy
phnom
phnompenhpost
pho
photography
php
phra
phu
physical
physiology
pi
pierre
pitch
place
plan
planet
planets
planning
plant
plants
plato
play
please
pm
po
poet
point
pol
police
policy
political
politics
pop
popular
population
por
portal
pos
position
positive
possible
post
pot
power
pp
pr
practice
prasat
pre
preah
presence
present
president
press
prey
price
primary
prime
prince
princeton
principles
print
prior
private
prize
pro
problem
problems
process
production
professor
profile
program
programme
programming
programs
project
pronunciation
prospects
protection
provide
provided
province
provinces
provincial
pt
public
publication
publications
published
publisher
publishers
publishing
pure
purpose
put
putin
px
q
qquad
qr
qua
quad
que
queen
question
questions
r
ra
race
radio
range
rate
rather
rd
re
reach
read
real
reality
reason
received
recent
record
records
rect
red
ref
reference
references
refs
refugees
regime
region
regional
regions
reign
related
relations
relationship
relativity
release
released
religion
religious
remains
renaissance
report
reports
republic
required
res
research
resistance
resources
response
result
results
retrieved
return
reuters
review
revised
revolution
rfi
ri
rice
richard
right
rightarrow
rights
rise
rising
river
ro
road
robert
rock
roger
role
roman
root
rouge
routledge
royal
rr
rs
ru
rule
rules
run
russell
russia
russian
s
sa
said
saint
sam
same
san
sanctuary
sangkeat
sanskrit
sars
saudi
saw
say
says
scale
scholars
school
schools
science
sciences
scientific
scott
script
se
sea
search
season
sec
second
section
security
see
seen
selected
self
sen
sense
september
series
service
services
set
settlement
seven
several
severe
sex
share
she
short
should
show
si
siam
siamese
side
sigma
sign
significant
sihanouk
similar
simple
sin
since
singapore
single
sinh
sir
sister
site
sites
situation
six
size
skyline
small
smart
smith
sn
so
social
socie
society
soda
software
soil
solar
some
something
sometimes
son
song
sound
source
sources
south
southeast
southern
soviet
sp
space
spanish
special
species
specific
speech
spoken
sport
sports
springer
sq
sqrt
square
sri
ss
st
staff
stage
standard
stanford
star
start
stat
state
statement
states
station
statistical
statistics
stats
status
stephen
steve
still
stm
stone
stop
stories
story
street
strong
structure
students
studies
study
style
su
sub
subject
such
sum
summary
summer
sun
sunday
super
support
sur
surface
survey
sutra
sutta
svay
swift
symbols
symptoms
syphilis
system
systems
t
ta
table
tag
tags
tai
taiwan
take
taken
takes
taking
taliban
tan
tanh
tax
taylor
tboung
te
teaching
team
technical
technology
telegraph
television
templates
temple
temples
ten
term
terms
territories
territory
test
testament
texas
text
texts
th
tha
thai
thailand
than
that
the
theguardian
their
them
then
theories
theory
there
therefore
these
theta
they
thing
things
think
third
this
tho
thomas
those
though
thought
three
through
throughout
thu
thumb
thus
ti
tie
tim
time
times
title
to
today
together
tokyo
tom
tone
tones
too
took
top
total
tourism
towards
tower
town
toyota
tr
tra
trade
tradition
traditional
traditions
translated
translation
trapeang
travel
tre
treatment
treaty
tree
troops
true
truth
tu
tuol
tv
two
type
types
u
uc
uefa
uk
ukraine
ukrainian
un
una
und
under
understanding
undp
une
unesco
union
unit
united
universal
universe
university
unrecognized
until
up
update
upon
uranus
urban
url
us
usa
use
used
user
users
uses
using
usually
utilities
v
va
vaccine
valid
value
van
varepsilon
variety
various
varphi
vb
ve
vec
ved
venus
verb
version
very
vi
via
vickery
victory
video
vie
vientiane
viet
vietnam
vietnamese
view
views
vii
viii
vill
village
virus
vis
vision
visual
vn
voice
vol
volume
von
vtv
vu
w
wall
walls
walter
wang
war
wars
was
washington
wat
watch
water
way
we
web
website
webster
week
welcome
well
were
west
western
what
when
where
whether
which
while
white
who
whole
whose
why
wide
widehat
width
wife
wiki
wikipedia
wildlife
will
william
williams
win
windows
wisdom
with
within
without
women
won
word
words
work
working
works
world
would
wright
writer
writing
written
wrote
wto
wu
www
x
xi
xico
xn
xx
y
ya
yahoo
yale
yangon
yazawin
year
years
yet
yi
york
you
young
your
youth
youtube
yu
z
zone
{
|
}
~


¡
§
©
«
­
¯
°
±
²
´
µ
·
º
»
¿
×
æ
÷
đa
đi
đie
đo
ŋ
œ
ɑ
ɔ
ɕ
ə
ɛ
ɡ
ɴ
ʔ
ʰ
ʹ
ʻ
ʼ
ˀ
ˈ
ˌ
ː
˥
˧
˨
˩
̀
́
̂
̃
̄
̆
̇
̈
̉
̊
̌
̏
̓
̔
̚
̛
̣
̥
̦
̧
̨
̯
̰
̱
̸
͡
α
β
γ
δ
ε
η
θ
λ
μ
ν
ξ
ο
π
ρ
ς
σ
τ
φ
ψ
ω
ϕ
ϵ
а
в
г
и
к
м
н
о
с
у
і
ا
ة
َ
ُ
ِ
ّ
ْ
ٔ
ٕ
ं
क
ग
ज
ण
त
थ
द
न
प
ब
भ
म
य
र
ल
व
श
स
़
ा
ि
ी
ु
े
ो
्
।
ং
ও
ক
গ
জ
ট
ড
ত
দ
ধ
ন
প
ব
ভ
ম
য
র
ল
শ
ষ
স
়
া
ি
ী
ু
ৃ
ে
্
க
ச
ட
த
ப
ம
ய
ர
வ
ா
ி
ு
ே
ை
்
්
ා
ි
ก
กร
ข
ค
ง
จ
ช
ซ
ญ
ฎก
ณ
ด
ต
ตต
ตร
ถ
ท
ธ
น
บ
ป
ผ
พ
ภ
ม
มท
ย
ร
ล
ว
ศ
ส
ห
อ
อง
ั
า
ำ
ิ
ี
ึ
ื
ุ
ู
ฺ
เจ
เล
็
่
้
๊
๋
์
๑
๒
ກ
ງ
ຈ
ດ
ນ
ບ
ພ
ມ
ລ
ວ
ສ
ຫ
ອ
ັ
ິ
ີ
ື
ຸ
ູ
ົ
ຼ
່
້
ໍ
་
ད
က
ခ
င
စ
ဇ
ည
တ
ထ
ဒ
န
ပ
ဖ
ဗ
ဘ
မ
ယ
ရ
လ
ဝ
သ
ဟ
အ
ာ
ိ
ီ
ု
ူ
ေ
ဲ
ံ
့
း
္
်
ျ
ြ
ွ
ှ
ក
កក
កកក
កកង
កកងទ
កកងម
កកញ
កកណ
កកន
កកម
កករ
កកស
កខ
កគ
កគគ
កគង
កគងព
កគណ
កឃ
កង
កងក
កងកម
កងចក
កងត
កងទ
កងន
កងយ
កច
កចក
កចង
កចន
កចម
កឆ
កជ
កជញ
កជន
កជនជ
កជនដ
កជប
កឈ
កញ
កញយ
កដ
កដក
កដងទង
កដជ
កដដ
កដណ
កដថ
កដទ
កដន
កដប
កដម
កដល
កដឡ
កឋ
កឌ
កណ
កត
កតញ
កតម
កថ
កទ
កទង
កទទ
កទន
កធ
កធម
កន
កនយ
កប
កបក
កបង
កបច
កបញ
កបណ
កបន
កបម
កបរ
កបរក
កបរដ
កបរត
កបរប
កបរម
កបរយ
កបរស
កផ
កផង
កផងដ
កព
កពញ
កពណ
កពន
កភ
កភណ
កម
កមក
កមកច
កមកដល
កមគ
កមង
កមន
កមហ
កយ
កយក
កយល
ករ
ករក
ករខ
ករគ
ករង
ករច
ករជ
ករដ
ករណ
ករត
ករទ
ករន
ករប
ករបស
ករម
ករយ
កររ
ករល
ករវ
ករស
ករហ
ករអ
កល
កលក
កលន
កលល
កលវ
កវ
កវត
កវរ
កស
កសក
កសង
កសញ
កសណ
កសត
កសន
កសប
កសព
កសភ
កសម
កសមណ
កសរ
កហ
កឡ
កអ
កអក
កអគ
កអង
កអណ
កអត
កអន
កអប
កអភ
កអម
កអរ
កអរក
កអរណ
កអរន
កអស
កឣ
កឥទ
កឧកញ
កឧដ
កឧត
កឧទ
កឪព
កឫស
កឯ
កឯក
កឯកស
កឯង
កឯព
កឯអ
កឱ
កឲ
កៗ
ខ
ខក
ខខ
ខខណ
ខគ
ខង
ខច
ខជ
ខជន
ខជនន
ខដ
ខដល
ខឌ
ខណ
ខត
ខថ
ខទ
ខធ
ខន
ខប
ខបន
ខផ
ខផង
ខព
ខភ
ខម
ខមន
ខយ
ខរ
ខរក
ខរកម
ខរដ
ខរណ
ខរបរ
ខរបស
ខល
ខវ
ខស
ខសច
ខសន
ខសប
ខសម
ខហ
ខឡ
ខអ
ខឱ
ខឲ
គ
គក
គកណ
គខ
គគ
គគង
គឃ
គង
គច
គចក
គចន
គចរ
គឆ
គជ
គឈ
គញ
គដ
គដល
គឌ
គណ
គណកម
គណន
គណបក
គត
គតក
គតដ
គតទ
គតន
គតប
គតព
គតម
គតរបស
គតស
គតហ
គថ
គទ
គធ
គន
គប
គបង
គបញ
គបន
គផ
គផង
គផល
គព
គភ
គម
គមក
គមខ
គមគ
គមជ
គមដ
គមត
គមថ
គមទ
គមន
គមប
គមព
គមម
គមមន
គមយ
គមរ
គមរបស
គមវ
គមស
គមហ
គមអ
គយ
គយគន
គយល
គរ
គរក
គរជ
គរដ
គរត
គរទ
គរធ
គរន
គរប
គរបស
គរម
គរយ
គរយន
គរល
គរវត
គរហ
គល
គលក
គលខ
គលគ
គលគប
គលច
គលជ
គលដ
គលដទ
គលណ
គលត
គលទ
គលធ
គលន
គលប
គលព
គលម
គលរ
គលស
គលអ
គវ
គស
គសញ
គសម
គហ
គហបត
គឡ
គអ
គឥស
គឦស
គឧត
គឯង
គឱ
គឲ
ឃ
ឃក
ឃកម
ឃច
ឃជ
ឃដ
ឃត
ឃទ
ឃធ
ឃន
ឃប
ឃព
ឃភ
ឃម
ឃរ
ឃស
ង
ងក
ងកក
ងកង
ងកងកម
ងកងទ
ងកញ
ងកណ
ងកត
ងកន
ងកប
ងកម
ងករណ
ងកស
ងខ
ងខណ
ងខន
ងគ
ងគង
ងគជ
ងគណ
ងគណបក
ងគន
ងគម
ងឃ
ងង
ងច
ងចក
ងចង
ងចត
ងចន
ងចម
ងចលន
ងឆ
ងឆន
ងជ
ងជញ
ងជន
ងជនជ
ងជប
ងជម
ងឈ
ងញ
ងដ
ងដង
ងដដ
ងដណ
ងដទ
ងដប
ងដល
ងឋ
ងឌ
ងណ
ងត
ងតង
ងតណ
ងតត
ងតទ
ងតន
ងតម
ងតវ
ងតស
ងថ
ងថវ
ងទ
ងទង
ងទទ
ងទន
ងទប
ងទម
ងទល
ងទស
ងទសវត
ងធ
ងធនធ
ងធម
ងធរណ
ងន
ងនគរប
ងនន
ងនយ
ងនរក
ងប
ងបក
ងបង
ងបងប
ងបច
ងបញ
ងបដ
ងបឋមជ
ងបណ
ងបទ
ងបទបញ
ងបន
ងបម
ងបរ
ងបរទ
ងផ
ងផង
ងផងដ
ងផល
ងផលប
ងព
ងពង
ងពញ
ងពណ
ងពន
ងពព
ងពល
ងពលកម
ងភ
ងភព
ងភរ
ងម
ងមក
ងមកក
ងមកជ
ងមកដល
ងមកន
ងមកព
ងមកល
ងមគ
ងមជ
ងមណ
ងមទ
ងមធ
ងមន
ងមរណ
ងមហ
ងយ
ងយក
ងយកច
ងយកជ
ងយកទ
ងយន
ងយប
ងយល
ងរ
ងរក
ងរកក
ងរកគ
ងរកដ
ងរកទ
ងរកន
ងរកប
ងរកព
ងរកម
ងរកស
ងរកអ
ងរង
ងរចន
ងរជ
ងរដ
ងរណ
ងរត
ងរថយន
ងរន
ងរប
ងរបបខ
ងរបស
ងរព
ងរម
ងរយ
ងរយព
ងរល
ងរលត
ងរវ
ងរស
ងរហ
ងល
ងលក
ងលង
ងលទ
ងលម
ងវ
ងវគ
ងវង
ងវដ
ងវណ
ងវត
ងវប
ងឝ
ងស
ងសក
ងសកម
ងសង
ងសងខ
ងសច
ងសញ
ងសណ
ងសត
ងសតវត
ងសទ
ងសន
ងសប
ងសព
ងសភ
ងសម
ងសមត
ងសមរភ
ងសរ
ងសរស
ងសស
ងសហគមន
ងសហភ
ងសហរដ
ងហ
ងហង
ងឡ
ងឡង
ងអ
ងអក
ងអគ
ងអង
ងអច
ងអញ
ងអដ
ងអណ
ងអត
ងអធ
ងអន
ងអប
ងអភ
ងអម
ងអយ
ងអរ
ងអលង
ងអវ
ងអស
ងឣ
ងឣស
ងឥណ
ងឥទ
ងឥន
ងឥរ
ងឥស
ងឧត
ងឧទ
ងឧប
ងឧបករណ
ងឧស
ងឪ
ងឪព
ងឫស
ងឬ
ងឬស
ងឯក
ងឯកស
ងឯង
ងឱ
ងឱក
ងឲ
ងៗ
ងៗក
ងៗខ
ងៗគ
ងៗជ
ងៗដ
ងៗត
ងៗទ
ងៗន
ងៗប
ងៗព
ងៗម
ងៗរបស
ច
ចក
ចកណ
ចកន
ចកម
ចខ
ចគ
ចគង
ចឃ
ចង
ចងក
ចងច
ចច
ចចក
ចចង
ចចម
ចចរច
ចឆ
ចឆក
ចជ
ចឈ
ចញ
ចដ
ចដល
ចណ
ចត
ចតទ
ចតន
ចថ
ចទ
ចទទ
ចទន
ចធ
ចធម
ចន
ចនយ
ចនរ
ចប
ចបង
ចបញ
ចបដ
ចបណ
ចបន
ចបរ
ចផ
ចផល
ចព
ចពញ
ចពន
ចភ
ចម
ចមក
ចមកហ
ចមគ
ចមន
ចយ
ចយកទ
ចយល
ចរ
ចរក
ចរកប
ចរខ
ចរច
ចរដ
ចរណ
ចរត
ចរន
ចរបស
ចរស
ចរហ
ចល
ចលក
ចលង
ចលន
ចវ
ចវង
ចវត
ចស
ចសង
ចសត
ចសន
ចសព
ចសម
ចសរស
ចសហប
ចហ
ចឡ
ចអ
ចអង
ចអន
ចអស
ចឱ
ចឲ
ចៗ
ចៗគ
ចៗដ
ចៗន
ឆ
ឆក
ឆជ
ឆត
ឆន
ឆម
ឆរ
ឆវ
ឆស
ជ
ជក
ជកន
ជកម
ជខ
ជគ
ជគណ
ជឃ
ជង
ជច
ជជ
ជញ
ជដ
ជណ
ជត
ជថ
ជទ
ជធ
ជធម
ជន
ជនក
ជនកម
ជនខ
ជនគ
ជនច
ជនជ
ជនដ
ជនដទ
ជនណ
ជនត
ជនថ
ជនទ
ជនន
ជនប
ជនបទ
ជនបរទ
ជនព
ជនភ
ជនម
ជនយ
ជនរ
ជនរងគ
ជនរបស
ជនរស
ជនល
ជនវ
ជនស
ជនសរ
ជនឡ
ជនអ
ជប
ជបញ
ជបណ
ជបន
ជបរ
ជបល
ជព
ជពង
ជភ
ជម
ជមន
ជយ
ជយវម
ជរ
ជរដ
ជរថ
ជរបស
ជល
ជលស
ជវ
ជវង
ជវន
ជវរ
ជស
ជសត
ជសម
ជហ
ជហឫទ
ជអ
ជឥស
ជឱង
ឈ
ឈក
ឈឃ
ឈង
ឈដ
ឈត
ឈន
ឈប
ឈមណ
ឈរ
ឈរន
ញ
ញក
ញកងទ
ញកម
ញខ
ញគ
ញង
ញច
ញឆ
ញជ
ញឈ
ញញ
ញដ
ញដល
ញណ
ញត
ញតរ
ញថ
ញទ
ញធ
ញធម
ញន
ញប
ញបង
ញបញ
ញបន
ញបរ
ញផ
ញផងដ
ញព
ញពន
ញភ
ញម
ញមក
ញមកក
ញមកព
ញមត
ញមន
ញយ
ញរ
ញរទ
ញរបស
ញល
ញលក
ញវ
ញវត
ញវន
ញស
ញសង
ញសត
ញសម
ញហ
ញឡ
ញអ
ញអង
ញអន
ញអស
ញឱ
ញឲ
ដ
ដក
ដកខ
ដកច
ដកដង
ដកទ
ដកម
ដកស
ដកហ
ដខ
ដគ
ដង
ដងក
ដងខ
ដងទ
ដងទង
ដងទន
ដងន
ដងម
ដងរ
ដងវ
ដងស
ដងហ
ដងៗ
ដច
ដជ
ដដ
ដណ
ដត
ដថ
ដទ
ដទន
ដន
ដប
ដបន
ដព
ដភ
ដម
ដមស
ដយ
ដរ
ដរជ
ដរបស
ដល
ដវ
ដស
ដសករ
ដហ
ដអ
ឋ
ឋក
ឋកថ
ឋកម
ឋខ
ឋគ
ឋង
ឋច
ឋជ
ឋដ
ឋត
ឋថ
ឋទ
ឋធ
ឋធម
ឋន
ឋប
ឋផ
ឋព
ឋភ
ឋម
ឋមន
ឋយ
ឋរ
ឋរបស
ឋល
ឋវ
ឋស
ឋសង
ឋសភ
ឋសម
ឋហ
ឋអ
ឋឯករ
ឌ
ឌក
ឌកងទ
ឌកម
ឌខ
ឌគម
ឌច
ឌជ
ឌញ
ឌដ
ឌដង
ឌត
ឌទ
ឌធ
ឌន
ឌប
ឌព
ឌភ
ឌម
ឌរ
ឌល
ឌលក
ឌលគ
ឌលទ
ឌលន
ឌលប
ឌលព
ឌលវប
ឌលស
ឌវ
ឌស
ឌឫស
ឍ
ឍក
ឍគ
ឍត
ឍន
ឍនភ
ឍប
ឍស
ណ
ណក
ណកម
ណខ
ណគ
ណង
ណងក
ណងច
ណងចង
ណងជ
ណងដ
ណងទ
ណងន
ណងប
ណងម
ណងរបស
ណច
ណជ
ណញ
ណដ
ណដល
ណណ
ណត
ណថ
ណទ
ណទណ
ណទស
ណធ
ណធម
ណន
ណប
ណផ
ណព
ណពន
ណភ
ណម
ណយ
ណរ
ណរណ
ណរបស
ណល
ណវ
ណវត
ណស
ណសម
ណហ
ណអ
ត
តក
តកណ
តកន
តកប
តកម
តករ
តករណ
តកស
តខ
តខណ
តគ
តគណ
តគណបក
តគប
តឃ
តង
តងទ
តងន
តងម
តងហ
តងៗ
តច
តចក
តចង
តចន
តចម
តចរ
តឆ
តជ
តជង
តជនជ
តឈ
តញ
តដ
តដល
តណ
តត
តតទ
តថ
តទ
តទង
តទទ
តទន
តទល
តទស
តធ
តធម
តន
តនគររ
តនយ
តប
តបង
តបច
តបញ
តបដ
តបណ
តបថ
តបទ
តបទដ
តបទល
តបន
តបរ
តបស
តផ
តផង
តផងដ
តផល
តផលក
តផលន
តព
តពន
តពលកម
តភ
តភក
តម
តមក
តមកក
តមកជ
តមកដល
តមកទ
តមកទល
តមកព
តមកហ
តមគ
តមគត
តមដ
តមណ
តមធ
តមន
តមប
តមស
តមហ
តយ
តយល
តរ
តរក
តរកម
តរង
តរជ
តរដ
តរត
តរតនគ
តរធ
តរន
តរប
តរបស
តរភ
តរម
តរយ
តរវ
តរស
តរសក
តរហ
តល
តលក
តលង
តវ
តវគ
តវត
តវន
តស
តសករ
តសង
តសញ
តសត
តសន
តសប
តសព
តសភ
តសម
តសរស
តហ
តឡ
តអ
តអគ
តអង
តអណ
តអត
តអន
តអរ
តអស
តឣ
តឧណ
តឧត
តឧប
តឱ
តឱក
តឲ
តៗ
តៗគ
ថ
ថក
ថកម
ថង
ថជ
ថត
ថតរ
ថទ
ថន
ថប
ថបទ
ថបទក
ថបទដ
ថបទន
ថបទស
ថបទអ
ថព
ថភ
ថម
ថយ
ថយក
ថយច
ថយទ
ថយន
ថយអ
ថល
ថវ
ថស
ទ
ទក
ទកន
ទកប
ទកម
ទខ
ទគ
ទគត
ទឃ
ទង
ទងគ
ទងជ
ទងទ
ទងន
ទច
ទចន
ទឆ
ទជ
ទជយវម
ទឈ
ទញ
ទដ
ទណ
ទត
ទតឃ
ទតព
ទថ
ទទ
ទធ
ទធម
ទន
ទនភ
ទនរ
ទប
ទបក
ទបញ
ទបន
ទបរ
ទបរមន
ទបរមបព
ទបល
ទបស
ទផ
ទព
ទពញ
ទភ
ទភវវម
ទម
ទមន
ទមហ
ទយ
ទយស
ទរ
ទរកថ
ទរខ
ទរង
ទរបស
ទល
ទវ
ទវត
ទឝ
ទស
ទសក
ទសត
ទសព
ទសម
ទសវត
ទហ
ទឡ
ទអ
ទអង
ទអជ
ទអស
ទឥន
ធ
ធក
ធកម
ធខ
ធគ
ធឃ
ធច
ធចក
ធជ
ធឈ
ធញ
ធដ
ធណ
ធត
ធថ
ធទ
ធធ
ធធម
ធន
ធនកម
ធនញ
ធនធ
ធនយ
ធប
ធបញ
ធបដ
ធបទ
ធបន
ធបរ
ធផ
ធផល
ធផលជ
ធផលដ
ធផលន
ធព
ធពលខ
ធភ
ធភណ
ធម
ធយ
ធរ
ធរកណ
ធរជ
ធរដ
ធរណ
ធរប
ធរបស
ធរម
ធរវ
ធល
ធវ
ធវចន
ធស
ធសករ
ធសង
ធសភ
ធសម
ធសរស
ធហ
ធឡ
ធអ
ធអង
ន
នក
នកក
នកកម
នកខ
នកគ
នកឃ
នកង
នកងទ
នកច
នកចង
នកចម
នកឆ
នកជ
នកឈ
នកញ
នកដ
នកដទ
នកណ
នកត
នកថ
នកថតរ
នកទ
នកទទ
នកទស
នកធ
នកន
នកនយ
នកប
នកបកប
នកបង
នកបញ
នកបដ
នកបម
នកបរ
នកផ
នកផល
នកព
នកភ
នកម
នករ
នករក
នករណ
នករប
នករស
នកល
នកលក
នកវ
នកស
នកសង
នកសម
នកសរស
នកហ
នកអ
នកអង
នកអន
នកអភ
នកឧកញ
នកឯកទ
នកឯង
នកឯងន
នកឯងម
នកឯណ
នកឲ
នខ
នខណ
នខន
នគ
នគង
នគណ
នគណន
នគណបក
នគត
នគប
នគភ
នគម
នគរ
នគរក
នគរខ
នគរគ
នគរច
នគរជ
នគរដ
នគរត
នគរទ
នគរន
នគរប
នគរព
នគរភ
នគរម
នគររ
នគរវ
នគរវត
នគរស
នគរហ
នគរអ
នឃ
នង
នងក
នងខ
នងគ
នងជ
នងដ
នងត
នងទ
នងន
នងប
នងផ
នងព
នងភ
នងម
នងយ
នងរ
នងរបស
នងរវ
នងស
នងសង
នងអ
នងអន
នច
នចក
នចង
នចងក
នចន
នចប
នចម
នចរ
នចលន
នឆ
នជ
នជនជ
នជម
នឈ
នឈប
នញ
នដ
នដកច
នដកស
នដង
នដដ
នដណ
នដទ
នដប
នដល
នឋ
នឌ
នណ
នត
នតណ
នតទ
នតម
នថ
នថត
នទ
នទទ
នទន
នទម
នទស
នធ
នធម
នន
ននយ
ននរក
ននរណ
នប
នបក
នបកប
នបកស
នបង
នបងប
នបច
នបញ
នបដ
នបណ
នបទ
នបទន
នបទព
នបន
នបម
នបរ
នបរមស
នផ
នផង
នផងដ
នផល
នផលច
នផលប
នព
នពង
នពញ
នពណ
នពន
នពល
នភ
នភព
នភស
នម
នមក
នមកក
នមកជ
នមកដ
នមកដល
នមកត
នមកន
នមកប
នមកព
នមកល
នមកវ
នមកហ
នមត
នមន
នមស
នមហ
នយ
នយក
នយកក
នយកច
នយកឈ
នយកទ
នយកម
នយកមក
នយន
នយប
នយល
នយសសក
នរ
នរក
នរកឃ
នរង
នរចន
នរដ
នរណ
នរត
នរន
នរប
នរបស
នរម
នរយ
នរល
នរវ
នរស
នរសជ
នរហ
នល
នលក
នលទ
នលម
នវ
នវគ
នវង
នវត
នវប
នវម
នវរ
នវស
នឝ
នស
នសក
នសកម
នសង
នសញ
នសណ
នសត
នសតវត
នសទ
នសន
នសប
នសព
នសភ
នសម
នសមគ
នសមត
នសរ
នសរស
នសល
នហ
នឡ
នអ
នអក
នអគ
នអង
នអញ
នអណ
នអត
នអធ
នអន
នអប
នអភ
នអរ
នអវ
នអវក
នអស
នឣ
នឥទ
នឥន
នឧត
នឧទ
នឧប
នឧបក
នឧបម
នឪព
នឫក
នឫទ
នឬ
នឬទ
នឮ
នឮដ
នឮថ
នឮព
នឮស
នឮសម
នឯក
នឯកភ
នឯករ
នឯកស
នឯង
នឯងក
នឯងជ
នឯងដ
នឯងថ
នឯងទ
នឯងន
នឯងប
នឯងម
នឱ
នឱក
នឲ
នៗ
នៗរបស
ប
បក
បកក
បកណ
បកត
បកន
បកប
បកម
បករ
បករណ
បកស
បខ
បគ
បឃ
បង
បងក
បងគ
បងជ
បងដ
បងទ
បងន
បងប
បងព
បងម
បងរបស
បងស
បច
បចម
បឆ
បជ
បជញ
បឈ
បញ
បដ
បដកដង
បដល
បឋម
បឋមជ
បឋមស
បឋវ
បណ
បត
បថ
បថត
បថតដ
បថន
បថប
បទ
បទក
បទច
បទចម
បទដ
បទទ
បទន
បទប
បទបញ
បទព
បទភ
បទម
បទល
បទស
បទឧក
បធ
បធម
បន
បនប
បប
បបង
បបញ
បបដ
បបទ
បបទន
បបន
បបរ
បបរម
បផ
បព
បពណ
បភ
បភព
បម
បមក
បមន
បយ
បរ
បរដ
បរទ
បរន
បរប
បរបង
បរបស
បរពល
បរម
បរមខត
បរមគ
បរមត
បរមន
បរមបព
បរមព
បរមរ
បរមស
បរយ
បរល
បរស
បល
បលក
បវ
បវត
បវន
បវរ
បស
បសង
បសញ
បសត
បសន
បសព
បសម
បហ
បឡ
បអ
បអង
បអន
បអភ
បអស
បឥណ
បឯណ
បឱ
បឲ
បៗ
ផ
ផង
ផងគ
ផងច
ផងដ
ផងទ
ផងន
ផត
ផន
ផរណ
ផល
ផលគ
ផលច
ផលដ
ផលទ
ផលធ
ផលន
ផលប
ផលរបស
ផលវ
ផលស
ផស
ព
ពក
ពកម
ពខ
ពគ
ពគប
ពឃ
ពង
ពងង
ពងទ
ពច
ពចម
ពចល
ពឆ
ពជ
ពឈ
ពញ
ពដ
ពដល
ពណ
ពត
ពថ
ពទ
ពទន
ពធ
ពធម
ពន
ពនយ
ពប
ពបង
ពបន
ពបរ
ពផ
ពព
ពពក
ពភ
ពម
ពមកវ
ពមធ
ពមន
ពមហ
ពយ
ពយន
ពរ
ពរដ
ពរត
ពរបស
ពរវ
ពរស
ពល
ពលក
ពលកម
ពលករ
ពលខ
ពលគ
ពលច
ពលជ
ពលដ
ពលទ
ពលន
ពលប
ពលព
ពលភ
ពលម
ពលយ
ពលរ
ពលរដ
ពលរបស
ពលល
ពលស
ពលអ
ពវ
ពស
ពសង
ពសត
ពសម
ពហ
ពឡ
ពអ
ពអត
ពអន
ពអប
ពអស
ពឥណ
ពឱ
ពឲ
ភ
ភក
ភគ
ភគវ
ភគវត
ភង
ភច
ភជ
ភដ
ភណ
ភណន
ភត
ភទ
ភន
ភប
ភផ
ភព
ភពថ
ភពទ
ភពន
ភពផ
ភពព
ភពល
ភពស
ភពអង
ភម
ភមង
ភយ
ភរ
ភរណ
ភរបស
ភល
ភលន
ភវ
ភវង
ភវត
ភវតណ
ភស
ភសក
ភអ
ម
មក
មកក
មកខ
មកគ
មកងទ
មកច
មកឆ
មកជ
មកដ
មកដល
មកណ
មកត
មកថ
មកទ
មកទទ
មកទល
មកធ
មកន
មកប
មកបង
មកផ
មកព
មកភ
មកម
មកយ
មករ
មករន
មករស
មកល
មកវ
មកស
មកសម
មកហ
មកអ
មកឱ
មកឲ
មខ
មគ
មគគ
មគធ
មគន
មគម
មឃ
មង
មច
មចក
មចង
មចន
មចម
មចរ
មឆ
មជ
មជនជ
មជម
មឈ
មញ
មញញ
មដ
មដង
មដងទន
មដងផ
មដល
មឋ
មណ
មត
មតណ
មតថ
មតន
មតម
មតស
មថ
មទ
មទណ
មទត
មទទ
មទន
មទម
មទស
មទសវត
មធ
មធម
មន
មនស
មប
មបក
មបង
មបច
មបញ
មបដ
មបណ
មបទ
មបទបញ
មបន
មបរ
មផ
មផង
មផងដ
មផល
មព
មពង
មពណ
មពល
មភ
មភក
មភព
មម
មមក
មមង
មមត
មមន
មមហ
មយ
មយកទ
មរ
មរក
មរចន
មរជ
មរដ
មរណ
មរណក
មរណន
មរណភ
មរត
មរតក
មរន
មរប
មរបស
មរភ
មរយ
មរវ
មរស
មរហ
មរអ
មល
មលក
មលទ
មវ
មវត
មវន
មស
មសង
មសត
មសតវត
មសន
មសព
មសភ
មសម
មសមគ
មហ
មហន
មឡ
មអ
មអក
មអង
មអញ
មអត
មអធ
មអន
មអភ
មអស
មឥណ
មឥទ
មឯកស
មឱ
មឲ
មៗ
មៗន
យ
យក
យកក
យកខ
យកគ
យកង
យកងកម
យកងទ
យកងន
យកច
យកជ
យកឈ
យកញ
យកដ
យកណ
យកត
យកថ
យកទ
យកន
យកប
យកផ
យកព
យកភ
យកម
យកមកប
យករ
យករដ
យកល
យកវ
យកស
យកសម
យកអ
យខ
យខណ
យគ
យគង
យគជ
យគណ
យគណបក
យគត
យគន
យគប
យឃ
យង
យច
យចក
យចង
យចត
យចន
យចប
យចម
យចលន
យឆ
យឆន
យជ
យជន
យជនជ
យជប
យជម
យជយវម
យឈ
យឈប
យញ
យដ
យដង
យដណ
យដទ
យដល
យឋ
យឌ
យណ
យត
យតក
យតទ
យតន
យតនឈ
យតប
យតបថ
យតបទ
យតបន
យតម
យថ
យទ
យទង
យទទ
យទន
យទម
យទស
យធ
យធន
យធម
យធរ
យន
យនយ
យប
យបក
យបង
យបងប
យបច
យបញ
យបដ
យបណ
យបត
យបន
យបម
យបរ
យបរទ
យបល
យផ
យផង
យផងដ
យផល
យព
យពង
យពញ
យពណ
យពន
យពព
យពល
យភ
យម
យមក
យមកក
យមកគ
យមកច
យមកជ
យមកដ
យមកដល
យមកត
យមកទ
យមកន
យមកប
យមកព
យមកម
យមកល
យមកវ
យមកស
យមខ
យមគ
យមង
យមច
យមជ
យមដ
យមត
យមទ
យមធ
យមន
យមប
យមព
យមភ
យមម
យមរ
យមរបស
យមវ
យមស
យមហ
យមអ
យយ
យយក
យយកក
យយកខ
យយកច
យយកទ
យយកប
យយកស
យយន
យយប
យយល
យយស
យរ
យរក
យរង
យរដ
យរណប
យរត
យរន
យរប
យរបស
យរម
យរយ
យរល
យរលត
យរវ
យរស
យរហ
យល
យលក
យលង
យលទ
យវ
យវង
យវត
យវប
យវម
យវរ
យឝ
យស
យសក
យសកម
យសង
យសច
យសញ
យសត
យសតវត
យសទ
យសន
យសប
យសព
យសភ
យសម
យសមគ
យសមថ
យសរ
យសរស
យសស
យសហគមន
យសហភ
យសហរដ
យហ
យហត
យឡ
យអ
យអក
យអគ
យអង
យអញ
យអណ
យអត
យអធ
យអន
យអប
យអភ
យអរ
យអស
យឣ
យឤស
យឥណ
យឥតគ
យឥទ
យឥឡ
យឧកញ
យឧត
យឧទ
យឧប
យឧបត
យឧបសម
យឧស
យឪព
យឬ
យឯករ
យឯកស
យឯណ
យឱ
យឲ
យៗ
យៗក
យៗដ
យៗត
យៗទ
យៗន
យៗប
យៗម
យៗមកទ
យៗហ
រ
រក
រកក
រកខ
រកគ
រកឃ
រកង
រកងទ
រកច
រកជ
រកដ
រកណ
រកត
រកថ
រកទ
រកន
រកប
រកបក
រកបដ
រកបទ
រកបន
រកបព
រកបម
រកបរបរកស
រកបរបរជ
រកផ
រកព
រកភ
រកម
រករ
រកល
រកវ
រកស
រកសម
រកអ
រខ
រគ
រគង
រគណ
រគណន
រគត
រគប
រគម
រគមន
រគរ
រគល
រឃ
រង
រងក
រងខ
រងគ
រងង
រងច
រងជ
រងដ
រងត
រងទ
រងន
រងប
រងផ
រងព
រងភ
រងម
រងរ
រងរដ
រងរបស
រងល
រងវ
រងស
រងអ
រច
រចក
រចង
រចងក
រចងច
រចត
រចន
រចម
រចរច
រចល
រឆ
រជ
រជជ
រជន
រជប
រជម
រជល
រឈ
រឈប
រឈម
រឈមន
រឈមម
រញ
រដ
រដកហ
រដង
រដណ
រដទ
រដល
រឌ
រណ
រណក
រណជន
រណន
រណប
រណភ
រណម
រណរដ
រណស
រណឫទ
រត
រតទ
រតន
រតនគ
រតនត
រតម
រតវ
រតស
រថ
រថក
រថតរ
រថព
រថភ
រថយន
រទ
រទក
រទង
រទទ
រទន
រទប
រទម
រទល
រទស
រធ
រធម
រន
រនយ
រប
របក
របកប
របកស
របខ
របខណ
របគ
របង
របច
របជ
របញ
របដ
របដណ
របណ
របត
របទ
របន
របប
របបក
របបកម
របបខ
របបដ
របបន
របបនយ
របបប
របបផ
របបរ
របបស
របព
របម
របរ
របរទ
របរប
របល
របស
របសង
របសម
រផ
រផង
រផងដ
រផល
រព
រពក
រពង
រពច
រពណ
រពត
រពទ
រពន
រពប
រពព
រពរ
រពស
រភ
រភព
រភពក
រភពខ
រភពច
រភពដ
រភពទ
រភពន
រភពប
រភពព
រភពម
រភពមកព
រភពរ
រភពអ
រភពអង
រភរ
រម
រមក
រមកក
រមកជ
រមកដល
រមកព
រមកវ
រមកហ
រមខ
រមគ
រមង
រមច
រមជ
រមដ
រមណ
រមត
រមថ
រមទ
រមទទ
រមធ
រមន
រមប
រមព
រមម
រមរ
រមល
រមស
រមសម
រមហ
រមអ
រមអង
រយ
រយក
រយកច
រយង
រយឆ
រយន
រយព
រយល
ររ
ររក
ររកឃ
ររកប
ររកស
ររង
ររចន
ររដ
ររត
ររន
ររប
ររបស
ររម
ររយ
ររល
ររលត
ររវ
ររស
ររហ
រល
រលក
រលង
រលងភ
រលត
រលប
រវ
រវកម
រវគ
រវង
រវដ
រវត
រវប
រវម
រវរ
រវល
រស
រសក
រសកម
រសខ
រសង
រសច
រសជ
រសញ
រសដ
រសណ
រសត
រសទ
រសធម
រសន
រសប
រសព
រសម
រសរ
រសរបស
រសរស
រសល
រសស
រសហប
រសអ
រហ
រហបត
រហម
រហមក
រហមច
រហមដ
រហមន
រហមប
រហមម
រហល
រហស
រឡ
រឡង
រឡប
រអ
រអក
រអង
រអច
រអញ
រអណ
រអត
រអធ
រអន
រអប
រអភ
រអម
រអយ
រអស
រឥណ
រឥស
រឧទ
រឧប
រឧបត
រឧបម
រឫស
រឬ
រឬទ
រឭក
រឯកភ
រឯករ
រឰន
រឱ
រឲ
រៗ
រៗទ
ល
លក
លកក
លកងទ
លកឋ
លកណ
លកន
លកម
លកវ
លកស
លខ
លគ
លគង
លឃ
លង
លងក
លងគ
លងច
លងជ
លងដ
លងត
លងទ
លងទន
លងន
លងប
លងផ
លងព
លងម
លងមក
លងរ
លងរបស
លងស
លងហ
លច
លចង
លចប
លចម
លចរ
លឆ
លជ
លជនជ
លជប
លជម
លឈ
លញ
លដ
លដប
លដល
លឋ
លឌ
លណ
លត
លតង
លតថ
លតម
លថ
លទ
លទទ
លទន
លទស
លធ
លធន
លធនន
លធម
លន
លនយ
លប
លបក
លបខ
លបង
លបច
លបញ
លបដ
លបណ
លបត
លបន
លបម
លបរ
លផ
លផង
លផងដ
លផល
លព
លពង
លពណ
លពត
លពន
លពស
លភ
លម
លមក
លមកក
លមកគ
លមកជ
លមកដល
លមកត
លមកទ
លមកន
លមកប
លមកព
លមកម
លមករ
លមកល
លមកវ
លមកស
លមកហ
លមន
លមរណ
លមរណភ
លមហ
លយ
លយក
លយកក
លយកទ
លយកន
លយកប
លយប
លយល
លរ
លរក
លរង
លរងក
លរងន
លរដ
លរត
លរបស
លរម
លរល
លរវ
លរស
លរហ
លល
លលក
លលទ
លវ
លវគ
លវង
លវត
លវល
លស
លសករ
លសង
លសញ
លសត
លសតវត
លសន
លសព
លសម
លសរស
លសល
លហ
លឡ
លអ
លអង
លអត
លអធ
លអន
លអស
លឣ
លឤស
លឥទ
លឥឡ
លឧទ
លឧប
លឯករ
លឱ
លឲ
លៗ
វ
វក
វកងទ
វកណ
វកថ
វកន
វកម
វករ
វករណ
វករលក
វខ
វគ
វឃ
វង
វច
វចក
វចង
វចន
វចម
វចរ
វចរក
វចរច
វឆ
វជ
វជន
វជនន
វឈ
វឈប
វញ
វដ
វដង
វដទ
វដល
វឋ
វឌ
វណ
វត
វតម
វថ
វទ
វទត
វទទ
វទន
វទម
វទស
វធ
វធម
វន
វប
វបក
វបង
វបច
វបញ
វបដ
វបណ
វបទ
វបទន
វបន
វបរ
វផ
វផង
វផល
វព
វពង
វពន
វពស
វភ
វម
វមគ
វមណ
វមន
វមម
វមរកត
វមហ
វយ
វរ
វរក
វរង
វរដ
វរណ
វរណធម
វរត
វរថភ
វរទ
វរន
វរប
វរបស
វរព
វរម
វររ
វរល
វរវ
វរស
វល
វលក
វវ
វវត
វវស
វស
វសង
វសញ
វសត
វសន
វសភ
វសម
វសរស
វហ
វឡ
វអ
វអង
វអត
វអធ
វអន
វអរ
វអស
វឧប
វឱ
វឲ
វៗ
ឝ
ឞ
ស
សក
សកកម
សកដ
សកទ
សកន
សកម
សករ
សកល
សកលល
សកលវ
សកស
សខ
សគ
សឃ
សង
សងខ
សងព
សងស
សច
សចក
សចម
សចរ
សចរកម
សចរជ
សចរណ
សឆ
សជ
សជប
សជរ
សឈ
សឈរ
សញ
សដ
សដទ
សដល
សណ
សត
សតទ
សតវត
សថ
សថស
សទ
សទទ
សធ
សធម
សន
សនក
សនកម
សនទ
សនប
សនបណ
សនយ
សនវ
សប
សបង
សបញ
សបដ
សបន
សបរ
សបស
សផ
សផង
សផងដ
សផល
សព
សពន
សភ
សម
សមក
សមកវ
សមគ
សមជ
សមណ
សមណគ
សមណប
សមណព
សមត
សមថ
សមន
សមភ
សមម
សមយ
សមរភ
សមរម
សមស
សមហ
សយ
សយក
សយដ
សយន
សរ
សរក
សរខ
សរច
សរជ
សរជន
សរដ
សរណ
សរត
សរថ
សរទ
សរន
សរប
សរបស
សរព
សរភ
សរម
សរវ
សរស
សរសព
សរហ
សរឡ
សល
សលក
សលកម
សលច
សលដ
សលទ
សលធម
សលន
សលប
សលវ
សវ
សវក
សវត
សវន
សស
សសង
សសញ
សសត
សសម
សសរ
សសរស
សសល
សហ
សហក
សហកម
សហគ
សហគត
សហគមន
សហជ
សហប
សហព
សហភ
សហរ
សហរដ
សហស
សឡ
សអ
សអង
សអន
សអភ
សអស
សឥណ
សឦស
សឧត
សឯករ
សឱ
សឲ
សៗ
សៗគ
ហ
ហក
ហកដ
ហកម
ហករ
ហង
ហចរ
ហដ
ហណ
ហត
ហទ
ហធ
ហន
ហប
ហបស
ហភ
ហម
ហយ
ហរ
ហរណ
ហរណកម
ហរត
ហល
ហវ
ហស
ហសម
ហឫទ
ឡ
ឡក
ឡង
ឡដ
ឡន
ឡប
ឡស
អ
អក
អខ
អគ
អគត
អឃ
អង
អងធ
អច
អចលនវត
អជ
អញ
អញក
អញខ
អញគ
អញត
អញទ
អញន
អញប
អញម
អញស
អដ
អឌ
អណ
អត
អថ
អទ
អធ
អធម
អន
អនក
អនត
អនន
អប
អបរ
អផ
អព
អភ
អម
អមដ
អមត
អមន
អមរ
អយ
អយល
អរ
អរគ
អរជ
អរដ
អរណ
អរត
អរបស
អរហ
អរហត
អរហន
អល
អលង
អវ
អវក
អវត
អវយវ
អវស
អឝ
អស
អសង
អសន
អសប
អសម
អហ
អៗ
ឣ
ឣង
ឣញ
ឣត
ឣន
ឣប
ឣរហត
ឣស
ឤ
ឤក
ឤច
ឤត
ឤន
ឤយតន
ឤរម
ឤស
ឤហ
ឥ
ឥច
ឥដ
ឥណ
ឥណទ
ឥត
ឥតខ
ឥតគ
ឥតឈប
ឥតប
ឥតម
ឥតស
ឥទ
ឥធ
ឥន
ឥម
ឥរ
ឥល
ឥវ
ឥស
ឥឡ
ឦ
ឦឝ
ឦស
ឧ
ឧក
ឧកញ
ឧកហ
ឧច
ឧជ
ឧដ
ឧណ
ឧត
ឧទ
ឧទក
ឧទរ
ឧប
ឧបក
ឧបករណ
ឧបច
ឧបជ
ឧបដ
ឧបត
ឧបទ
ឧបធ
ឧបន
ឧបប
ឧបម
ឧបរ
ឧបស
ឧបសគ
ឧបសម
ឧភត
ឧភយ
ឧម
ឧរ
ឧស
ឧសភ
ឧឡ
ឩ
ឪ
ឪព
ឪម
ឪឡ
ឫ
ឫក
ឫកព
ឫត
ឫទ
ឫឞ
ឫស
ឫសគល
ឬ
ឬក
ឬខ
ឬគ
ឬច
ឬជ
ឬឈ
ឬដ
ឬត
ឬថ
ឬទ
ឬធ
ឬន
ឬប
ឬផ
ឬព
ឬភ
ឬម
ឬយ
ឬរ
ឬរបស
ឬល
ឬវ
ឬស
ឬសម
ឬហ
ឬអ
ឬអន
ឭ
ឭក
ឮ
ឮដ
ឮថ
ឮព
ឮស
ឮហ
ឯ
ឯក
ឯកគ
ឯកច
ឯកជន
ឯកត
ឯកទ
ឯកភ
ឯករ
ឯកស
ឯកអគ
ឯកឧត
ឯខ
ឯង
ឯងក
ឯងច
ឯងជ
ឯងដ
ឯងទ
ឯងន
ឯងប
ឯងម
ឯងហ
ឯច
ឯជ
ឯដ
ឯណ
ឯត
ឯទ
ឯន
ឯប
ឯផ
ឯព
ឯភ
ឯម
ឯមន
ឯរ
ឯល
ឯវ
ឯស
ឯសម
ឯអ
ឯអស
ឰ
ឰដ
ឱ
ឱក
ឱកម
ឱឃ
ឱង
ឱជ
ឱត
ឱន
ឱប
ឱភ
ឱម
ឱរ
ឱរស
ឱវ
ឱស
ឱសថ
ឱហ
ឱឡ
ឲ
ឳ
ឳព
ា
ិ
ី
ឹ
ឺ
ុ
ូ
ួ
ើ
ឿ
ៀ
េ
ែ
ៃ
ោ
ៅ
ំ
ះ
ៈ
៉
៊
់
៌
៍
៎
៏
័
៑
្
។
៕
៖
ៗ
ៗក
ៗខ
ៗគ
ៗច
ៗជ
ៗដ
ៗត
ៗថ
ៗទ
ៗន
ៗប
ៗផ
ៗព
ៗម
ៗរ
ៗរបស
ៗស
ៗអ
៘
៙
៚
៛
៝
០
០០
០០០
០១
០២
០៣
០៤
០៥
០៦
០៧
០៨
០៩
១
១០
១០០
១០០០
១០០០០
១០០២
១០១
១០២
១០៣
១០៤
១០៥
១០៥០
១០៨
១០៩
១១
១១០
១១៨១
១២
១២០
១២១
១២៤
១២៥
១៣
១៣០
១៤
១៤០
១៥
១៥០
១៥០០
១៥០០០
១៥១៦
១៥២
១៦
១៦០
១៧
១៧៨៩
១៨
១៨០
១៨៦០
១៨៦២
១៨៦៣
១៨៦៧
១៨៧៦
១៨៨៤
១៨៨៥
១៩
១៩០០
១៩០៤
១៩០៥
១៩០៧
១៩១០
១៩១១
១៩១២
១៩១៣
១៩១៤
១៩១៥
១៩១៦
១៩១៧
១៩១៨
១៩១៩
១៩២០
១៩២១
១៩២២
១៩២៣
១៩២៤
១៩២៥
១៩២៦
១៩២៧
១៩២៨
១៩២៩
១៩៣០
១៩៣២
១៩៣៣
១៩៣៥
១៩៣៦
១៩៣៧
១៩៣៩
១៩៤០
១៩៤១
១៩៤២
១៩៤៣
១៩៤៤
១៩៤៥
១៩៤៦
១៩៤៧
១៩៤៨
១៩៤៩
១៩៥០
១៩៥១
១៩៥២
១៩៥៣
១៩៥៤
១៩៥៥
១៩៥៦
១៩៥៧
១៩៥៨
១៩៥៩
១៩៦០
១៩៦១
១៩៦២
១៩៦៣
១៩៦៤
១៩៦៥
១៩៦៦
១៩៦៧
១៩៦៨
១៩៦៩
១៩៧០
១៩៧១
១៩៧២
១៩៧៣
១៩៧៤
១៩៧៥
១៩៧៦
១៩៧៧
១៩៧៨
១៩៧៩
១៩៨០
១៩៨១
១៩៨២
១៩៨៣
១៩៨៤
១៩៨៥
១៩៨៦
១៩៨៧
១៩៨៨
១៩៨៩
១៩៩០
១៩៩១
១៩៩២
១៩៩៣
១៩៩៤
១៩៩៥
១៩៩៦
១៩៩៧
១៩៩៨
១៩៩៩
២
២០
២០០
២០០០
២០០០០
២០០១
២០០២
២០០៣
២០០៤
២០០៥
២០០៦
២០០៧
២០០៨
២០០៩
២០១០
២០១១
២០១២
២០១៣
២០១៤
២០១៥
២០១៦
២០១៧
២០១៨
២០១៩
២០២
២០២០
២០២១
២០២២
២១
២២
២២០
២៣
២៤
២៤០
២៥
២៥០
២៦
២៧
២៨
២៩
៣
៣០
៣០០
៣០០០
៣០០០០
៣១
៣២
៣៣
៣៤
៣៥
៣៦
៣៧
៣៨
៣៩
៤
៤០
៤០០
៤០០០
៤០០០០
៤១
៤២
៤៣
៤៤
៤៥
៤៥០
៤៦
៤៧
៤៨
៤៩
៤៩៣
៥
៥០
៥០០
៥០០០
៥០០០០
៥១
៥២
៥៣
៥៤
៥៥
៥៦
៥៧
៥៨
៥៩
៦
៦០
៦០០
៦០០០
៦១
៦២
៦៣
៦៤
៦៥
៦៦
៦៧
៦៨
៦៩
៧
៧០
៧០០
៧១
៧២
៧៣
៧៤
៧៥
៧៦
៧៧
៧៨
៧៩
៨
៨០
៨០០
៨០២
៨១
៨២
៨៣
៨៤
៨៥
៨៦
៨៧
៨៨
៨៨៩
៨៩
៩
៩០
៩០០
៩១
៩២
៩៣
៩៤
៩៤៤
៩៥
៩៦
៩៦៨
៩៧
៩៨
៩៩
​
‌
‍
‎
‐
‑
–
—
―
‖
‘
’
“
”
•
…
‧
′
″
‹
›
⁄
⁡
€
ℓ
←
↑
→
↔
↷
⇒
∀
∂
∈
∏
∑
−
∓
∗
∘
∞
∠
∫
∬
≈
≡
≤
≥
⋅
⋯
③
④
⑦
─
├
△
►
●
❤
⟨
⟩
⟶
⟹
⟺
ⴰ
⺀
⺄
⺆
⺈
⺊
⺌
⺕
⺝
⺸
⺼
⿰
⿱
⿲
⿳
⿴
⿵
⿶
⿷
⿸
⿹
⿺
⿻
、
。
《
》
「
」
〢
あ
い
う
え
お
か
き
く
け
こ
さ
し
す
せ
そ
た
ち
っ
つ
て
と
な
に
ね
の
は
ひ
ふ
へ
ほ
ま
み
む
め
も
ゃ
や
ゅ
ゆ
ょ
よ
ら
り
る
れ
ろ
わ
を
ん
゙
゚
ア
イ
ウ
オ
カ
キ
ク
コ
サ
シ
ス
タ
ッ
テ
ト
ナ
ニ
ハ
ヒ
フ
ヘ
ホ
ム
メ
ャ
ユ
ョ
ラ
リ
ル
レ
ロ
ン
・
ー
㇁
㇂
㇄
㇇
㇈
㇉
㇓
㐁
㐄
㐅
㐌
㐫
㐬
㐭
㐮
㐱
㑒
㒵
㒸
㒼
㓁
㓞
㔾
㕛
㕣
㖾
㘝
㚅
㚇
㚔
㚘
㝉
㝡
㝴
㝵
㞋
㞢
㞷
㠩
㠭
㠯
㡀
㡭
㡿
㢲
㢴
㣇
㣺
㥯
㪅
㫄
㫐
㫒
㫺
㬅
㬎
㬥
㬰
㲋
㳄
㷠
㸒
㸚
㸦
㼌
㼲
㽞
㿟
䀠
䂞
䍃
䏍
䒑
䖍
䖒
䖝
䖵
䙴
䚻
䜌
䝿
䡛
䧹
䪞
一
丁
丂
七
丄
丅
丆
万
丈
三
上
下
丌
不
与
丏
丐
丑
专
且
丕
世
丘
丙
业
东
丞
丢
丣
两
严
並
丨
丩
个
丫
丬
中
丮
丰
丱
串
丵
丶
丷
丸
丹
为
主
丽
丿
乀
乂
乃
久
乆
乇
么
义
之
乌
乍
乎
乏
乐
乑
乔
乖
乗
乘
乙
乚
乛
乜
九
乞
也
习
乡
乳
乾
亀
亅
了
亇
予
争
事
二
亍
于
亏
亐
云
互
亓
五
井
亘
亚
亜
亞
亟
亠
亡
亢
交
亥
亦
产
亨
亩
享
京
亭
亮
亯
亰
亲
亳
亶
亷
人
亻
亼
亾
仁
今
介
仌
从
仐
仑
仒
仓
仕
他
付
仙
仝
代
令
以
任
企
伊
伏
伐
休
会
伯
但
位
体
何
佘
余
佛
作
佥
使
來
侈
侌
侍
侖
供
侯
侵
便
保
俞
信
修
倉
倍
們
候
倠
備
傳
僉
僕
儀
儿
兀
允
兂
元
兄
充
兆
兇
先
光
兊
克
兌
免
兑
兒
兓
兔
党
兜
兟
入
全
兩
兪
八
公
六
兮
兰
共
关
兵
其
具
典
兹
兼
冀
冂
冃
冄
内
冈
冉
冊
冋
册
再
冎
冏
冐
冒
冓
冖
冗
冘
军
农
冝
冡
冥
冫
冬
冷
几
凡
凢
凵
凶
凷
凸
凹
出
函
凾
刀
刁
刂
刃
刄
刅
分
切
刍
刑
刕
刖
列
刘
则
初
別
利
别
到
制
刺
則
削
剌
前
剡
剽
劉
力
功
加
劦
助
劫
劳
劵
勃
勇
勉
勒
動
務
勞
勤
勹
勺
勻
勾
勿
匀
匂
包
匆
匈
匊
匋
匍
匕
化
北
匚
匝
匡
匪
匱
匸
匹
区
医
匽
匿
區
十
卂
千
卄
卅
卆
升
午
卉
半
卌
华
卑
卒
卓
单
卖
南
卜
卝
卞
占
卡
卢
卣
卤
卦
卩
卪
卬
卯
印
危
即
却
卵
卷
卸
卻
厂
厃
厄
历
厈
厉
厌
厓
厘
厚
原
厤
厥
厨
厭
厲
厶
厷
厸
去
厼
厽
叀
参
參
叅
又
叉
及
友
双
反
叐
发
叒
叔
叕
取
受
叚
叜
叟
口
古
句
另
叩
只
召
可
台
叱
史
右
叵
号
司
叹
吂
各
吅
合
吉
吊
吋
同
名
后
吏
向
吕
君
吝
吞
否
含
启
吳
吴
吹
吾
呂
呆
呈
告
员
呙
周
命
咅
和
咎
咠
咢
咨
咸
咼
哀
品
哉
員
哥
哲
唐
商
啇
問
啚
啬
啻
善
喜
喬
單
喿
嗇
嘉
噩
嚴
囊
囗
囘
囙
囚
四
回
囟
因
囧
囬
困
囱
囷
固
国
圂
圅
國
圍
圓
土
圡
圣
圥
在
圭
地
圶
圼
坐
坒
坚
坴
垂
垔
垚
埀
埋
城
埔
埶
執
基
堂
堅
堆
堇
堯
報
塞
墨
壘
士
壬
壯
声
壳
壴
壹
壺
壽
夂
处
夅
夆
备
夊
夋
夌
复
夏
夒
夕
外
夗
夘
多
夜
夢
大
夨
天
太
夫
夬
夭
央
失
夲
头
夷
夸
夹
夻
夾
奂
奄
奇
奈
奉
奎
奏
奐
契
奓
奔
奚
奞
奠
奢
奥
奭
女
奴
奻
好
如
妄
妙
妟
妥
妻
妾
姑
委
姜
威
娄
婁
婆
婴
嬰
嬴
子
孑
孔
孕
孖
字
存
孚
孛
孝
孟
季
孤
学
孫
孱
學
宀
宁
宂
它
宅
宇
守
安
宋
完
宏
宓
宗
官
定
宛
宜
宝
客
宣
室
宮
宰
害
家
容
宾
宿
寄
寅
密
富
寒
察
寧
寨
審
寫
寬
寮
寸
对
寺
寻
寽
対
寿
封
尃
射
将
將
專
尉
尊
尋
尌
對
小
少
尒
尓
尔
尖
尗
尚
尞
尢
尣
尤
尧
尨
尭
就
尸
尹
尺
尻
尼
尽
尾
尿
局
居
屈
屋
屎
屏
屑
展
屖
屚
属
屠
屡
屬
屮
屯
屰
山
屵
屾
岁
岂
岑
岡
岩
岳
岸
峯
島
崇
崑
崔
崖
崙
崩
嵬
嶲
巂
巛
川
州
巟
巠
巢
巤
工
左
巧
巨
巩
巫
差
己
已
巳
巴
巷
巸
巽
巾
巿
帀
市
布
希
帚
帛
帝
带
師
席
帶
常
干
平
年
幵
并
幷
幸
幺
幻
幼
幽
幾
广
広
庄
床
底
店
庚
府
度
庫
庭
庶
康
庸
廉
廌
廛
廣
廩
廴
延
廷
建
廾
廿
开
弁
弃
弄
弇
弋
式
弓
弔
引
弗
弘
弜
弟
弥
弦
弱
張
強
强
彊
彌
彎
彐
彑
当
彔
录
彖
彗
彡
形
彥
彦
彧
彭
彳
役
彼
往
待
律
後
徒
得
徙
從
復
微
徵
心
忄
必
忌
忍
志
忝
忠
忩
快
念
忽
忿
思
怠
急
性
怱
恆
恒
恩
恭
息
悉
患
悤
悲
悶
情
惠
惡
惢
愁
愈
意
愛
感
慈
慧
慮
憂
憲
應
戀
戈
戉
戊
戋
戌
戍
戎
成
我
戒
戔
或
戚
戠
戢
截
戲
戶
户
戹
戼
戾
房
所
扁
扇
手
扌
才
打
托
执
承
折
拉
拜
拿
掌
推
提
摩
支
攴
攵
收
攸
改
放
政
敄
故
敏
敕
敖
敗
教
敝
敞
敢
散
敦
敫
敬
数
敷
數
斂
文
斉
斊
斗
斤
斥
斩
斬
斯
新
方
於
施
斿
旁
旋
族
无
旡
既
旣
日
旦
旧
旨
早
旬
旱
旲
时
旾
昆
昇
昌
昍
明
昏
易
昔
昗
昜
星
春
昬
是
昱
昴
昷
時
晃
晋
晏
普
景
晶
智
暑
暴
暹
曇
曜
曩
曰
曲
曳
更
曷
書
曹
曼
曾
替
最
朁
會
月
有
朋
服
朔
朕
朗
望
朝
期
木
朩
未
末
本
札
朮
术
朱
朵
朶
朿
杀
李
杏
杜
束
条
来
東
杲
杳
松
析
林
枚
果
枝
枲
枼
某
柔
查
柬
柰
柴
栗
桀
桑
桼
梁
條
梟
梨
棘
棠
棥
森
楚
業
楽
榮
樂
樊
欠
次
欣
欮
欲
欶
欽
款
歆
歇
歌
歛
止
正
此
步
武
歨
歪
歮
歯
歰
歲
歴
歷
歸
歹
歺
死
殳
段
殷
殸
殹
殺
殻
殿
毋
毌
母
每
毒
比
毕
毚
毛
毳
氏
氐
民
气
気
氣
水
氵
氶
氷
永
氺
氾
求
汉
汝
汞
江
沃
沓
沙
沝
河
治
泉
法
波
泣
泥
泰
洛
洪
活
派
流
浦
浪
浮
海
淡
淮
清
渚
渠
湯
滿
漢
漸
火
灬
灭
灰
灵
灷
炅
炎
炏
炗
炙
炭
為
烈
烏
烝
焉
無
焦
焱
然
煞
熊
熏
燕
營
燮
爪
爫
爭
爯
爰
爱
爲
爵
父
爻
爽
爾
爿
片
牙
牚
牛
牜
牟
牢
牧
物
牪
特
牽
犀
犬
犭
犮
狂
狄
狊
独
狺
猋
猒
猪
献
獻
玄
率
玉
王
玖
玟
玨
珎
班
琴
瑟
瑩
瓜
瓦
甘
甚
生
産
用
甫
甬
田
由
甲
申
电
甶
男
甸
甹
画
甾
畀
界
畏
畐
留
畜
畟
畢
畧
畨
番
畫
異
畱
當
畺
畾
疊
疋
疌
疑
疒
疾
癶
癸
癹
登
發
白
百
皀
皃
的
皆
皇
皋
皐
皕
皮
皷
皿
盃
盆
盇
盈
益
盍
盎
监
盒
盖
盛
盡
監
盤
盧
目
直
相
盾
省
眇
眉
看
県
眔
眞
真
眷
眼
眾
着
睘
睪
睿
瞏
瞢
瞿
矍
矛
矞
矢
矣
知
矦
短
石
研
破
碎
磊
磨
示
礻
礼
社
神
祟
票
祭
禀
禁
福
禸
禹
禺
离
禽
禾
禿
秀
秃
秉
秋
科
秝
秦
移
程
稟
穀
穌
穴
究
穹
空
穿
突
窄
窒
立
竒
竜
竝
竟
章
童
竹
笑
笠
第
筆
等
答
箕
算
箴
節
篤
篭
米
粉
粛
粟
粤
粦
粲
糞
糸
糹
系
約
納
素
索
紫
累
細
絜
絫
絲
經
維
綿
縣
繇
纍
纟
缶
网
罒
罔
罕
罗
罙
罡
罢
罪
署
罷
羅
羊
羌
羍
美
羔
羕
羗
羞
羡
羣
群
義
羲
羸
羽
翁
翏
習
翕
翟
翠
翼
老
耂
考
者
耆
而
耎
耑
耒
耳
耴
耶
耷
聂
聊
聖
聚
聶
聿
肀
肃
肅
肉
肖
肙
肥
肩
肯
育
肴
胃
背
胡
胥
能
脊
脩
膚
臣
臤
臧
自
臬
臭
臯
臱
至
致
臺
臼
臽
臾
臿
舀
舂
舄
與
興
舉
舊
舌
舍
舛
舜
舞
舟
般
艮
良
色
艸
艹
艾
芒
芔
芬
芮
花
芳
芺
芻
苔
苗
苟
若
苦
英
范
茶
茸
荅
草
荒
荣
荼
莆
莧
莫
莽
菆
菊
菐
華
萬
落
葉
著
葛
董
葵
蒙
蒦
蒼
蓋
蓬
蓺
蔑
蔡
蕉
蕭
薄
薛
薦
薰
藍
藏
藥
蘭
虍
虎
虐
虒
虔
處
虖
虗
虘
虚
虛
虜
虞
虫
虽
蚤
蚩
蜀
蜜
蟲
蠡
血
行
衍
衛
衣
衤
表
衮
衰
袁
袞
褭
褱
襄
襾
西
覀
要
覃
見
規
覓
覧
親
覽
觀
见
角
解
言
訁
訇
計
記
詹
語
誩
諸
議
讠
谷
豆
豈
豊
豐
豕
豖
豙
象
豦
豩
豪
豸
貇
貝
貞
貟
負
貢
貧
貪
貫
責
貳
貴
買
費
賁
資
賈
賏
賓
賔
賛
賞
賢
賣
質
賴
贊
贝
贡
责
贯
贲
贵
赖
赞
赤
赦
走
越
足
路
蹇
身
躬
車
軍
軎
軟
輦
輸
车
辛
辜
辞
辟
辥
辰
辱
農
辵
辶
边
达
过
近
连
迷
追
退
送
逆
逐
通
速
造
逢
連
逮
進
遀
遂
過
道
達
遣
適
遷
遺
邊
邑
邕
那
邦
邪
郎
郡
部
郭
都
鄉
鄚
酉
酋
配
酓
釆
采
里
重
野
量
金
釒
錢
鎮
钅
長
镸
长
門
閃
閉
開
閏
閑
閒
間
閔
関
閵
閻
闌
门
间
闷
阑
阜
阝
阮
阿
降
院
陳
陽
隆
隊
隋
隡
隨
隱
隶
隹
隺
隻
隼
隽
难
雀
雁
集
雈
雋
雍
雐
雔
雙
雚
雜
雝
離
難
雨
雩
雪
雲
零
雷
需
霍
霜
霝
霞
霸
靈
靑
青
非
靡
面
靣
革
韋
韓
韦
韭
韯
韱
音
頁
頃
項
須
頗
頡
頭
頻
顛
页
風
风
飛
飞
食
飠
飯
養
饣
首
香
馬
馮
駦
騎
马
骨
高
髟
鬥
鬯
鬲
鬼
魏
魚
魯
鮮
鱼
鲁
鳥
鳳
鸟
鹵
鹿
麃
麗
麥
麦
麻
黃
黄
黍
黎
黑
黒
黨
黹
黽
黾
鼎
鼓
鼠
鼻
齊
齋
齐
齒
齿
龍
龙
龜
龟
龠
龰
龱
龴
龵
龶
龷
龸
龹



者
艹
﻿
！
（
）
，
－
．
：
；
＝
？
￼
�
𠀁
𠀃
𠀆
𠀉
𠀎
𠀐
𠁁
𠁣
𠂆
𠂇
𠂈
𠂉
𠂊
𠂋
𠂎
𠂒
𠂔
𠂛
𠂡
𠂢
𠂤
𠂬
𠂭
𠂹
𠃊
𠃋
𠃌
𠃍
𠃎
𠃑
𠃓
𠃔
𠃜
𠄌
𠄎
𠄠
𠄢
𠆢
𠆥
𠇍
𠈌
𠌵
𠓜
𠔉
𠔥
𠔼
𠔽
𠔿
𠕀
𠕁
𠕋
𠘧
𠘨
𠙻
𠙼
𠚏
𠚒
𠚤
𠚪
𠣏
𠤎
𠤕
𠥓
𠦄
𠦑
𠦝
𠧒
𠧗
𠧪
𠩺
𠪚
𠫓
𠫔
𠫤
𠬛
𠬝
𠬞
𠬢
𠬤
𠬶
𠮛
𠮦
𠮷
𠯑
𠱠
𠳮
𠷎
𡈼
𡉀
𡉵
𡌥
𡍮
𡏳
𡕒
𡕩
𡕰
𡖅
𡗗
𡗜
𡘆
𡘤
𡧱
𡨄
𡩧
𡬠
𡭽
𡰣
𡰥
𡰪
𡰯
𡰱
𡷈
𡸁
𡿨
𡿩
𡿪
𡿺
𢀖
𢀛
𢀩
𢁙
𢆉
𢆰
𢆶
𢇁
𢇇
𢉖
𢌬
𢌿
𢏚
𢑑
𢑚
𢖻
𢙣
𢛳
𢦏
𢦒
𢧵
𢼄
𢾕
𣁋
𣄼
𣅀
𣅽
𣍘
𣎳
𣎵
𣏋
𣏼
𣗥
𣥂
𣥖
𣦵
𣦼
𣧄
𣪊
𣪠
𣬉
𣳾
𣶒
𤇾
𤊽
𤐫
𤓰
𤔔
𤕨
𤣩
𤰇
𤰔
𤰞
𤴓
𤴔
𤽄
𥁑
𥁕
𥃦
𥃩
𥃭
𥇡
𥑟
𥘅
𥘈
𥝢
𥫗
𥱡
𦈢
𦉪
𦉬
𦉼
𦍌
𦍒
𦎧
𦐇
𦓔
𦔮
𦘒
𦙃
𦚏
𦣝
𦣞
𦣻
𦥑
𦥔
𦥯
𦨉
𦭝
𦰩
𧆞
𧈧
𧘇
𧰨
𧴪
𧴮
𧵩
𧾷
𨸏
𨾴
𩙿
𩠐
𩫏
𩵋
𪉷
𪜀
𪟽
𪠲
𪩲
𫇦
𫔭
𫜸
𫝀
𫠣
𫠩
𫢉
𫥞
𫩏
𫩠
𫪡
𫲽
𫶧
𬀷
𬐘
𬗌
𬙙
𬛸
𬜯
𬟩
𬯁
𬴘
𬺻
𬼉
𬼖
𭀰
𭁈
𭁨
𭅰
𭑈
𭕄
𭗼
𭤨
𭥫
𭻾
𮅕
𮊿
𮍌
𮍏
𮓗
𮥼
𮧮
廾
𰀁
𰀄
𰀈
𰀉
𰀕
𰀠
𰀡
𰀢
𰀪
𰁜
𰃮
𰆊
𰆘
𰋙
𰕎
𰢴
𰧭
𰯲
00--
01--
03--
10--
11--
12--
14--
15--
16--
17--
18--
19--
20--
22--
25--
30--
31--
80--
81--
82--
84--
85--
91--
a--
ab--
abso--
ac--
acu--
ad--
ado--
af--
ag--
air--
al--
alter--
am--
amba--
an--
ange--
ans--
anthro--
any--
ap--
appe--
ar--
arcs--
ari--
arr--
as--
assi--
astr--
at--
au--
auto--
ave--
b--
ba--
bac--
bar--
be--
beau--
ber--
bi--
bla--
bli--
bloom--
bo--
bod--
bra--
brah--
bran--
bre--
bri--
bro--
broad--
bru--
bu--
c--
ca--
cal--
car--
cata--
ce--
celeb--
cen--
ch--
chall--
che--
cho--
citiz--
cla--
cle--
cli--
clo--
co--
coll--
com--
con--
contri--
coo--
cor--
corr--
cou--
cra--
cre--
cri--
cru--
cryst--
cu--
cur--
cy--
cyc--
d--
da--
de--
decla--
def--
demog--
den--
depe--
des--
deuts--
di--
diffe--
dip--
dis--
discip--
discu--
disp--
dist--
distri--
dive--
do--
doc--
domi--
doub--
dr--
dre--
dro--
du--
dy--
e--
ec--
ed--
eff--
egy--
el--
ele--
em--
emer--
en--
epi--
es--
et--
eu--
euro--
ex--
exclu--
execu--
exp--
explo--
f--
fa--
fav--
fe--
fi--
fin--
flo--
fo--
fol--
for--
fr--
fre--
fri--
fried--
fru--
fu--
g--
ga--
gar--
gau--
gaz--
ge--
gen--
geo--
gi--
gil--
glo--
go--
gra--
gre--
gro--
gu--
h--
ha--
hab--
happ--
har--
he--
hea--
hein--
her--
hi--
ho--
hosp--
hu--
hy--
hyper--
i--
id--
iden--
igno--
il--
im--
imple--
in--
indi--
inf--
initi--
inst--
int--
inter--
inve--
is--
it--
j--
ja--
je--
jen--
jes--
ji--
jo--
ju--
k--
ka--
kan--
kar--
ke--
kh--
ki--
ko--
kra--
ku--
l--
la--
lam--
lan--
lau--
laun--
le--
lea--
lec--
legis--
li--
lo--
loc--
lu--
ly--
m--
ma--
mac--
man--
mar--
mari--
mat--
mcg--
me--
medi--
memo--
mer--
mess--
meta--
mexi--
mi--
micro--
mo--
mon--
monu--
mor--
mu--
mul--
multi--
munic--
mus--
my--
n--
na--
ne--
nega--
news--
ng--
ni--
no--
nomi--
nor--
not--
nu--
o--
obser--
occ--
occu--
ol--
on--
opp--
opti--
or--
os--
ot--
out--
p--
pa--
pass--
pat--
pe--
pen--
per--
ph--
pheno--
phil--
phy--
physi--
pi--
pla--
ple--
plu--
pm--
po--
pol--
politi--
pr--
pre--
pri--
prim--
princ--
pro--
prog--
psych--
pu--
py--
q--
qu--
r--
ra--
ran--
ras--
re--
rebe--
rece--
recog--
recom--
reg--
rega--
regu--
rela--
res--
reve--
ri--
ro--
rou--
row--
ru--
s--
sa--
sac--
sacrif--
sal--
sar--
sch--
scien--
sco--
scre--
se--
sen--
ser--
sha--
shi--
si--
sil--
sla--
so--
sol--
sove--
sp--
spea--
spi--
st--
ste--
stre--
stu--
su--
sub--
succ--
suffe--
supp--
sw--
swe--
sy--
syll--
sym--
syn--
t--
ta--
tal--
tar--
te--
teac--
techni--
tele--
tem--
terr--
th--
tho--
thre--
ti--
to--
ton--
tou--
tr--
tran--
trans--
tri--
trib--
tro--
tru--
tu--
tur--
typi--
u--
ul--
un--
uni--
unive--
up--
v--
va--
vari--
ve--
ver--
vi--
vic--
viol--
vir--
vo--
voya--
w--
wa--
wal--
war--
we--
whe--
wi--
wiki--
wil--
wo--
wu--
x--
xi--
xx--
y--
ya--
yel--
yu--
z--
ze--
ə--
н--
ก--
ค--
ง--
ด--
ท--
น--
บ--
พ--
ม--
ย--
ร--
ว--
ศ--
ส--
ห--
อ--
า--
เ--
แ--
ក--
កង--
កឈ--
កដ--
កន--
កប--
កព--
កយក--
កល--
កស--
កអ--
កឯ--
ខ--
ខណ--
ខម--
ខរ--
គ--
គង--
គត--
គម--
គរ--
គល--
ឃ--
ង--
ងច--
ងជ--
ងឈ--
ងដ--
ងត--
ងថ--
ងន--
ងវ--
ងស--
ងៗ--
ច--
ចក--
ចង--
ចន--
ចផ--
ចយ--
ចអ--
ឆ--
ជ--
ជក--
ជន--
ជយ--
ជហ--
ឈ--
ឈរ--
ញ--
ញជ--
ញព--
ញយ--
ញស--
ដ--
ដក--
ដង--
ឋ--
ឌ--
ឌព--
ឌល--
ឍ--
ណ--
ណង--
ណម--
ត--
តក--
តច--
តន--
តប--
តព--
តម--
តយ--
តរ--
តស--
តអ--
ថ--
ថយ--
ទ--
ទង--
ទធ--
ទន--
ទម--
ទរ--
ធ--
ធជ--
ធរ--
ន--
នក--
នជ--
នឈ--
នដ--
នត--
នថ--
នទ--
នធ--
នន--
នប--
នព--
នម--
នយ--
នរ--
នស--
នអ--
ប--
បង--
បថ--
បទ--
បន--
បយ--
បរ--
បល--
បស--
ផ--
ផល--
ព--
ពម--
ពរ--
ពល--
ភ--
ភព--
ភវ--
ម--
មក--
មជ--
មន--
មព--
មយ--
មរ--
មវ--
មស--
មអ--
យ--
យក--
យឈ--
យដ--
យថ--
យន--
យប--
យរ--
យស--
យអ--
យៗ--
រ--
រក--
រកប--
រង--
រជ--
រដ--
រត--
រថ--
រន--
រព--
រម--
រយ--
ររ--
រស--
ល--
លក--
លគ--
លង--
លជ--
លឈ--
លត--
លថ--
លន--
លប--
លរ--
លស--
លអ--
វ--
វក--
វគ--
វច--
វថ--
វន--
វម--
វយ--
វរ--
វស--
វអ--
ឝ--
ស--
សក--
សជ--
សន--
សព--
សម--
សរ--
សល--
សស--
សហ--
ហ--
ឡ--
អ--
អច--
អញ--
អប--
អម--
ឣ--
ឤ--
ឥ--
ឥត--
ឧ--
ឩ--
ឪ--
ឫ--
ឬ--
ឬស--
ឮ--
ឯ--
ឯក--
ឯង--
ឯត--
ឱ--
ឲ--
ៗ--
១០--
១១--
១២--
១៣--
១៤--
១៥--
១៦--
១៧--
១៨--
១៩--
២០--
២១--
២៤--
២៥--
--0
--1
--2
--3
--4
--5
--6
--7
--8
--9
--a
--ad
--ado
--ae
--ah
--ak
--al
--ally
--als
--am
--ama
--an
--ana
--ance
--ang
--ant
--ants
--ar
--ard
--ary
--as
--at
--ate
--ated
--atic
--ation
--ative
--au
--aw
--ay
--b
--berg
--ble
--break
--bs
--c
--ca
--cal
--ce
--ced
--cent
--ces
--ch
--cing
--cio
--cise
--ck
--cks
--cle
--co
--cs
--ct
--cted
--ction
--ctions
--cts
--cy
--d
--da
--de
--ded
--ding
--do
--ds
--duct
--dy
--e
--ea
--ect
--ed
--ei
--ein
--ek
--el
--en
--ened
--ens
--ensive
--ent
--ep
--er
--ers
--ery
--es
--ess
--est
--et
--eth
--ey
--f
--fied
--field
--ful
--g
--ga
--ge
--ger
--gh
--ght
--go
--gs
--gue
--h
--ha
--ham
--he
--hed
--hi
--hing
--hip
--i
--ia
--ial
--ian
--ible
--ic
--ical
--ick
--ics
--id
--ie
--ied
--ier
--ies
--ification
--ig
--ight
--in
--ine
--ing
--ings
--ins
--io
--ion
--ions
--ip
--ir
--ire
--is
--ish
--ism
--ist
--istic
--ists
--it
--ite
--ited
--ities
--itor
--ity
--ium
--ive
--iya
--ization
--ized
--j
--k
--ka
--ke
--ker
--ki
--ks
--ku
--l
--la
--lar
--ld
--le
--ler
--ley
--lf
--lism
--lity
--lk
--ll
--lle
--lm
--lo
--load
--ls
--lt
--lty
--ly
--m
--ma
--man
--me
--ment
--mn
--mo
--ms
--n
--na
--nce
--nces
--ncy
--nd
--nda
--nds
--ne
--ned
--ner
--ners
--nes
--ness
--ng
--ni
--nic
--ning
--nk
--nne
--no
--ns
--nt
--ntly
--nts
--nty
--ny
--o
--ogical
--ogy
--ok
--ol
--ology
--om
--omy
--on
--one
--ong
--ons
--or
--orm
--ors
--os
--ot
--ous
--ow
--owed
--p
--phic
--phy
--ping
--post
--ps
--pt
--ption
--r
--ra
--ral
--ran
--rary
--rd
--re
--rease
--ret
--rg
--ria
--ries
--rine
--rity
--rk
--rn
--ro
--rp
--rs
--rse
--rt
--rty
--ry
--s
--sa
--sc
--se
--sed
--ses
--sh
--sia
--sion
--sis
--sive
--sk
--son
--ss
--st
--stein
--ster
--stic
--ston
--sts
--sy
--t
--ta
--tal
--tary
--tation
--te
--tect
--ted
--ter
--tes
--th
--ti
--tial
--tic
--tics
--ties
--ting
--tion
--tions
--tive
--to
--ton
--tor
--tory
--tos
--try
--ts
--tt
--ty
--tz
--u
--ua
--ual
--ud
--ue
--uel
--ugh
--ught
--ul
--ular
--ult
--um
--ur
--ure
--ures
--us
--ut
--ux
--v
--ve
--ves
--vo
--vy
--w
--wide
--x
--y
--ya
--ye
--ys
--z
--za
--ก
--ต
--น
--ป
--ม
--ย
--ร
--ล
--ว
--า
--ក
--កក
--កញ
--កដ
--កទ
--កធ
--កន
--កប
--កព
--កម
--កល
--កស
--ខ
--គ
--ឃ
--ង
--ងគ
--ងទ
--ច
--ចម
--ឆ
--ជ
--ឈ
--ញ
--ដ
--ដល
--ឋ
--ឌ
--ណ
--ត
--ថ
--ទ
--ទទ
--ទន
--ទស
--ធ
--ធម
--ន
--ប
--បក
--បង
--បញ
--បណ
--បន
--បប
--បរ
--បស
--ផ
--ផង
--ព
--ពន
--ភ
--ម
--មន
--មរ
--មហ
--យ
--រ
--រដ
--រណ
--រប
--របស
--រម
--រស
--ល
--វ
--វគ
--វង
--វត
--ឝ
--ស
--សគ
--សញ
--សម
--ហ
--ហត
--ហព
--ឡ
--អ
--អង
--អន
--ឣ
--ឱ
--ឲ
--ៗ
--០
--០០
--១
--២
--៣
--៤
--៥
--៦
--៧
--៨
--៩
