!
"
#
##0
##1
##10
##11
##12
##13
##14
##15
##16
##17
##18
##19
##2
##20
##21
##22
##23
##24
##25
##26
##27
##28
##29
##3
##30
##31
##32
##33
##34
##35
##36
##37
##38
##39
##4
##40
##41
##42
##43
##44
##45
##46
##47
##48
##49
##5
##50
##51
##52
##53
##54
##55
##56
##57
##58
##59
##6
##60
##61
##62
##63
##64
##65
##66
##67
##68
##69
##7
##70
##71
##72
##73
##74
##75
##76
##77
##78
##79
##8
##80
##81
##82
##83
##84
##85
##86
##87
##88
##89
##9
##90
##91
##92
##93
##94
##95
##96
##97
##98
##99
$
%
&
'
(
)
*
+
,
-
.
/
0
00
000
001
002
007
01
02
020
021
03
030
035
038
04
040
049
05
051
06
060
07
070
072
08
080
086
089
09
090
1
10
100
1000
10000
101
102
103
104
105
106
107
108
109
11
110
1100
111
112
113
114
115
116
117
118
119
12
120
1200
121
122
1220
123
124
125
1250
126
127
128
129
13
130
1300
131
132
133
134
135
136
137
138
139
14
140
141
142
143
144
145
1450
146
147
148
149
1492
15
150
1500
15000
151
152
1521
1524
153
154
155
156
157
158
159
16
160
1600
161
162
163
164
165
166
167
168
1683
169
17
170
1700
172
173
174
175
1757
176
177
178
1783
179
1791
1795
18
180
1800
1809
181
1810
1812
1814
1815
1820
1821
1822
1824
1825
183
1830
1834
1839
1840
1841
1842
1848
1849
185
1859
186
1860
1861
1862
1864
1865
1867
1868
187
1870
1871
1874
1875
1878
188
1880
1884
1885
1886
1888
1889
189
1890
1891
1894
1895
1896
1897
1898
1899
19
190
1900
1901
1902
1903
1904
1905
1906
1907
1908
1909
191
1910
1911
1912
1913
1914
1915
1916
1917
1918
1919
192
1920
1921
1922
1923
1924
1925
1926
1927
1928
1929
193
1930
1931
1932
1933
1934
1935
1936
1937
1938
1939
1940
1941
1942
1943
1944
1945
1946
1947
1948
1949
195
1950
1951
1952
1953
1954
1955
1956
1957
1958
1959
196
1960
1961
1962
1963
1964
1965
1966
1967
1968
1969
197
1970
1971
1972
1973
1974
1975
1976
1977
1978
1979
198
1980
1981
1982
1983
1984
1985
1986
1987
1988
1989
199
1990
1991
1992
1993
1994
1995
1996
1997
1998
1999
2
20
200
2000
2001
2002
2003
2004
2005
2006
2007
2008
2009
201
2010
2011
2012
2013
2014
2015
2016
2017
2018
2019
202
2020
2021
2022
203
204
205
2050
206
207
208
209
21
210
211
212
213
214
215
216
217
218
219
22
220
2200
221
223
224
225
226
227
228
229
23
230
231
232
233
234
235
237
238
239
24
240
2400
241
242
243
244
245
246
247
249
25
250
2500
251
252
253
254
255
256
257
258
259
26
260
261
262
263
264
265
266
267
268
27
270
271
272
273
274
275
276
277
278
279
28
280
284
285
286
29
290
291
292
294
295
296
297
298
299
3
30
300
3000
301
302
303
304
306
308
309
31
310
313
316
3166
317
318
319
32
320
321
322
323
325
326
327
328
329
33
330
331
332
333
335
337
338
339
34
340
341
342
344
345
346
347
348
349
35
350
3500
351
352
354
355
357
358
359
36
360
3600
363
364
365
367
368
37
370
372
373
374
375
376
377
378
379
38
380
385
386
387
389
39
390
391
392
393
394
395
397
398
4
40
400
4000
401
402
403
404
406
407
408
41
410
413
414
415
419
42
420
421
423
425
427
43
430
433
435
436
437
438
44
440
443
446
45
450
451
46
462
463
467
468
469
47
470
474
478
48
480
484
485
487
49
493
495
498
499
5
50
500
5000
501
506
507
508
51
510
513
514
517
518
519
52
520
521
524
525
526
527
53
530
533
537
54
540
541
542
543
546
55
550
553
56
560
562
564
569
57
571
573
577
578
579
58
581
586
59
590
592
593
596
597
6
60
600
6000
602
604
606
61
610
611
616
62
620
622
627
629
63
630
637
64
640
641
644
648
65
650
6500
651
654
655
657
66
660
667
67
670
671
676
677
68
680
682
689
69
690
692
699
7
70
700
7000
702
71
710
711
718
72
720
721
724
727
728
73
730
733
74
741
742
743
747
75
750
751
757
759
76
765
768
77
770
776
78
780
781
787
788
79
790
791
8
80
800
8000
801
802
81
816
817
82
820
83
830
831
833
835
837
838
84
840
847
85
850
86
860
861
864
87
870
871
88
880
882
887
89
891
896
9
90
900
9000
909
91
912
915
92
921
924
93
930
94
940
946
95
950
96
960
966
968
969
97
970
98
980
99
995
:
;
<
=
>
?
@
[
\
]
^
_
`
a
aalang
aangal
aarciriya
aarpaniya
aarpeysu
ab
abdel
abdul
abdulla
abdullah
abidjan
abu
abuhacu
abuja
abura
abutura
ac
acic
ad
ada
adam
adama
adas
adaw
addo
addul
ado
adow
ae
af
africa
african
afrika
afuhan
afwerki
aga
agil
agong
aguh
ah
aha
ahmad
ahuhan
ahurika
ahuyrika
ahweyrika
aids
airport
aji
ajmmc
aka
akay
akayeyhu
akenting
aking
aknting
akufo
al
ala
alam
alan
alang
alapo
alaska
alassane
alaw
alax
albania
albert
alexander
algeria
ali
alif
alimika
alix
aliyev
all
almazbek
alnag
alng
alua
alvarado
aman
america
amerika
amey
ameyrika
ami
amir
amirika
amis
amrika
amuhara
an
ana
anadolia
anan
ananaq
anaq
anay
ancyeyn
and
ang
angal
angan
angcoh
ango
angola
angtika
ani
animanu
anina
anisa
anjeyng
ankara
anker
ankra
anman
annan
ano
anrihuy
ansi
ansu
antananarivo
antare
antawr
antigua
antika
anu
anukowiki
ao
aotearoa
apa
apot
apu
ar
arabia
arami
arapo
arawako
archange
arciriya
argentina
ari
arimika
aring
arisan
arisansyang
arlang
armenia
arpaniya
arsu
arthur
aruba
aruh
arumi
aryeyn
as
asanti
asapu
asaw
asi
asia
asiaco
asika
asiroay
asiya
asp
aspx
asu
asug
atambayev
atayal
ateras
atolan
atoll
atomo
au
auckland
audsa
aung
australia
australian
austria
aw
awah
awco
awcow
awi
awkowey
awpan
awran
awrinpiko
awsyong
awsyungtikwo
awtariya
awtili
awtiri
awto
awyun
ay
ayang
ayci
aycinhay
aycu
ayhamayto
ayitoye
aykwo
ayma
aymiar
ayrlan
ayrlang
aysaniya
ayu
ayug
ayus
azerbaijan
aziz
b
ba
baang
babale
babau
babaw
babirun
babuy
bachelet
baciq
baga
bagah
bahama
bahamacungdaw
bahu
bais
baka
bakan
baki
bakir
bakudang
bala
balay
bale
bali
balin
balkans
balo
balung
bamirkawyueyn
ban
banah
banaw
banday
bang
banggo
bangui
bani
banita
barah
baraq
baraw
barbuda
bari
baro
barrow
basaw
baso
basu
batul
baun
bawa
bay
bayan
baybara
baykey
bazil
bb
bbale
bbali
bbalo
bbaraw
bbari
bbarig
bbaro
bbc
bbeyhing
bbgay
bbilun
bbiqun
bbnaqi
bbrigan
bbrigun
bbrihan
bbrihuc
bbriwan
bbriyan
bbriyun
bbrnux
bbsuring
bbtunux
bbulan
bburah
bbuway
bbuyu
bc
bcbiciq
be
bege
begu
behing
beku
bekui
belah
belarus
belas
belgium
beling
belize
bellen
beluh
bemba
benac
benin
berah
beras
berih
betaq
bey
beyah
beyax
beyhing
beyki
beyluh
beyo
beytaq
beyuq
bf
bgala
bgeyac
bgihun
bgihur
bgiya
bgu
bgurah
bhangan
bhangi
bhege
bhgay
bhngil
bhni
bhniq
bhraun
bhring
bhuway
bi
bibi
bic
bici
biciq
bilaq
bin
binaw
biqan
biqi
biqun
birac
biru
birus
bisi
bissau
bitaq
biya
biyaw
biyax
biyi
biyu
biyuq
bkgan
bkgun
bkiluh
bkui
bkun
bkuwan
blangaw
blbale
blbilaq
blblbalay
blbul
blbun
blebil
blebun
blequn
bleyaq
blica
blin
bling
blog
bluhing
bnakui
bnaqi
bnaqig
bnaquy
bnarah
bnari
bnarig
bnaruy
bnatas
bnbari
bnbung
bnbur
bnegay
bnege
bneysa
bnhangan
bnkeyan
bnkgan
bnkiyan
bnkuwan
bnnatas
bnqanan
bnrahan
bnrigan
bnrihan
bnsiyaq
bnsyaqan
bntaqan
bntasan
bnuway
bobo
bobode
bobodeheran
bobona
bolivia
bolung
boru
bosna
bosnia
bosnian
botswana
boubacar
bowkax
bowqax
bowru
bowxi
bowyak
boyak
bqanan
bqani
bqanun
bqerus
bqrus
brah
brahan
brahaw
brahun
branaw
bratan
brax
brayaw
brazil
brbiru
brbul
breenux
brenux
brexan
brigan
brigi
brigun
brihan
brihut
brinah
brisan
british
briyan
briyun
brnahun
brnux
bruenux
bruling
brunei
brunguy
bruwa
bs
bsiyaq
bsngan
bsrux
bsu
bsuring
btakan
btaqan
btasan
btasil
btaw
btran
btriq
btug
btuku
btunux
bu
bubu
bubul
bubun
buc
bucyo
budi
budo
budoya
buji
bujoku
bukai
bukio
bukun
bukung
bukuy
bukyo
bulbul
bulgaria
buner
bung
bunga
bungan
bungi
bungka
bungu
bungun
bunuh
bunun
bunung
burah
burkina
burma
burundi
burux
bus
busi
busig
buta
butay
butayi
butun
buuc
buun
buut
buwan
buwarung
buwax
buway
bwarung
bwihur
by
byo
byoing
byoying
c
ca
cahtay
calasiv
calavi
caldero
camac
cambodia
cameroonian
can
canada
cancu
cang
cangjn
cangkwan
cangpin
cangping
cangpinsyang
canpin
canrwey
canterbury
canye
canyey
canyiyen
capital
caribbean
carlos
castro
cato
cau
caw
cawan
cawco
cawhe
cawis
cawwa
cawyueyn
cay
cayamavana
caycng
caycung
cayin
cbeyo
cbiyaw
cbuwan
ccamac
ccbu
cceka
ccida
ccka
ccng
ccngtang
ccu
ce
cealalupalantdlu
ceka
ceko
cen
cencu
cenfu
ceng
cenga
cengcen
cengcu
cenghu
cenko
cenkung
cenkwo
cenming
cenpucay
cenri
censo
censu
censusiyang
censusyan
central
cere
ceroh
cesu
cey
ceyci
ceyfang
ceyn
ceynsu
ceynsusyang
cfa
chad
chana
chang
charles
chedin
chenkung
chenkwangaw
cheya
chi
chile
china
ching
chiya
christian
chu
chun
chungcen
chungkang
ci
cia
ciamengan
cian
ciang
ciansyang
ciarcis
ciasacoran
ciaw
ciban
cican
cicang
cici
cicih
cicin
cicing
cico
cicu
cicya
cida
cien
cigtru
cih
cihalaay
ciho
cihwa
ciida
cijan
cikau
cikmey
ciko
cikow
ciku
cikuh
cikuku
cikwan
cilapuk
ciliksay
cimu
cin
cinay
cinbulan
cinceensan
cincen
cinceyn
cinci
cincngen
cincu
cineya
cineyya
cineyyapisor
cineyyawan
cinfungsyang
cing
cingcaw
cingci
cingcing
cingciti
cingcns
cingcnsu
cingcu
cinging
cingko
cingnuwan
cingpawcyu
cingsan
cingsen
cingting
cingtong
cingtu
cingwan
cingwatay
cinjong
cinjucng
cinjung
cinkhulan
cinko
cinpen
cinping
cinpu
cinputang
cinpyawsay
cinsbu
cinsu
cinsyasa
cintaw
cinun
cinwang
cinyang
cinzon
cion
ciong
cipanya
cipenfa
cipiq
ciputi
cipuwa
circis
ciru
cisan
cising
cisu
cita
citakang
citi
citing
citu
cituciyaw
citucyaw
citutu
citwan
city
ciu
ciun
ciung
ciusinlun
ciwan
ciwang
ciway
ciwidiyan
ciwkangan
ciya
ciyak
ciyakang
ciyan
ciyang
ciyaropihay
ciyaw
ciyawkeri
ciye
ciyensusiyang
ciyey
ciyeyn
ciyi
ciyo
ciyow
ciyungtaw
ciyuntaw
cji
cka
ckceka
ckcka
clokah
cm
cmcudu
cmebu
cmikul
cmikun
cmin
cminti
cmiyuk
cmu
cmucac
cn
cnbu
cnc
cncu
cnduray
cnfu
cng
cngc
cngce
cngco
cngcu
cngcweyn
cngcyaw
cngcyu
cngcyueyn
cngfu
cngkung
cngkungcn
cngpaw
cngpyeyn
cngtan
cngtang
cngti
cngtong
cngtu
cngweyn
cngyeyn
cngyeynkwo
cngyi
cngyueynkwo
cnhdilan
cnseyng
cnsyeyn
cntan
cnying
cnyusan
co
coast
coko
coleiro
college
colombia
columbia
com
confa
confazemin
confazenmin
confe
confekonhoko
cong
congcu
congcyaw
congdong
conggiying
congho
conghua
conghwa
conghwe
congkuo
congkwo
congli
congmeco
congmeyco
congnan
congo
congpu
congri
congsin
congsring
congsu
congsuci
congsuki
congte
congtong
congtongcu
congtu
congya
congyan
congyang
congyey
congyiyen
conko
conkon
conmeyco
conri
consci
conte
content
conton
conyan
cook
corang
correa
cose
coseng
coseyng
costa
cosu
cosweycya
cou
covid
cow
cpiqan
croatia
csu
csyas
csyun
ctaw
ctu
cu
cuan
cuansu
cuba
cubeyo
cubus
cuc
cucan
cucay
cuce
cuceka
cucen
cuci
cuciyo
cucng
cucngtang
cucong
cucu
cucuci
cucucyu
cucung
cucungtang
cucuring
cucusng
cucusu
cucyaw
cucyo
cucyueyn
cudu
cuhu
cui
cujan
cuke
cuko
cukwo
cumi
cuming
cumingti
cuminti
cun
cunfu
cung
cungcen
cungcng
cungco
cungcu
cungcyaw
cungfu
cunghu
cunghwa
cunghwaminkwo
cungku
cungkwo
cungmeycow
cungpen
cungri
cungsu
cungtang
cungtu
cungtung
cungyang
cunje
cunjusyang
cunsipaw
cunswe
cuntung
cuo
cuonghwa
cupan
cupey
cupn
cuqi
curi
current
curu
curung
cusan
cusangsyang
cusen
cushman
cusi
cusitwan
cusu
cusyasu
cusyun
cutaw
cutu
cutung
cuuxan
cuw
cuwawa
cuwawataw
cuweyn
cuxal
cuxan
cuyaw
cuye
cuyen
cuyey
cuyeyn
cuyi
cuyice
cuyn
cuyo
cuyotang
cwan
cwanciafeyi
cwancung
cwang
cwangpey
cwanmey
cwans
cwanweyn
cwekaw
cwen
cwey
cweyn
cweynmin
cweyrwan
cwi
cwin
cwo
cwocya
cwosisyang
cwow
cwu
cya
cyacowwan
cyacu
cyaiseyn
cyakang
cyako
cyakong
cyakweyca
cyamin
cyamong
cyamung
cyana
cyanantra
cyanata
cyang
cyangcyun
cyanghu
cyapong
cyari
cyarisiya
cyaropi
cyaropihay
cyasi
cyatayki
cyatayrungniya
cyaw
cyawcyu
cyawmin
cyawpan
cyawpansan
cyawpay
cyawryotaw
cyawtong
cyawtongpu
cyawtu
cyawtung
cyawyi
cyawyiso
cyawyu
cyawyupu
cyawyus
cye
cyen
cyey
cyeyci
cyeyhwang
cyeyko
cyeykslwofak
cyeymu
cyeyn
cyeyncng
cyeyncu
cyeyncyaw
cyeynkang
cyeynmi
cyeynswo
cyng
cyo
cyocang
cyoco
cyocuy
cyocuya
cyoka
cyokajnminkonghekwo
cyokaminkoku
cyokoku
cyopang
cyoring
cyoro
cyoson
cyosuci
cyow
cyu
cyuan
cyucang
cyueyn
cyueynri
cyuhwa
cyun
cyuncu
cyuncuc
cyunkwan
cyuns
cyunsu
cyuntaw
cyuntwey
cyuropu
cyusu
cyutaw
cyuyu
czechia
d
da
daan
dacik
dadan
dadus
dafu
dagun
dah
daha
dahaka
dai
daigako
daka
dakis
dalang
dalia
dalih
daling
damac
damat
damay
dame
dan
danan
dang
dangar
dangaw
dangi
dani
daniel
danilo
dankeycu
dankwa
dansangniya
dapa
dapil
dara
daran
daren
daru
database
datong
daun
dauqpusan
david
daw
day
daya
dayaw
dayhyo
dayi
dc
ddaan
ddaha
ddamac
ddaun
ddeyngsya
ddeynsya
ddgiyaq
ddha
ddheran
ddilan
ddilun
ddiyun
ddooyan
ddoras
ddriq
ddsun
ddulan
dduli
ddulun
dduma
dduuy
dduwa
dduwi
ddwiyaq
ddxgal
ddxral
de
dealang
deheran
deheya
dehu
dehug
dehuk
dehung
del
delgado
demqeepah
deng
denmark
denu
department
der
deriq
desun
development
deylu
deyn
deyngki
deynjanji
deynki
deyntay
dga
dgarung
dgitaq
dgiya
dgiyaq
dgiyat
dgril
dgring
dh
dha
dhaalu
dhabi
dhaka
dhekan
dhekunu
dhenu
dhequy
dheran
dheya
dhiya
dhiyaq
dhok
dhoq
dhqan
dhqi
dhqun
dhquy
dhuk
dhuq
dhut
dhyaan
di
dige
diingdong
dima
diro
district
diya
diyan
diyax
diyun
djima
djineljepan
djiun
djiyan
djiyun
dlih
dlutut
dma
dmai
dmanga
dmatun
dmaus
dmay
dmayaw
dmayi
dmayo
dmdn
dmdun
dmgiyal
dmi
dmka
dmkuh
dmoi
dmoyi
dmririh
dmudu
dmudug
dmudul
dmudun
dmurun
dmutuc
dmuuy
dmuwi
dmux
dmuy
dmuyi
dnamux
dnayaw
dnayo
dndilan
dndulan
dngan
dngiyah
dngus
dngusan
dni
dnii
dniyi
dnkuhan
dnlulan
dnoi
dnooyan
dnudul
dnurun
dnuuy
dnuwi
dnyagan
dnyawan
do
dodon
doi
doicu
doku
dominica
dominican
donald
dong
dooyan
dooyun
doras
doriq
doriyang
dow
dowmung
dowras
dowriq
doyicu
dqeras
dqras
dqrijil
dr
draki
dramane
drdowras
dri
driq
drodux
drudan
druma
drumut
dsan
dsaw
dsdesun
dsediq
dseediq
dseejiq
dsnaw
dsun
dtuwa
du
dualang
dubai
dudux
duhung
duku
dukuricu
duma
dumoi
dumu
duna
dung
dungal
dungan
dungus
dunii
durang
duri
duuy
duwa
duwan
duwi
duwiyaq
dvd
dwiyaq
dxal
dxgal
dxgan
dxral
dxran
dyagan
dyagun
dyawan
e
economic
ecuador
edirne
edu
eduardo
efong
ega
egibuto
ego
egu
eguw
egypt
eiyah
ekan
ekuo
ekwo
el
elalang
elealang
eleelug
elelug
elih
elizabeth
ellen
elu
elug
eluos
eluosreynpan
eluw
elwos
embahang
embanah
embbarig
embbiyax
embbrax
embgala
embhgay
embiyax
emblaiq
embrax
embrinah
embulang
emburux
emca
emdaan
emirates
empajiq
empatas
empcbu
empdhuq
empdudul
empeuyas
empgarang
emphing
emphpah
empitu
empklaw
empklawa
emppais
empprngaw
empqpah
empricuh
emprigaw
emprngaw
empruway
empsaping
empsapuh
empsruway
emptdxgal
emptgsa
emptsa
emptsamac
emptsamat
emptsapuh
empusal
empusan
empuyas
emu
en
enbiyax
enca
enda
endaan
ended
endha
endhiya
enduk
enduwa
england
english
eniq
enlaxan
enrique
ensaan
epitu
epusal
er
erdog
eritrea
erkwato
erkwoto
eru
eruc
erut
erwos
eseisil
esisil
esparta
estonia
eswatini
ethiopia
etuman
euda
euqun
evo
ex
experimental
eyah
eyga
eygo
eyki
eykoku
eyn
eyux
f
fa
faan
fac
facan
facebook
fako
fakong
fakow
fakuo
fakwan
fakwo
fan
fanfasisu
fanfupai
fang
fangafangasan
fantikang
fantwey
farabundo
fari
faring
faryu
fasis
faso
faswey
fateyncang
fating
faustin
fayen
fayi
fayu
fayueyn
fayui
fazen
fe
feco
fen
feng
fernando
fey
feyco
feycow
feynici
fiji
finland
flederik
fm
fo
fociyaw
focyaw
fong
fontvieille
for
formosa
fowraman
franc
france
francisco
frank
franse
fransi
ft
fu
fuad
fucungtung
fujairah
fuli
fulufuluan
fun
fund
fung
fungpinsyang
fungri
fungrin
fungrincn
furi
furisyang
fusing
fusingcyu
futa
fuuyey
fuwuyey
fuyuan
g
ga
gad
gaga
gakat
gako
galiq
gambia
gamil
gan
gasil
gasoring
gasu
gasuc
gata
gaya
gayom
gbihur
gbiyan
gbiyuk
gdp
gdregan
ge
geayus
geheti
gelu
gemuk
george
georges
georgia
germanic
germany
geyki
ggqiyan
ghak
ghana
gheti
ghhaw
gi
gicyo
giing
gikai
gikay
giman
gimun
ging
ginghang
gingko
ginko
gino
giorgi
gipu
girang
gis
gisu
gitu
giuseppe
giyin
giying
gjorge
glahang
glang
glekan
gluban
gmaaw
gmalu
gmao
gmaran
gmarang
gmaxan
gmaxun
gmbgurah
gmburah
gmeelug
gmeeluk
gmeyu
gmtange
gmuuruy
gnaalu
gnbalui
gnbarui
gnbaruy
gnbgurah
gnealu
gneayus
gneegan
gnhiyi
gnlekan
gnmaxan
gnrangan
gntuan
gnutu
gnyusan
go
gokang
gokosyo
google
gov
government
gqian
gqiyan
granger
greece
gri
grig
grimaldi
grybauskaite
gsilung
gtgut
gtuan
guatemala
guillermo
guine
guinea
guk
gukut
gumao
gunbarui
gungu
gupun
gupuq
guyana
gwang
gygaya
gying
gyusan
h
ha
haan
habuk
habun
habung
hacideynsyo
haciliwan
hadun
hadur
hagay
hai
haiti
haji
haka
hakasey
hakaw
hakka
hako
hali
halung
hamad
hamayto
han
hana
hanac
hancan
hancu
hang
hangal
hangan
hangciya
hangkoku
hangkong
hangkwo
hangpan
hangqung
hangsyeyn
hangyun
hani
hanjoku
hanko
hankoku
hankwo
hans
hansi
hantay
hantaypay
harare
harawan
hari
harihwa
harung
haruq
hasak
hasako
hasan
hashim
hasim
hasimu
hassan
hatay
haten
hati
havana
haw
hawaii
hawana
hawhan
hawmi
hay
haya
hayan
hayanseyn
haycung
haycyun
haykwan
hayo
haypa
haypaw
haypin
hayri
haysan
haysya
haytaw
hayti
haytwan
haytwansyang
haywan
hayway
hayyang
hayyangsing
hayyun
hbalo
hbangan
hbaraw
hbaro
hbngan
hbragan
hbun
hcian
hciyan
hciyun
hcwo
hdlun
hdrus
he
heads
hecong
hecwo
hehwansan
hei
hejn
heku
hellas
hen
heng
hengac
hengak
heping
heran
hercegovina
herna
hery
herzegovina
hetai
hetay
hey
heya
heyi
heyta
heytay
heytey
hgalang
hghaw
hgnkawas
hhangan
hhaqun
hhbaraw
hheytay
hhnang
hhqulan
hhreyan
hhtur
hhuqil
hi
hici
hicyo
hidaw
hido
hidoyi
higgins
hii
hika
hikoki
himoti
hindustani
hinet
hini
hio
hiong
hiqur
hiti
hiya
hiyi
hjilun
hkawas
hki
hl
hla
hlama
hlayan
hlidan
hlitan
hliyan
hlmadan
hlmaun
hma
hmaan
hmadut
hmanguc
hmbragan
hmdhik
hmeri
hmeru
hmetun
hmetur
hmgluq
hmici
hmili
hmiru
hmjil
hmjiyal
hmkan
hmkawas
hmkun
hmlama
hmneru
hmnru
hmqangaw
hmrapas
hmrinas
hmru
hmtur
hmuc
hmuma
hmuril
hmurinas
hmut
hmuya
hn
hnang
hnbangan
hnbragan
hncian
hnciyan
hndayu
hndu
hndure
hngak
hngan
hngkawa
hngkawas
hngkawasan
hngkwas
hngkwasa
hngkwasan
hnhangan
hni
hnici
hnigan
hniti
hniwan
hniyan
hniygan
hnkawas
hnkwasan
hnlitan
hnmaan
hnpuyan
hnqilan
hnraan
hnreyan
hnriqan
hnruan
hnruwan
hntiyan
hnuma
hnyegan
hnygan
hnyigan
hnyuwan
ho
hoco
hocwey
hocwo
hoeyng
hoing
hokwo
hollande
holo
homeni
homung
honduras
honey
hong
honghay
honghuy
hongke
hongko
hongkong
hongso
hongsun
hongtulasu
hoping
horan
hori
horicu
hosay
hosaykowena
hosu
hosweynjn
house
how
howrung
hoying
hpingcyu
hpucing
hpuyan
hpuyun
hqulan
hr
hraan
hragan
hran
hrenang
hreyan
hridan
hridun
hrinas
hrpasan
hru
hruan
hrus
hruwan
htin
htm
html
htngayan
htran
htranan
htrun
http
https
hu
hua
hualien
huan
hubaro
hucaw
huco
hucongtong
hucu
hucumin
hucyeyn
huda
hug
huji
hujn
huku
hukusoto
huling
human
hun
huna
hunac
hunan
hunat
hune
hung
hungary
hunghay
hungring
hungun
hungyari
huniti
hunran
huping
hupo
huqil
huri
huring
husan
husing
husingtang
hussein
huwa
huway
huwu
huwuyey
huy
huya
huyci
huyi
huyryu
huyyi
hwa
hwaan
hwacan
hwajen
hwajn
hwako
hwakong
hwakwan
hwakwo
hwan
hwancyaw
hwang
hwangcin
hwangcu
hwangcya
hwaningru
hwarang
hwaransi
hwareynsu
hwareyseyn
hwari
hwaro
hwaryeyn
hwasi
hwasu
hwaswey
hwasyang
hwaten
hwating
hwatung
hwatungcungku
hwatyeyn
hway
hwayen
hwayi
hwayu
hwazun
hwe
hweco
hwen
hwenantosu
hweriping
hwey
hweyen
hweyi
hwi
hwinuk
hwo
hwokuy
hwopan
hwopi
hyaan
hyhuya
hyo
i
iads
ian
ibrahim
ibuh
iburasin
iceland
ici
icibang
icil
icilun
icin
icirun
icrun
icu
id
ida
idas
idaw
ido
idriss
ids
ie
igi
igor
ihey
ihownang
ihuey
ihunang
ihuwe
ihwe
ihwey
ii
iicil
iii
iiyax
iiyux
ikayhwa
iko
iku
ilang
ilham
ima
imf
imi
in
ina
inago
inagu
index
india
indian
indonesia
indu
ing
ingcyo
inggaku
inghang
ingkay
ingko
ingkoku
ingkuo
ingkwo
ingkwosyey
ingni
ingnyoto
ingpay
ingri
ingsu
ingsyong
ingtu
ingtunisiya
ingtuyan
ingtuyang
ingyi
ingyu
inhan
inhang
ini
inko
inkwo
international
intian
intu
intucyaw
intukyo
intunisiya
intuyang
inu
ipa
ipang
ipaw
irake
irako
iran
irang
iraq
ire
ireland
iri
irih
iril
irin
iririya
irisapay
iryaw
is
isa
isaias
iserey
isil
ising
islael
islam
islamkyo
island
islang
islangcyaw
iso
isopiya
isore
israel
isran
isranciau
israncyaw
israngcyaw
isrankyo
istanpaw
isu
isuopiya
isuran
isuranciyaw
isurancyaw
isurankyo
it
ita
itali
italy
itari
iti
itno
itong
ivanov
ivory
iwan
iwil
ixwey
iya
iyah
iyang
iyax
iye
iyen
iyu
iyueyn
iyuh
iyuq
iyux
izetbegovic
j
ja
jaber
james
jang
jangkwo
jay
jayryaw
jaysang
je
jeking
jen
jencen
jencyueyn
jenmin
jenming
jetay
jey
jeyking
jeyngseykay
jeynseykay
jeyseykay
ji
jiday
jidayi
jikang
jikeyng
jima
jimmy
jin
jinay
jinaysiyan
jing
jinjya
jinping
jiru
jitay
jiyagan
jiyan
jiyax
jiyi
jiyu
jiyun
jiyung
jjiyun
jn
jnaysyang
jncweyn
jncyu
jncyun
jnko
jnmin
jnmincyun
jnming
jnrey
jntaw
jnwu
jnyueyn
john
johnson
joho
joku
jong
jongyu
jonis
jordan
joro
jose
joseph
jotay
jovenel
jpg
jsp
ju
juan
juarman
juba
jucya
jueyteyn
juga
jun
jung
jupaw
jwan
jwesu
jwey
jweysu
jweyswey
jweysweysyang
jweyteyn
jweytyeyn
jwi
jwo
jyu
jyueynming
jyujika
k
ka
kaalang
kaar
kabange
kabaran
kabila
kabore
kacideynsyo
kacing
kadi
kaduna
kafe
kafey
kagame
kagi
kahuy
kahwe
kai
kaigi
kaiko
kaiyana
kaji
kaka
kaljulaid
kamoku
kan
kana
kanada
kanata
kandang
kang
kanggo
kangki
kangko
kangkwo
kangqow
kangyi
kanko
kanna
kano
kanran
kantaw
kanteyng
kapanan
kapira
kara
karac
karag
karang
karapai
karat
kareyngko
kari
karic
karingku
karux
kasi
kasucu
kasuga
kata
katmantu
katu
katur
kavalan
kaw
kawa
kawabata
kawas
kawci
kawcong
kawcyaso
kawcyaswo
kawku
kawmen
kawsacu
kawsu
kawsukonglu
kawsukongru
kawsyung
kawsyungsu
kawti
kawtng
kawtung
kawyen
kawyueyn
kay
kaya
kaydang
kaygi
kayhwa
kayhwacong
kaying
kayke
kayko
kayrte
kayrwo
kaytang
kayu
kayyana
kazakh
kazakhstan
kb
kbaka
kbberih
kbekui
kbekuy
kbeyax
kbhug
kbiyax
kbkuy
kblux
kbsiyaq
kbuhu
kbuhug
kbukuy
kbusan
kbusuran
kci
kcka
kda
kdang
kddiyax
kdere
kdhaan
kdjiyax
kdkilan
kdusan
ke
kebalan
keci
keegu
keelgan
keelih
keeman
kegaku
keguy
kei
keke
kela
keming
ken
keng
kenri
kensat
kenu
kenya
kenyatta
kepute
keri
kersti
kerung
kerunpiya
kesa
kesacu
kesan
kesi
kesn
kessiyaw
kesun
kete
keu
key
keyjay
keyjayswey
keyjayti
keykaku
keyng
keyngkyo
keyngkyoso
keyngpo
keyngri
keyngsa
keysacu
keyun
keyword
kg
kgayaw
kgelu
kghak
kha
khaimah
khalifa
khama
khbaraw
khilang
khnu
khrinas
khuni
ki
kia
kida
kido
kiev
kii
kiisug
kika
kikay
kikayi
kin
kina
kinal
kineyng
king
kingal
kingan
kingdom
kingl
kingpay
kinngan
kipu
kir
kiray
kiristo
kiristokyo
kisa
kisiya
kisya
kiwaan
kiya
kiyaka
kiyami
kiyi
kiyig
kiyokai
kiyokay
kjiyax
kkana
kkarac
kkari
kkawas
kkbiyax
kkdesun
kkingal
kkiyig
kkklangan
kkla
kklaan
kklahan
kklawa
kklayi
kklegan
kklgan
kkluwanan
kklwaan
kkmalu
kkngkawas
kknkawas
kkpahun
kkrahan
kkrana
kksa
kksaan
kkuudus
kkyi
kl
kla
klaalang
klaali
klaan
klaban
klabuy
klai
klalay
klangan
klaun
klawa
klaway
klayi
klbangan
klbiyun
klealang
kleegan
kleelug
kleeluw
klegan
klelu
klgan
kliyuc
kllabang
klmukan
klualang
kluwan
kluwanan
klwaan
klwaang
klwan
klwanan
klwaun
klwoaysiya
km
kmalu
kman
kmarang
kmaraw
kmari
kmarig
kmbarux
kmbgurah
kmbiyax
kmbragan
kmburah
kmburux
kmciyuk
kmdudul
kmeaguh
kmeeki
kmepah
kmetuy
kmeuruy
kmgaaw
kmguaw
kmhalan
kmhalang
kmhbragan
kming
kmingtang
kmkan
kmkuh
kmlahan
kmlawa
kmo
kmpah
kmpraan
kmpriyux
kmrahan
kmremux
kmrmux
kmrut
kmsiyuk
kmtuy
kmurahan
kmuruy
kmusa
kmxalan
kn
knai
knama
knan
knbahalo
knbaka
knbaraw
knbarux
knbbaraw
knbbaro
knbeyhing
knbeyki
knbeyring
knbgrahan
knbgurah
knbiyax
knbkiyan
knblawan
knbowqax
knbragan
knbrawan
knbrexan
knbrxan
knbsiyaq
knbsyaqan
knbtunux
knburah
knburux
knbyaxan
kncilux
knciway
knciya
knciyan
knciyug
knciyuk
kncyukan
kndadah
kndadax
kndah
kndakar
kndakil
kndalah
kndalax
kndamac
kndarah
knddun
kndesan
kndisan
kndkilan
kndkilang
kndnguwan
kndrumuc
kndsan
kndudul
kndudun
kndungus
kndusan
kndux
kndxan
kndxgal
kneegu
knegu
kneinu
knesa
kneudus
kng
kngahu
kngeheti
kngheti
kngkarac
kngkawa
kngkawan
kngkawas
kngkingal
kngkkarac
kngkkawas
kngkla
kngkwasan
knglahang
knglangan
knglhangan
knguheti
kngurahan
kngyeyn
knhbalo
knhbaraw
knhbragan
knhbrawan
knhmuc
knhuriq
knhuway
knibu
knii
knita
knjisan
knkan
knkana
knkarac
knkawas
knkaws
knkela
knkingal
knkingan
knkkarac
knkkawas
knkkingal
knkla
knklaan
knklanan
knklangan
knklegan
knklgan
knkrana
knkranan
knkrayan
knkwas
knkwasan
knlaban
knlabang
knlahangan
knlala
knlangal
knlangan
knlawa
knlbanga
knlbangan
knlgan
knlhangan
knlibu
knllabang
knllu
knluwanan
knlwaan
knlwanan
knmalu
knnrmux
knou
knpahan
knpalu
knparu
knpraan
knpriyu
knpriyuh
knpriyux
knpruwan
knpryuxan
knrahangan
knrahur
knrana
knrbagan
knrbangan
knrbawan
knrdax
knrinah
knriyan
knrmux
knrmuxan
knrtan
knrudah
knrudan
knruhangan
knsat
knseun
knskuy
knspaux
knsuyang
knsyangan
kntalux
kntaxa
knteetu
knthyaan
kntikuh
kntilux
kntlexan
kntlxan
kntmaan
kntruma
knttu
kntuy
knudus
knuglahang
knuglhangan
knuruh
knuudus
knuwan
knux
knxalan
knxelan
ko
koba
kobu
koci
kocia
kocya
kohwe
koia
kojyo
koka
koko
kokoingkay
kokomin
kokominto
kokong
kolumbia
komayrong
komin
koming
komingco
komingtang
komuing
komung
koncantan
koncu
kong
kongcan
kongcantan
kongce
kongci
kongciyun
kongcng
kongcong
kongcu
kongcwey
kongcyun
kongfatang
konghe
konghekwo
konghkuo
konghkwo
kongho
konghoko
konghokuo
konghokwo
konghuy
kongkong
kongkwo
kongmin
kongming
kongpaw
kongri
kongru
kongs
kongsang
kongsu
kongtan
kongto
kongtong
kongtongti
kongweyn
kongye
kongyen
kongyey
kongyeyhwa
kongyeyn
kongyi
kongyueyn
konhkwo
konhoko
konli
konmin
konri
konrote
konye
kopi
kopunhakun
korea
kori
koringran
koroaysiya
korona
korunpu
kose
kosi
kosomiar
kosovo
kosutaricya
kosuy
koswey
kou
kow
kowang
koyeyn
koyun
kpahan
kpahun
kparu
kpiya
kpraan
kpriyux
kr
kramay
krana
kri
krig
krimia
krinah
krkari
krmux
krmuxan
krmxan
krnaan
krotang
krpuhan
krtan
kruhangun
krwanun
ksa
ksaan
ksaw
ksiya
kska
kssiyaw
kssiyo
ksukus
ksun
kswowo
ktaan
ktahuy
ktaun
kteetu
ktna
ktrk
ktru
ku
kuan
kuang
kuayci
kuba
kud
kufong
kuhun
kui
kukung
kulaw
kulo
kulu
kuluk
kumay
kumi
kun
kung
kungcing
kungcyun
kunghe
kunghekwo
kungkung
kungkwo
kungmin
kungri
kungru
kungs
kungtow
kungyey
kungyuan
kungyueyn
kuni
kunya
kuo
kuoci
kuociya
kuocya
kuohuwe
kuomin
kuoming
kuotu
kupa
kupaw
kurdistan
kuri
kuriscyang
kurmanpyeyk
kuruk
kurusumasu
kus
kusun
kusuy
kute
kuw
kuwait
kuwan
kuwangpo
kuwatimala
kuwepeko
kuwi
kuxi
kuxul
kuxun
kuyuh
kwa
kwan
kwanfan
kwanfu
kwang
kwangcan
kwangcang
kwangfu
kwangfusyang
kwangpo
kwangsi
kwangtong
kwangwu
kwangyey
kwanhwang
kwankwang
kwanri
kwansan
kwansancn
kwansi
kwanswey
kwantaw
kwanti
kwanyen
kwatimara
kwatimarasu
kwey
kweycung
kweyt
kwo
kwoci
kwocicicang
kwocya
kwocyaw
kwofan
kwofang
kwohuy
kwohwang
kwohwangbu
kwohwangpu
kwohwe
kwohwey
kwoing
kwomin
kwoming
kwori
kwosyey
kwotaw
kwotu
kwou
kwowang
kwowu
kwoxey
kwu
kyapan
kyaw
kyi
kykuyuh
kyo
kyoiku
kyokay
kyosang
kyosangto
kyosanto
kyrcilung
kyrgyazstan
kyu
kyukeya
kyun
kyusanto
kyyayung
kzyay
l
la
laalang
labuwan
lagos
lahaw
lahun
lala
lalang
lalay
lalih
lan
lang
langman
langu
language
lanka
lao
laos
laqi
latin
latvia
laurent
laus
laxan
laxi
laxun
lay
lblak
lbuun
lbuwan
le
leelug
leexan
lekuh
leone
lesotho
leste
lexi
leyn
leynpan
lezier
lhang
lhayan
lhbun
lhengo
lhngaw
lhngay
lhpis
li
liberia
libu
libya
liechtenstein
lien
lietuva
lifa
life
lihan
lihun
lima
limuk
lin
ling
lipas
lipax
liqa
liri
list
lithuania
lituk
litungsan
liwas
lixan
lixun
lkan
lklukus
ll
llaban
llabang
llaqi
llbu
llebu
llingay
llmiqu
llukus
llutuc
lmaban
lmabu
lmala
lmamu
lmaqi
lmaung
lmawa
lmekuh
lmengo
lmglug
lmihu
lmiku
lmingis
lmiqu
lmiwaq
lmlamu
lmlu
lmlung
lmngelun
lmngelung
lmnglung
lmubug
lmukas
lmutuc
lmutut
lmuun
lnbuan
lngan
lnghangan
lnglingay
lnglung
lnglungan
lnglungun
lnguwan
lnlamu
lnlingay
lnlnngan
lnlungan
lnmuan
lntudan
lntulan
lnutuc
lo
london
los
louise
lowsing
lqeling
lqian
lqlaqi
lqling
ltlutuc
ltu
lu
lualang
luan
lubu
lubug
lubuy
ludux
luhay
luis
lukus
lumak
lumau
lun
lung
lungu
luomaniya
lupung
luqah
luqi
luqih
lutuc
lutut
luwan
lux
luxembourg
lwan
lwanan
lwaqan
lwaqun
lwo
lwoma
lwomaniya
lxan
lxanan
lxayan
lxi
lyaw
lyeyngpang
lyeynhkwo
lyeynpan
m
ma
maa
maakingal
maalang
maanaqih
maangal
maangan
maanu
maasu
mabang
macar
macau
macedonia
maci
macitun
macu
macyasyang
madagascar
madagasikara
madas
madis
maduk
maha
mahan
mahu
mahun
main
majia
maka
makataw
makedon
mako
makorito
makosu
makotaay
maku
mala
malah
malan
malawi
malax
malay
malaysia
malayya
maldives
male
malepa
mali
malix
malta
malu
malun
malux
mami
man
mana
manakwa
manas
mang
manga
mangacun
mangal
mangan
mangari
manku
mannitopa
manu
manuel
maori
mapa
maps
marah
marai
maran
maray
maraysiya
marc
marepa
margrethe
margvelashvili
mari
maria
maribasi
marie
marig
marikowan
marino
mario
mariya
marosan
marta
marti
martial
martifu
maru
marung
maruy
mary
maryocya
masawa
maseejiq
masisi
maskte
maspac
maspat
masu
masug
masum
matan
matangki
mataru
matas
matay
mati
matis
matora
mattarella
matteo
maturo
maurice
mauricio
mauritania
mauyi
maw
mawan
mawi
mawo
mawri
mawring
mawritaniya
mawyi
maxal
may
maya
mayaw
maybalay
maycya
mayl
maynamay
mbabaw
mbahang
mbanah
mbarah
mbari
mbaruy
mbasogo
mbasogon
mbbaraw
mbbari
mbbaruy
mbbiyax
mbbuyu
mbege
mberiq
mbeyax
mbhege
mbhuway
mbiyax
mblayaq
mbrnux
mbruwa
mbsuring
mbtunux
mbukung
mburux
mbutun
mcayis
mcays
mcbu
mccbu
mccebu
mcebu
mchaya
mchdil
mcherus
mchiya
mcilux
mcpecu
mcucebu
mdakar
mdakil
mdakin
mdayaw
mdayo
mddaha
mddahur
mddayak
mddayaw
mddayo
mddeka
mddengu
mddha
mddka
mddngu
mdeka
mdengu
mdheriq
mdhu
mdhug
mdka
mdkrang
mdngu
mdoi
mdooda
mdrumuc
mdrumut
mdudeka
mdudug
mdudul
mdukuricu
mdungus
mduuy
mdxral
me
meangal
meapa
meco
medina
meekan
meelih
meeniq
meepah
meerih
meeru
meeyah
mege
mehebu
mehedu
mehu
meiyah
mekan
mekaran
mekarang
meko
mekuo
melukux
melux
men
menag
menaq
meniq
menten
mesa
meta
metapay
metaq
meti
meuda
meudus
meuxul
meuxun
meuyas
mexico
mey
meyah
meycin
meyco
meycow
meydan
meydang
meyen
meykong
meykwe
meykwo
meyngkyo
meysa
meysiya
meysu
meyta
meytaq
meyti
meyyen
meyyuan
meyyueyn
mg
mgaaw
mgay
mgaya
mgbhege
mgceyas
mgdalih
mgedang
mgeegul
mgeela
mgeriq
mggaluk
mggarang
mggimax
mggtgut
mghiyi
mgimax
mgkala
mgluk
mgmlux
mgnetun
mgpajiq
mgqhuni
mgquri
mgrbu
mgrebu
mgrig
mgriq
mgsama
mgsupi
mgtanah
mgtgut
mguegun
mha
mhada
mhaduc
mhapuy
mhaqun
mhbu
mhdu
mhebu
mhedu
mhemuc
mhenuk
mheyu
mhhur
mhhuriq
mhiti
mhiyang
mhiyi
mhiyu
mhiyug
mhjil
mhmuc
mhnang
mhnuk
mhraw
mhrinas
mhru
mhtur
mhulis
mhuma
mhungun
mhuni
mhuqil
mhuqin
mhurah
mhuriq
mhuway
mi
michael
michel
michelle
micrayim
micronesia
micu
midan
mido
migin
miicu
miing
miisug
miklwonisiya
milos
mimah
min
minc
mincu
mincutan
mincutang
mincweyn
mincyeyn
ming
mingcu
mingcutang
minggi
mingko
mingkuku
mingkwo
mingri
mingru
mingsen
mingsuko
miniq
minjoku
minko
minkoku
minkwo
minq
minsu
minsweyn
minsyang
mintyaw
minus
minute
mipix
miran
miri
miric
mirik
miriq
miru
miruku
mis
misan
misu
misucang
mita
mitaq
mitu
mitur
miya
miyah
miyamay
miyan
miyaw
miyawri
miyax
miying
miyuk
mjiras
mk
mkala
mkan
mkarac
mkaraw
mkbaraw
mkbrnux
mkcka
mkdaha
mkdgiyaq
mkdha
mkdka
mkedin
mkeekan
mkeiyax
mkela
mkere
mkgarang
mkghak
mkgsilung
mkingal
mkiyig
mkkarang
mkkesa
mkksa
mkla
mklawa
mkleelug
mklelu
mklihang
mklmiqu
mkmalu
mkmangal
mkmaxal
mkmkan
mkmuxul
mknahuy
mknedux
mkngahu
mknhuway
mkobu
mkpiya
mkrana
mkray
mkrbuk
mkrhak
mkri
mksa
mksipaw
mksiyaw
mktatak
mkteru
mku
mkug
mkuri
mkuy
ml
mlabu
mlana
mlatac
mlatat
mlawa
mleyh
mlglug
mli
mlih
mllamu
mllbu
mllutuc
mllutut
mlngu
mltu
mluk
mlukus
mlutuc
mlutut
mm
mmaangal
mmaanu
mmaha
mmahan
mmahun
mmaku
mmhemuc
mmisan
mmiyak
mmkay
mmowsa
mmqedil
mmsepa
mmsepac
mmteru
mmusa
mn
mnadas
mnan
mnangal
mnangan
mnara
mnari
mnarux
mnatas
mnatis
mnbasi
mnbiyax
mncahaya
mncbiyaw
mnccbu
mnccebu
mnchaya
mncun
mnda
mndaha
mnddengu
mndha
mndudul
mndungus
mnduwa
mndxral
mneegu
mneeniq
mnegay
mnegu
mnekan
mneniq
mnetur
mneudus
mneyah
mng
mngal
mngangah
mngari
mngaya
mngihun
mngri
mnhdu
mnhiyug
mnhru
mnhtu
mnhuma
mnhuqil
mnihur
mnimah
mningkoku
mniq
mniqan
mniyah
mnkala
mnkan
mnkdalax
mnkingal
mnkla
mnkuung
mnlala
mnlutuc
mnmtilux
mnneniq
mnnetherlands
mnngalan
mnniq
mnniqan
mnoda
mnosa
mnou
mnqnlhangan
mnrdang
mnrmux
mnrmuxan
mnrngaw
mnsa
mnsngari
mnsupu
mnsuwil
mnswayi
mntehan
mntena
mntenag
mnteru
mntexal
mntmay
mntna
mntu
mntucing
mntuhuy
mntumal
mntuting
mntutuy
mntxal
mntxan
mnuda
mnudus
mnugaya
mnunuh
mnusa
mnuuyas
mnuyas
mnwaya
mnyahan
mo
moar
mociyatisiyo
moda
mohamed
moi
moka
mokurihan
moldova
mona
monaco
monak
monetary
mong
mongcyara
mongcyun
mongku
mongkukwo
mongkwo
mooda
mopux
morales
moralesi
moraweya
moris
morocco
moroko
mortaweyya
mortwowa
morwoke
mosa
mosanpiqe
mosik
mosiko
moske
mosuko
mowda
mowic
mowsa
moya
mozambique
mpajiq
mpatas
mpbari
mpbatas
mpbukung
mpcaping
mpdayaw
mpdehuk
mpdhuq
mpdkuh
mpdudul
mpgeriq
mpgimax
mphepah
mpheyu
mphing
mpitu
mpkrana
mplutuc
mpmisan
mpneyah
mpniq
mppais
mppluk
mpprengo
mpprngaw
mpqlahang
mpqpah
mprading
mprbagan
mprengo
mprigo
mpririh
mpriwaw
mpriyux
mpsalu
mpsan
mpsboru
mpseyngkyo
mpsruwa
mptabu
mptalang
mptgesa
mptpatis
mptumal
mptusa
mpusan
mpusu
mpuuyas
mpuyas
mqalux
mqaras
mqbling
mqbulic
mqdgiyaq
mqdunuq
mqedil
mqedin
mqeepah
mqiri
mqita
mqlahang
mqliyang
mqluli
mqnaqah
mqpah
mqqaras
mqqdgiyaq
mqqita
mqquri
mqraqil
mqri
mqrinuc
mqriqu
mqsuqi
mquri
mquru
mraban
mrahul
mrana
mrata
mray
mrbu
mrdang
mreemux
mreeru
mremux
mrengo
mrhug
mridil
mrigaw
mrih
mrima
mrimal
mriman
mrimax
mriq
mriqi
mriqu
mririh
mrmun
mrmurak
mrmux
mrmuxan
mrqwang
mrrana
mrrimax
mrriyux
mrrudu
mrtifu
mrudu
mrunu
mrusaw
ms
msa
msaang
msaas
msadu
msalu
msama
msang
msangay
msange
msaping
msapuh
msbalay
msbale
msbgihur
msblaiq
msblayaq
msbreenux
msbrnux
msbukuy
msdalih
msdaling
msdangi
msderux
msdhiyaq
msdhriq
msdhug
msdka
msdrux
msdungus
msdurux
mseasug
mseayus
msediq
msekuy
msetuq
mseupu
mseusa
mseyang
msgaaw
msgasig
msgasut
mshjil
mshrus
msibus
msinaw
msipaw
mskari
mskaya
mskingal
mskiyig
mskkiyig
mskluwi
mskuy
msleexan
mslikaw
mslupung
mslutuc
mslutut
mslxan
msnegul
msngali
msngari
msnul
msobay
mspac
mspais
mspat
mspatul
mspuniq
msputing
msqapah
msqar
msquri
msriqu
msriyux
msseli
mssibus
mssipaw
mssipo
mssiyaw
mssiyo
mssli
mssriyux
mssruwa
mssu
mstabuy
mstbon
msterung
mstheya
msthiyaq
mstrun
mstrung
msttu
mstuq
msturung
msuayus
msunu
msupu
msurin
msusa
msuupu
msuwil
mswayay
mswaye
mswayi
mt
mtaayus
mtabu
mtabug
mtahu
mtakur
mtalux
mtanah
mtapaq
mtaqi
mtaril
mtasaw
mtaxa
mtayus
mtbalay
mtbale
mtbasi
mtbbrih
mtbiyax
mtblayaq
mtbukuy
mtburux
mtdaha
mtdha
mtdiyal
mtdka
mtduwa
mtena
mtengi
mterun
mtgarang
mtgjiyal
mtgsa
mtgutu
mthdil
mtheruy
mtheya
mtheyaq
mthiti
mtilux
mtlawa
mtlibu
mtltu
mtluhe
mtlutuc
mtlutut
mtmay
mtna
mtneuda
mtngari
mtngi
mtnuayus
mtqiri
mtqita
mtrajing
mtrana
mtrawah
mtru
mtrul
mtruma
mttilux
mttuku
mtu
mtuayus
mtucing
mtudu
mtuhuy
mtukiri
mtuku
mtumal
mtumun
mtunux
mtur
mtura
mtuting
mtutuy
mu
mubung
muda
mudu
muduh
mudus
mugi
muhanmot
muhanmote
muhing
muhu
mukan
mukapi
mulatu
mumal
mumuyama
mun
munan
mundus
mung
mungtefeyar
mungteneykerwo
muri
muriq
murisaka
mursi
muru
muruc
murug
murung
murux
musa
muslim
musrin
musring
musu
musurin
musuring
musya
mutan
mutansyang
mutharika
mutung
muuda
muudus
muuxun
muuyas
muway
muwaya
muxi
muxul
muxun
muyak
muyas
muyu
mwaya
myanmar
myaw
myawri
myawriseyn
myeyn
myweb
n
na
naa
naban
nabu
nacional
nacwey
nadas
nade
nadis
nag
nah
nahari
naka
nakah
nakahara
nalang
nalux
nam
nama
name
nami
namibia
namipiya
namu
nan
nana
nanag
nanak
nanaq
nanaw
nanawsaytiya
nanawsyang
nancawagsyang
nancing
nancwang
nancwey
nanfey
nang
nangal
nangan
nangslafu
nanhan
nanhay
nanhu
nanhwe
nani
nanmeco
nanmeyco
nanmeycow
nanse
nansi
nanslafu
nansrafu
nansrahu
nansudan
nansulafu
nansurafu
nansurahu
nantaw
nanto
nantosen
nantou
nantowseyn
nanya
napa
napatay
naporun
naq
naqah
naqan
naqih
narac
narat
naro
naru
naruwo
narux
nasi
nasug
naswe
nataw
national
nations
nato
nauru
naw
nawaf
nawco
nawi
nayciriya
naymipiya
nayro
nayrobi
nbabaw
nbaqu
nbuyas
ncbeyo
ncbiyaw
nceko
ncenpucay
nchez
ndaan
ndame
ndan
ndanan
ndesan
ndez
ndheya
ndhiya
nduhan
nduray
nduuy
nduwa
nduyung
ndwanan
ne
nealang
neepah
negaaw
neko
nemu
nen
nengalan
nengyeyn
nepal
net
netherlands
netherlans
netun
network
new
ney
neycng
neydang
neyke
neyko
neykoku
neylu
neyn
neyntay
neyru
nfakuo
nfakwo
ng
nga
ngahan
ngahu
ngalan
ngalang
ngali
ngalun
ngalung
ngan
ngangac
nganguc
ngangut
ngaran
ngay
ngaya
ngayal
ngayan
ngayngay
ngengalan
ngerac
ngiraw
ngiro
ngiyaw
nglan
ngngalan
ngngalang
ngngalun
ngsan
ngucun
ngudus
nguema
ngungalan
ngungalun
ngungu
nhana
nhapuy
nhari
nhdaan
nhdan
nhdanan
nhdu
nhiya
nhmuk
nhoran
nhqilan
nhuma
nhwakwo
ni
nica
nicolas
nicyarakwa
nieto
niger
nigeria
nihon
nihong
nihung
nii
niinisto
niiwe
niju
nikan
nikn
nikura
nimanya
nin
nina
ning
ningkwo
ningpu
nini
nipoar
nipor
niqa
niqal
niqan
niqn
niqul
niqun
nirih
niro
nirwohe
nirwoheku
nisu
nitari
niwang
niya
niyi
nizu
njwesu
nkana
nkanada
nkangkwo
nkari
nkiya
nklaan
nklwaan
nkurunziza
nmahan
nmalan
nmenten
nmongkukwo
nn
nnaku
nnangal
nndaan
nneyq
nngalan
nngyeyn
nnii
nnikan
nniq
nniqa
nniqal
nniqan
nniqn
nniqul
nniqun
nnsgan
nnyusan
no
nobel
nojyo
nomin
nong
nongcanpin
nongcwen
nongri
nongye
nongyey
nonye
north
norway
nos
nou
nowe
npaan
npaqan
npasi
npawcyariya
nporan
nporyo
npotoriko
nputawya
nquri
nraaw
nrao
nrudan
nsaan
nsamoya
nsaypurosu
nsbiyaw
nsediq
nseediq
nseejiq
nsehu
nsgan
nsipanya
nsira
nsiriya
nsung
nsurinan
nsyongyari
ntanmay
ntayal
ntayalcu
ntaykwo
ntoda
ntokwo
ntomingnicya
ntruku
ntumal
nu
nualang
nuarsutan
nuda
nudaan
nuinu
nun
nung
nungalan
nungyey
nunuh
nunyen
nuqah
nuqih
nusa
nux
nuysan
nworu
nwouey
nxan
nyahan
nyaw
nyey
nyocineya
nyoklayci
nyosiran
nyowsiran
nyoye
nyupan
nyusan
nyusang
o
obiang
ocbek
ociya
oco
ocow
ocya
oda
of
ois
ojwomung
ok
oku
okwo
olympic
oman
omar
omon
omong
on
ooda
oosa
opama
or
org
oricuyya
oriental
orimpik
orimpiko
orinpiko
orlando
oro
orosiya
orosu
osa
osh
otobay
otuman
ou
ouattara
ould
outlook
ow
owco
owcow
owmong
owmung
owyen
owyueyn
oya
oyeyn
p
pa
paah
paalix
paan
paanun
paapa
paarkan
paasu
pabeyto
pacang
pacing
pacistan
pacisutan
paciyev
paciyeyhu
pacyariya
pada
pae
paga
paha
pahakari
pahayi
pahing
pahung
pai
pais
paiwan
pajiq
pakaw
pakistan
pako
pakta
pakwari
pala
palax
palestine
palic
palix
palu
pan
panama
panan
panci
pancyo
pang
pangcah
pangcyaw
pangcyo
pantaw
pantu
panun
papa
papak
papua
paputa
papuya
papuyanyocineya
paqan
paqun
paraguay
parakoar
parakwey
paramaripo
paran
paras
parestan
pari
parih
parin
paring
paris
parkan
partai
partido
party
paru
pas
pasi
pasu
patan
patas
pataw
patis
patrice
patsan
paul
paw
pawan
pawcang
pawcu
pawcyaliya
pawcyariya
pawsen
pawsotang
pawsyeyn
pay
paya
payay
paycanting
paye
payi
payis
payko
paymudacungdaw
payorosu
paysan
paywan
paywang
pbari
pbatas
pcahu
pcaping
pcbuwan
pccbu
pchuwan
pckaan
pcpingan
pcriyu
pdaan
pdagit
pdai
pdanan
pdaun
pdayaw
pdayi
pdayo
pddayak
pddayaw
pdehuk
pdf
pdhuq
pdkanan
pdkanun
pdkaun
pdsun
pdudu
pdudug
pdudul
pdungus
pduuy
pe
peangal
peapa
pecin
pedu
peekan
peeniq
peeyah
peheyu
peiyah
peme
pemeco
pen
pena
peni
peow
perin
perisu
pertuan
peru
pesaypurosu
pesu
peter
peuda
pewe
pey
peyci
peycing
peydang
peye
peykang
peykangsi
peyn
peynan
peynansyang
peypu
peyris
peytasiyang
peytayr
peywey
peyyah
peyyey
peyyi
peyyuey
pgaau
pgaaw
pgagu
pgarang
pgau
pgaya
pgayaw
pgeegul
pgeeluk
pggaluk
pgkela
pgkere
pgkla
pgklaan
pgluban
pgriq
pgriqi
pgtena
pgu
pha
phd
phdagan
phdagun
phdeyngki
phepah
pheyu
philip
philippines
phiyu
phiyug
phiyun
phmaan
phmaun
phmuk
phnan
phnang
phngi
phngun
phonetics
php
phpah
phpure
phqilan
phqilun
phrenang
phrinas
phuling
phuma
phumaan
phuqil
phyegan
phyegun
phyugan
phyugun
phyuwan
pi
pida
pierre
pihu
pila
pin
pinfan
pinfankonri
ping
pingcing
pingcya
pinghwang
pingjang
pingpu
pingpuwa
pingtaw
pingtu
pingtung
pingyueyn
pinhay
pinhwang
piri
piris
pirisu
pisaw
pisor
pixan
pixil
piya
piyah
piyasan
piyawai
piyaway
pkbgurah
pkbiyax
pkburux
pkcaan
pkdakil
pkdhu
pkdkilan
pkepah
pkixan
pkixun
pkiyux
pkkla
pkla
pklahan
pklaun
pklawa
pklu
pklug
pklwaan
pkmalu
pkmlih
pkmurux
pknarux
pkngatun
pkrahan
pkrana
pkranan
pkriyux
pkrnaun
pkurahan
pkuuka
plaale
placename
pladin
plalay
plale
plaxan
plaxun
plealay
plixan
plixun
plka
plkusan
plkusun
pllayun
pllutuc
plmukan
plngagan
plngawan
plpingan
pluban
plukus
plutuc
plutut
plux
plwanan
pmblxan
pmurux
pn
pnaah
pnagan
pnaha
pnatas
pnatis
pncbuwan
pnchuwan
pncingan
pnckaan
pnckulan
pndaan
pndka
pndkanan
pndkilan
pndungus
pneeyah
pnegalang
pnegarang
pnegdxgal
pnegkla
pnegklaan
pnegluban
pneiyah
pnerngagan
pneyah
pneysa
pneyyah
pngaaw
pngahan
pngalan
pngaya
pngerah
pngluban
pnglux
pngpung
pnhangan
pnheyu
pnhgalang
pnhiyu
pnhiyug
pnhiyugan
pnhmaan
pnhmanan
pnhqilan
pnhuma
pnhumaan
pnhuqil
pnhuyegan
pnhyegan
pnhyugan
pnhyuwan
pniq
pniqan
pniqi
pniqun
pniri
pniyah
pnkari
pnkburux
pnkingal
pnkixan
pnkla
pnklaan
pnklan
pnklanan
pnkraman
pnkrana
pnkranan
pnkriyux
pnlalay
pnlaq
pnlawa
pnlealay
pnlhulan
pnlngu
pnluban
pnlutuc
pnluwan
pnnatas
pnngalan
pnoda
pnooda
pnpanan
pnpatas
pnpwalang
pnqita
pnqlhangan
pnquri
pnrajing
pnrdingan
pnrhulan
pnrmaxan
pnrngagan
pnrngawan
pnryuhan
pnryuxan
pnsaan
pnsaking
pnsdhgan
pnsdhu
pnsdhug
pnsdhuwan
pnsdkanan
pnseanak
pnseengan
pnseusa
pnsgao
pnsiran
pnskarat
pnskraya
pnslian
pnsliyan
pnsltudan
pnslutuc
pnsnakan
pnspais
pnspngan
pnspuan
pnspuwan
pnsrmalan
pnsrurul
pnssliyan
pnstiyu
pnstrngan
pnsugan
pnsung
pnsuwan
pnswayan
pntalang
pntasan
pntaw
pntbale
pntbkuwan
pnteetu
pntena
pntheruy
pntingan
pntlhayan
pntna
pntnaun
pntrian
pntriyan
pnttingan
pntuting
pntyusan
pnuda
pnugaya
pnugeela
pnuglaan
pnugluban
pnurug
pnusa
pnwalang
pnway
pnwaya
pnyahan
pnyasan
po
poarto
pocana
pocwey
poda
poho
poland
polska
ponaway
pong
pongcang
poni
pooda
popoar
population
poran
porin
porinisiya
porisariaw
poriwa
poriweya
poro
porotihay
port
portugal
porwotihay
poryo
pos
posa
posimiya
posniya
posu
posuniya
posuwan
poswan
potoriko
poukwan
pour
pow
powda
powsa
powukwan
poxun
ppaan
ppaha
ppais
ppana
ppanan
ppangal
ppangan
ppanun
pparu
ppatas
ppatis
ppaun
ppeyyah
ppheyu
pphiyu
pphmaan
pphmaun
pphpah
pphuma
pphuqil
ppkn
pplahan
ppluk
ppngrah
ppnwalang
ppqita
ppqun
pprana
pprengo
ppriyux
pprngagan
pprngaw
pprngawan
ppryuxan
ppsruwa
pptasan
pptasun
ppulah
ppuniq
ppuqan
ppuqun
ppwalang
ppwaluk
ppyaan
ppyahan
ppyahun
ppyasan
pqeepah
pqhedu
pqita
pqlahan
pqlahang
pqlhangan
pqnaqah
pqnaqih
pqpah
pqpahun
pqqita
pqraqil
pqriyun
pqtaan
pqtaun
pquri
pradin
prading
pradiyo
pradu
prajil
prajin
prajing
prana
pratan
prbangan
prdax
prdingan
preca
presidential
press
prhulan
prigo
prihan
prihut
prince
pririh
priyax
priyuh
priyux
priyuxan
priyuxun
prjingan
prmaxan
prmuxun
prnaan
prngagan
prngagun
prngaw
prngawan
program
programme
province
prparu
prrudu
pruun
pruway
pryaxan
pryuhun
pryuxan
pryuxi
pryuxun
psaan
psaanak
psai
psalu
psanak
psangay
psaniq
psaping
psapuh
psasu
psaun
psaw
psbalay
psbale
psbgurah
psbiyax
psblaiq
psblayaq
psbu
psdaran
psdehu
psdhu
psdhug
psdhun
psdhuwan
psdka
psdkanan
psdkanun
psdkaun
pseanak
pseega
pseengun
psetuq
pseupu
pseyga
psgaaw
psgagun
psgao
pshdug
pshnang
pshnuk
pshuya
psiling
psipaq
psisil
pska
pskadi
pskari
pskbiyax
pskingal
pskngalan
pskuan
pskuraw
psli
pslian
pslingan
psliyan
psluhay
pslutuc
pslutut
psmalu
psmiyah
psmiyan
psmyahun
psnagun
psnakan
psnaki
psnakun
psnaqan
psngayan
pspais
psparu
pspaux
pspingan
pspngan
pspoxun
pspruq
pspuan
pspui
pspun
pspung
pspuruq
pspuun
pspuwan
psqama
psrading
psramal
psraman
psru
psrurul
psruwa
psrwai
psrwaun
pssengan
psseung
pssiling
pssli
psslian
pssliyan
pstalang
pstotuy
pstrngan
pstrngun
pstrung
pstuq
pstutuy
psu
psugun
psumu
psupu
psuupu
psuwan
pswau
pswayan
pswayay
pswiwil
ptaayus
ptalang
ptalax
ptasan
ptasir
ptasun
ptbale
ptburux
pteetu
pteura
pthangan
pthangun
pthnganun
pthuun
ptlhayan
ptmay
ptngahan
ptpatas
ptraqil
ptrawah
ptreybi
ptrima
pttuku
ptuayus
ptungan
ptura
ptuting
ptutuy
ptyusan
pu
puar
publique
puca
pucang
pucinafaso
pucinahwaso
pucing
pucu
puda
puerto
puhuk
pulan
pumen
pumn
pumun
pun
pung
pungu
puniq
puniri
punu
pupu
puqan
puqun
purako
pure
pureten
puri
puricrun
purinsipi
purinsipitaw
puristina
purongti
puru
puruc
purusayr
purusu
purut
pusa
pusi
pusu
pusucineyya
putan
putaw
putawya
putin
puting
puto
putong
putting
putuh
putung
putwe
putwey
puuda
puwa
puyuma
pwakyaw
pwaluk
pwaya
pwla
pwocayyey
pxal
pyaan
pyahan
pyahun
pyasa
pyasan
pyasun
pyaw
pyawpo
pyu
q
qa
qabang
qalang
qalu
qalux
qan
qantabang
qapal
qapan
qapi
qaqay
qaraw
qarux
qatar
qatara
qawqaw
qaya
qbahang
qbhangan
qbhangun
qbheni
qbhni
qbsiyaq
qbsran
qbsuran
qbubul
qbubur
qbulic
qbulit
qcahur
qcilus
qcinuh
qcurux
qdhuq
qdriqan
qdrux
qduda
qduriq
qduun
qduwan
qe
qeting
qeycing
qhdin
qhduun
qheding
qhini
qhjil
qhjing
qhlangan
qhuni
qita
qlahang
qlahi
qlangan
qlhangan
qlhangi
qlhangun
qliwaq
qlliyan
qlqahan
qlubung
qluli
qluluy
qlupas
qmada
qmamas
qmangaw
qmatar
qmbahang
qmburang
qmeepah
qmerac
qmiri
qmita
qmlahan
qmlahang
qmleqah
qmnita
qmnlahang
qmnpah
qmnuqih
qmpah
qmpahan
qmpringan
qmqah
qmqur
qmraq
qmsiya
qmuru
qmuyux
qnabil
qnagan
qnalang
qnapang
qnaqih
qnaras
qnawal
qnawan
qnay
qnbhangan
qnbliqan
qnbowqax
qnbsiyaq
qnbsyaqan
qnburang
qndahang
qndhuq
qndisan
qndriqan
qnduriq
qnedis
qnepah
qngqaya
qnhlangan
qnita
qnjisan
qnlahang
qnlangan
qnlhanga
qnlhangan
qnlian
qnliyan
qnlqilan
qnluli
qnmasan
qnnaqah
qnpah
qnpahan
qnpringan
qnpruhan
qnqan
qnqaya
qnqihan
qnquran
qnquwan
qnragan
qnrapan
qnrinuc
qnrqilan
qntaan
qnthran
qnthuran
qnuqu
qnuyux
qnyexan
qnyuxan
qolic
qoran
qowgan
qowlic
qowqaw
qoyaw
qpah
qpahan
qpahun
qpras
qpringan
qpruhan
qpuring
qpuruh
qqahan
qqaras
qqaya
qqbheni
qqbhni
qqcurux
qqduda
qqeepah
qqeya
qqhuni
qqita
qqiya
qqlahang
qqlhangan
qqlhangun
qqmita
qqpah
qqpahan
qqpahun
qqridin
qqsiya
qqsurux
qqtaan
qqtan
qqtaun
qquri
qquyux
qqyexan
qqyuxan
qramay
qrapan
qrapun
qraqil
qrari
qrasan
qrasun
qreti
qridil
qridin
qrijil
qringan
qrinuc
qriyan
qrngul
qrngun
qrpuhan
qrtibun
qrul
qsahur
qsiya
qsiyaq
qsurux
qtaan
qtahi
qtai
qtan
qtanan
qtaun
qtayi
qtehur
qthur
qtinuh
qu
quci
qudung
quhing
quli
qulic
qulit
qulung
qumi
qung
qungcyun
ququ
ququy
quran
quri
quru
qurug
qusiya
quti
quwaq
quwarux
quy
quyu
quyux
qwang
qwangcan
qwarux
qwey
qyqay
qyqaya
qyqeya
qyuqeya
qyuxan
r
ra
rabang
rabi
rabu
rading
radio
rafael
rahaw
rahul
rahuq
rahur
rai
raimonds
rajaonarimampianina
rajing
raka
rakasang
rakaw
raki
rako
rakotoarimanana
ralph
ramus
ran
rana
ranaq
rancyo
rang
rangay
ranyang
ranyusyang
rapate
rapit
rard
ras
rata
rate
rating
ratoweyya
ratu
ratuc
ratwoweyya
rau
raus
raw
rawa
rawkong
rawtong
rawtongri
rawtongtang
ray
rayswoto
rayswotwo
rayung
rayyisyang
rbagan
rbawan
rbnaw
rbngun
rbqan
rbuq
rbuqil
rcilung
rdaan
rdan
rdax
rdrudan
rduan
re
rebu
reconstruction
region
rehak
rehaq
rekisi
remong
remux
ren
renai
renaysyang
rengac
renho
renhoko
renhokuo
renhokwo
renmong
renpan
renpang
rensay
repang
report
repu
republic
reuven
rey
reyj
reyn
reynh
reynhekwo
reynhkwo
reynhtakongkwo
reynmong
reynmung
reynpan
reynpang
rgrig
rgrigan
rhak
rhengun
rhiq
rhngun
rhnuk
ri
ribo
ric
rica
ricah
rico
ricya
rifa
rifafe
rihay
rihwa
rihwahuy
rihwante
rijikay
rikisi
rikong
rima
rin
rinah
ring
ringsu
ringti
ringyu
rinji
rinqwang
rinswanyeyn
rio
ripanen
ripanun
ripiya
ripoing
riqan
riqi
ririh
riryang
ris
risah
risan
risaw
risen
rishwey
rising
riso
risu
risupun
risyeyn
ritaw
ritawwan
riun
river
rivera
rivlin
riwu
riya
riyi
riyo
riyoye
riyu
riyung
rkelic
rklit
rklu
rmaban
rmabang
rmading
rmaka
rmawah
rmbung
rmdax
rmdu
rmengo
rmgrig
rmicuh
rmigaw
rmigo
rmimu
rmingaw
rmirih
rmisuh
rmiwaw
rmiyaw
rmiyax
rmiyux
rmngaw
rmri
rmuba
rmun
rmuxan
rnaaw
rnabaw
rncuhan
rnecux
rnengaw
rngagan
rngagun
rngangun
rngaw
rngawan
rngcan
rngecux
rngiyan
rngiyun
rngji
rngsux
rnisuh
rnngaw
rnrihan
ro
robert
robo
rocang
roch
rodux
roma
roman
romania
romaniya
romu
rong
ropoto
ros
rosu
rotsiya
rouhani
route
row
rowan
rowma
rpun
rqbux
rqda
rqeda
rqenux
rqling
rqngul
rqnux
rrbawan
rrbuq
rrigan
rrigaw
rrihan
rrima
rriqi
rriqu
rrisaw
rriso
rrmiwaw
rrngagun
rrngaw
rru
rrudan
rseejiq
rseno
rsrisaw
rsuhan
ru
ruak
ruan
ruanta
ruba
rubas
rucaw
ruciq
ruco
rucyun
ruda
rudan
rudaw
rudo
rudu
rudux
ruhwan
rui
rukai
rukay
ruku
rulu
rulung
ruma
rumaban
rumiku
rumu
run
runan
rung
rungay
runge
rungeung
runtan
runtun
runu
runug
runun
rupun
rupung
ruru
rus
rusan
rusaw
russia
rusuq
rutiq
rutocong
ruwan
ruway
ruyeysyang
rwaan
rwahan
rwan
rwen
rweri
rwo
rwoanta
rwoma
rwu
ryang
ryaw
ryawkwo
ryawri
ryaxan
ryeyn
ryeynhe
ryeynhekwo
ryeynho
ryeynhoko
ryeynhokwo
ryeynmong
ryeynpang
ryeynsay
ryeytaw
ryo
ryokang
ryoko
ryoniwang
ryosing
ryow
ryowang
ryu
ryuco
ryucow
ryus
ryuxan
ryuxun
ryuyowyey
rz
s
sa
saadux
saan
saang
saangal
sabah
sadu
sahara
sahu
sahug
sahwang
sai
said
saint
saking
sakiraya
sakizaya
sakura
salan
salman
salu
salvador
sama
samac
saman
samarhan
samat
samaw
sami
samo
samoya
samu
san
sana
sanan
sancan
sanci
sancwang
sancyawco
sancyawcow
sang
sangas
sangay
sangcipa
sanggiying
sanghay
sangna
sangpiya
sangsu
sangyey
sanhu
sanhucyaw
sani
sanka
sankio
sankiyo
sanmay
sanmin
sansing
sansu
santi
santimnsyang
santos
santu
sanun
sanwan
sao
sapa
sapah
saping
sapuh
sara
sarajevo
sarawey
sari
sarwatwo
sasan
sasaw
sasi
sasing
sassing
satamu
sato
saudi
sauli
saun
sauti
sautialapo
sautiarapo
saw
sawcyang
sawsu
say
saya
sayan
sayang
sayarweya
sayarweyya
saycu
saying
sayite
sayneciyaar
sayng
saypurosu
sayrweyya
saysiyat
saysyac
sayti
sbari
sbarig
sbaruy
sbatas
sbege
sbetaq
sbeyuk
sbgay
sbgihur
sbhuran
sbiki
sbiq
sbirat
sbiyaw
sblaiq
sblayiq
sblequn
sbliqan
sbliqun
sblxan
sbnawan
sbrahan
sbrahun
sbreenux
sbrigan
sbrigun
sbrinah
sbtun
sbukuy
sburaw
sbuway
sc
scang
scen
sceypey
sci
scotland
scuqi
sdalih
sdalin
sdamac
sdara
sdayaw
sdayo
sdhiyaq
sdhmaun
sdhmawan
sdhriq
sdiqun
sdmhaw
sdseejiq
sdu
sduduy
sduman
sdurun
sdurux
sduuy
sduwi
se
seangal
seapa
search
searweyya
seasug
seci
secyu
sediq
seedal
seedan
seedig
seediq
seejiq
seejiqan
seejiqun
seelih
seeliq
sefu
segak
sehu
sehuey
sehuy
sehwa
sehwe
sehwey
sehweycuyi
seiyah
sejiq
sejiqan
sejiqun
sekiyu
sekuy
sen
senate
sencang
senci
senegal
senfa
seng
senhwa
senkio
senkiyo
seno
senro
sentaw
sepa
sepac
sepag
serbia
seretse
sergio
sero
service
seryaw
ses
sesi
sesu
setan
seting
seuda
seupu
seusa
seuxal
seuxan
sexual
sexwey
sey
seydang
seyen
seyhu
seyi
seyji
seyjicya
seykay
seykaypey
seykey
seykeys
seyki
seykining
seykyo
seymung
seyn
seynfa
seyng
seyngkyo
seynping
seyryo
seysay
seyting
sfa
sgaalu
sgcuqi
sgealu
sgimax
sgnaah
sgpurug
sgsapat
sgun
shangan
sharshenovich
shaya
shiya
shjil
shlayan
shmu
shmuk
shngii
shngiyun
shpure
shtur
shuqil
shushu
shuya
shwa
si
siang
siankan
sibus
sicang
sici
sicinping
sicu
sida
sien
sierra
sifan
sife
sifey
sightseeing
sihwang
siida
siiga
siko
sikotai
sila
silan
silung
simaraya
simuye
sin
sinan
sinaw
sinaypantaw
sinbung
since
sincineya
sinciyapo
sincu
sincungsyang
sincusen
sincuseyn
sincyang
sincyapo
sincyaw
sinew
sing
singapore
singbung
singceng
singcng
singcngcyu
singcngyeyng
singcu
singcun
singcung
singcungci
singcusen
singcusiyen
singcyaw
singkang
sings
singse
singsing
singsu
singtong
singyasu
singyeysu
sinhebulidi
sinica
sinjya
sinkan
sinkang
sino
sinpawey
sinpeysu
sinsi
sinsing
sinsukosiya
sinteyn
sinwangyang
sinyisyang
sio
siow
sipangya
sipanya
sipaw
sipe
sipo
siporiya
sipu
siputifang
siqa
sir
sira
siraya
siriar
sirin
siriya
sirleaf
sisil
sisiritaw
sisu
sita
sitong
situng
siu
siuhay
siwa
siwan
siya
siyac
siyan
siyang
siyat
siyaw
siyayun
siyen
siyeyn
siyo
siyongyari
siyoran
siyu
siyuey
sjiq
sjiqan
sjiqun
ska
skadi
skahing
skanan
skang
skangki
skanki
skari
skaru
skawpiyey
skaya
skbiyax
skdesun
skesik
skeyng
skgulun
skikun
skingal
skiya
skkingal
sklawa
sklwiun
sklwiyun
skmalu
sknexan
sknuwan
sknux
sknxan
skoki
skpahung
skpudung
skrana
skrayan
sksik
skssik
skuan
skulan
skuun
skuwan
skuxul
skuy
skxlun
skyaan
slabu
slagu
slamaw
slang
slaq
slaqi
slavic
slawa
slayan
sleexan
slhayan
slhayun
slhbun
slikaw
slingan
sliq
sliqan
sliqun
sliyan
slluhe
slmeun
slmeyan
slmuun
slmuwan
slovakia
sluan
sluhay
sluhe
slumeun
slutuc
sluun
sluwan
slwofak
slxan
smahug
smalu
smangus
smapaw
smapuh
smatang
smbarig
smbbarig
smbrangan
smbu
smcudu
smdalih
smdaling
smdayak
smdhu
smdiyan
smeeliq
smeisug
smeku
smen
smepu
smeun
smhiyi
smhulis
smiicu
smiisug
smikul
smiling
sminaw
smino
smipaq
smisu
smisug
smiyan
smiyuk
smiyus
smka
smkagul
smkaul
smkaun
smkesik
smkila
smkrig
smku
smkul
smkuxul
smkuxun
smlaan
smliq
smluhay
smluhe
smlun
smluun
smluwa
smluwan
smmalu
smnalu
smneeru
smnegul
smnegun
smneru
smnetun
smnetur
smnlaan
smnlanan
smnluwan
smnnetur
smnru
smntuku
smnul
smparu
smpi
smpu
smpug
smpung
smpusal
smpusu
smqaras
smqic
smquri
smrading
smriq
smriyu
smriyux
smruwa
smsamat
smseman
smsik
smsung
smtali
smtama
smtangan
smtrung
smtuku
smturung
smudal
smudan
smulu
smumaru
smunegun
smurus
smwayay
sn
snadu
snagan
snakan
snakun
snalu
snapaw
snapo
snarux
snaw
snbalay
snbarah
snbari
snbbari
snbburah
snbeyhing
snbhuran
snblayaq
snbliqan
snbrahan
snbrxan
snbu
snbuan
snbuc
snburah
snbut
sncan
sndalan
sndhu
sndhuwan
sndiyal
sndiyan
snduray
sneegul
snegaaw
snegil
snegin
snegul
snegun
sng
sngali
sngari
sngayan
sngayang
sngbu
sngcan
sngcang
sngci
sngcng
snghun
sngkaro
sngkonghuy
sngmarinwo
sngmarinwos
sngmu
sngri
sngtangan
sngtaw
sngtwomey
sngtwomeytaw
sngun
sngwu
snhei
snheyi
snhian
snhii
snhiyan
snhiyi
snhiyun
snhlayan
snhuya
snii
snjiyan
snkagun
snkaul
snkaun
snkgulan
snkkingal
snklwiyan
snkraya
snkrayan
snku
snkuan
snkulan
snkuwan
snkuxul
snlaan
snlayan
snlhayan
snlian
snlingan
snliqan
snliyan
snlmean
snlmeyan
snluan
snluhay
snmalu
snnii
snolun
snpahan
snparu
snpegan
snpeyyah
snpgan
snpngan
snpruwan
snpual
snpuan
snpusal
snpusan
snpuwan
snqaya
snqriyan
snquri
snrading
snrdingan
snriyu
snrnu
snrnuwan
snruan
snruwa
snruwan
snrwaan
snrwanan
snsemun
snslian
snsliyan
snstkuwan
sntagan
sntali
sntama
sntangan
sntaring
sntkeyan
sntkuwan
sntmuwan
sntrngan
sntuku
snturung
snuheyi
snuhiyan
snunux
snuunux
snuwil
snuyuk
so
soar
sobhi
socang
soci
soda
sofe
sofecyi
sofu
sofung
sohu
sohuwe
sohuy
sohwe
sohwecuyi
soka
sokiya
soli
somariya
son
sona
song
soni
sonii
sooda
sosi
sosoto
sosu
sosyan
sosyang
soto
sotohu
sotu
south
soviet
sow
sowfung
sowfungsyang
sowki
soyepamo
sp
spac
spagan
spain
sparu
spat
spatas
spatis
spatul
spaux
spaw
spawda
speeniq
speeyah
spegan
spegi
spegun
speriq
speyyah
spgan
spgeriq
spgun
spheyu
sphuma
spi
spida
spido
spiimah
splawa
spn
spngan
spoda
spooda
spowda
spowxan
spoxan
spoxun
spqita
spqlahang
spqlhangan
sprigo
spriq
spriyux
sprun
spruq
spruun
spruwan
spsapah
spu
spuan
spuda
spuhan
spui
spun
spuun
spuuyas
spuwan
spuwi
spuyas
spwan
sq
sqada
sqama
sqapah
sqeepah
sqeya
sqita
sqitun
sqlahang
sqlalu
sqlhangan
sqmaan
sqmu
sqmusu
sqpah
sqqita
sqraq
sqrasun
squad
squliq
squwaq
sqyaan
sqyuxan
srahu
srakaw
srbija
srbuxan
srengo
sri
srilanka
sring
sriyu
srnabaw
srngaw
srqemu
sru
sruhing
sruwa
sruwaan
sruwaun
srwaan
srwai
srwanan
srwani
srwanun
srwasaw
srwaun
srwoweyniya
ssaan
ssagan
ssalu
ssama
ssamac
ssanan
ssanun
ssapah
ssapuh
ssaun
ssbarig
ssdiq
ssediq
sseediq
sseeliq
ssi
ssibus
ssikun
ssio
ssipaw
ssiyaw
ssiyo
ssjiqan
sska
sskuwan
sslhayan
sslian
sslingan
ssliqan
ssliyan
sslmeyan
ssmalu
ssmlun
ssnaw
ssnhiyan
sspac
sspgan
sspriq
sspu
sspuwan
ssruwa
ssu
ssudu
ssukay
st
stabug
stabuy
stama
stanri
starin
state
states
steetu
steinmeier
stenge
stgesa
stgsa
sthiyaq
sti
stinun
stiyu
stkeyan
stmaan
stman
stmanan
stmaun
stmuwan
stngayan
stngi
stqita
strengan
strima
strngan
strngun
strung
sttu
sttuan
stuq
stusa
su
subway
sucang
suce
sucepe
sucetacan
suci
sucn
suco
sucre
sucu
sucugyo
sucusyang
sucyey
sudan
sudu
suey
sufa
sugan
suguc
sugun
suhatuo
suhwa
suisyunhe
sujyo
sukaw
sukay
suki
suku
sulyeyn
sulyeyng
sume
sumiq
sumuntala
sumyaw
sun
sunan
sunca
sung
sungcan
sunghun
sungmyaw
sunguc
sungut
sunhwa
sunu
suomariran
suomariya
supi
supu
suqi
suqu
sur
surahu
suren
sureyn
suri
surin
suriname
surinan
suring
suriranka
surohwako
suru
suruoweniya
suryeyn
sus
susiyo
susong
susu
susuwe
sutan
sutay
suti
suu
suupu
suwatini
suwe
suweyay
suxal
suxan
suyang
suyanu
suye
suyeri
suyo
svg
swai
swan
swang
swarang
swasal
swasiri
swatan
swayay
swayi
swaziland
swe
sweden
swen
swey
sweyce
sweycya
sweyn
sweyncyu
sweys
sweysan
sweysaryeyn
sweysu
sweywey
sweyweyn
sweyyeyn
swi
switzerland
swo
swos
sya
syakay
syaku
syan
syang
syangcang
syangya
syangyang
syankan
syanox
syaw
syawcu
syaweyi
syawse
syayueyn
syen
syey
syeyhuy
syeyn
syeyncng
syeynfa
syeyntay
syeyntayhwa
syeypay
syeyting
syo
syongyali
syongyari
syonyali
syonyari
syorinsyang
syow
syria
sysiyaw
syu
syuey
syumuyey
syun
syuncang
syung
syunnipay
syuriya
syusan
syuwa
sywo
t
ta
taan
taapa
tabuk
tacan
tacen
taci
tacn
tacya
tacyu
tadaw
tado
tadus
tahan
tahomey
tahu
tahuc
tahuey
tahut
tahwakwan
tahwe
tai
taicukan
taing
taingkwosyey
taipiautafe
taiping
taitung
taiwan
taji
tajik
tajin
tajnsyang
taka
takasagu
takaw
takong
takongko
takongkwo
takwan
takwansan
talax
talon
talu
tama
tamay
tan
tana
tanah
tanax
tang
tangcay
tangcusi
tangcyu
tangku
tangpay
tangweyn
tanmay
tanmiar
tanniar
tansangniya
tansyeyncya
tanwe
tanwey
tanzania
tao
taoyuan
tapa
tapaq
tapung
tari
taris
tarisu
taroko
taru
tarusing
tarux
tas
tase
tasekan
tasen
tasi
tasil
tasiyan
tasiyang
taskwan
tasman
tasu
tasukwan
tatac
tatan
tatey
tatong
tatuk
tatung
tatungsyang
tau
taun
taur
tausyang
taw
tawan
tawang
tawci
tawkwo
tawru
tawsay
tawu
tawyen
tawyensu
tawyeyn
tawyi
tawyu
tawyuan
tawyuensu
tawyun
tawyuncyu
taxa
tay
taya
tayal
tayalcu
tayan
tayang
tayangcow
tayansyang
tayax
taycang
taycu
taycung
taycyu
taycyung
taygo
tayhoku
tayhuk
tayihwey
taying
taykang
taykay
taykong
taykwo
taymari
taymarisyang
taype
taypey
tayping
taypingyang
taypinyang
taypiyaw
taypyaw
tayriku
taysaw
tayti
taytung
taytungsu
tayungsu
tayuring
taywan
taywang
taywusyang
tbabaw
tbaku
tbarah
tbgan
tbiyax
tbkuwan
tblaiq
tblayaq
tbrinah
tbrnahun
tbukuy
tbula
tcingan
tcwo
tdaya
tdhuun
tdiyan
tdruwan
tdruy
tduling
tduwa
tduwan
tdwaun
te
tealax
tecyu
teerang
tehan
teheyag
tekow
tekung
tekwo
television
telu
temu
ten
tena
tencu
tencuciyaw
tencucyaw
tengc
tengtay
tensin
tenstay
tensu
tentay
teodoro
terebi
term
teru
teruc
terwocyawcyu
tese
teshome
teumal
teura
texal
texan
tey
teyeyn
teyeyncucyaw
teyeynskiyo
teykong
teykung
teymu
teyn
teync
teyncu
teyncucyaw
teyngs
teyngskyo
teyngsu
teyningyueyn
teynjanci
teynoheyka
teynskyo
teynsukyo
teyru
teyskyo
teysukyo
teywan
tg
tgaan
tgaaw
tgbaraw
tgbaro
tgbbaro
tgberah
tgbilaq
tgblaiq
tgbowqax
tgbukuy
tgciway
tgdaha
tgdaya
tgdha
tgebin
tgempitu
tghbaraw
tghghaw
tghuna
tghunac
tghunat
tghuy
tgima
tgimah
tgiril
tgirin
tgkingal
tgkingan
tglaq
tgmalu
tgmaxal
tgnarac
tgnarat
tgparu
tgplealay
tgpusu
tgrahuc
tgrima
tgsaan
tgska
tgspac
tgspat
tgsuyang
tgtakar
tgteru
tgtru
tgtruma
tgubalo
tgubaro
tgudaya
tguiril
tguirin
tgunarat
th
thailand
thangan
thau
thdagan
thdil
thdilan
thdilun
the
thei
theruy
theya
theyaq
thiqan
thiti
thiyan
thiyaq
thiyi
thjil
thjilan
thjing
thmkuan
thmkuwan
thmuk
thmuku
thnganan
thngani
thnganun
thngay
thngayan
thowlang
thtur
thulan
thulang
thunac
thuun
thuway
ti
tian
tiar
tiarcu
tiauri
tic
tici
ticong
ticonghay
ticu
ticunghay
ticyo
ticyu
tifang
tihwang
tiko
tikoh
tiku
tikuh
tikwo
timor
timosnko
timu
ting
tingci
tiping
tipiq
tiri
tiril
tiring
tisi
tisya
tite
titu
tiwas
tiweysi
tiyas
tiyawye
tiyi
tiyu
tiyucang
tjiyal
tjiyan
tjuku
tjukuvulj
tkanan
tkanun
tkcka
tkdaya
tkijig
tkriyak
tkwo
tlahi
tlangan
tlaway
tlayan
tleengan
tleetu
tlenga
tlngan
tlngun
tlongan
tloong
tloongan
tloung
tlu
tluling
tlung
tlungan
tluung
tluungan
tmabu
tmabug
tmabul
tmabun
tmabuy
tmaga
tmaku
tmalang
tmapaq
tmara
tmatak
tmatuk
tmawa
tmay
tmayan
tmbgan
tmbgurah
tmburux
tmciyuk
tmdahu
tmgesa
tmgjiyal
tmgsa
tmhangan
tmhjil
tmhri
tmikan
tminun
tmiyu
tmjiyal
tmkarac
tmkari
tmlaqi
tmlenga
tmlung
tmngahan
tmngayan
tmninun
tmnsa
tmphpah
tmpusu
tmqcurux
tmqsurux
tmquli
tmraki
tmraqil
tmsa
tmsamac
tmsamat
tmsamt
tmucing
tmukuy
tmunan
tmunang
tmutuy
tna
tnaalang
tnabu
tnabug
tnais
tnalang
tnan
tnanx
tnarac
tnayis
tnayus
tnbarah
tnbgan
tnbkuwan
tnbugan
tnburux
tnbuwan
tnbyaxan
tnciyan
tncyusan
tndahu
tndheran
tndhuun
tnduheran
tndxgal
tndxral
tnealang
tneetu
tnegjiyalan
tnegjyalan
tnegkbkyan
tnegkmbkiyan
tnegtruan
tneumal
tng
tngahan
tnghangan
tngiyo
tngkmbkiyan
tngsaan
tnhangan
tnhdilan
tnheruy
tnhiqan
tnhjil
tnhjilan
tnhnganan
tnhyaqan
tninun
tnjiyal
tnjyalan
tnkanan
tnkarac
tnkari
tnkawas
tnkuyan
tnlaman
tnlangan
tnlaqi
tnlngan
tnloongan
tnnais
tnnanak
tnngayan
tnngayun
tnninun
tnpaqan
tnpucilung
tnpusu
tnqcurux
tnqian
tnqliyan
tnqriyan
tnquli
tnsamac
tnsapah
tnseediq
tnslutuc
tnswayi
tntakan
tntaxa
tntingan
tntunan
tnualang
tnuayus
tnuda
tnugiyo
tnukuy
tnunan
tnux
tnxalan
tnxalun
tnyanan
tnyanun
tnyusan
tnyuwan
to
toci
tocu
toda
togo
tokan
toko
tokwo
tokyo
toma
tomato
tome
tomingnicya
tominiko
ton
tonawho
tong
tongan
tongci
tongcicyu
tongcing
tongcng
tongcngkyo
tongcu
tongfe
tongfey
tonghwo
tongmong
tongnanya
tongo
tongow
tongpe
tongsing
tongsway
tongsyun
tongsyunse
tongya
tongyi
topesincnci
topyaw
topyawri
tora
torusire
torusiya
toso
tosu
tosyang
totang
totangcu
touade
tour
tow
towing
towkan
town
towpyaw
towrah
tpaan
tpaytwan
tpdu
tpelaq
tpetak
tpuqu
tpusu
tqapur
tqian
tqiri
tqiyan
tqlahang
tqqaras
tqrian
tqring
tqriyan
tqrngul
trabus
trahuc
trak
trasi
travel
trawah
trdu
trdunan
trduwan
treybi
treybitay
tribe
tribi
trilan
trima
trmaan
tru
trudu
truku
truma
trump
truwan
tsli
tsliyan
ttaan
ttak
ttama
ttasil
ttgesa
ttgsa
ttgsaan
tthiqan
ttikuh
ttinun
ttiping
ttiring
ttloongan
ttluungan
ttmaan
ttqiyan
ttsa
ttuku
tturu
ttusa
tu
tuarci
tuba
tubaraw
tubeyhing
tubrah
tubukuy
tucay
tucilung
tucing
tucka
tuckcka
tucya
tucyey
tuda
tudaya
tudha
tudu
tudxral
tuen
tuhranan
tuhuhu
tuhunac
tuhuy
tuiril
tuiwil
tukarac
tukcka
tuki
tukingal
tuku
tukubeycu
tulaq
tuma
tumal
tumay
tumn
tumndha
tumntxan
tumun
tun
tunan
tunarac
tung
tungci
tunghesyang
tungse
tungsyun
tunguro
tungyeyn
tunisia
tunisiya
tunun
tunux
tupan
tuparu
tupoling
tupwoling
tuqar
tur
tura
turahuc
turci
turi
turima
turkey
turkic
turkmenistan
turu
turuma
tusi
tuspac
tutaxa
tutin
tuting
tutiping
tutipiq
tutu
tuturu
tutuy
tuumal
tuuman
tuvalu
tuwa
tuwan
tuwang
tuwax
tuxan
tuy
tuyan
tv
tw
twan
twancyey
twanti
twe
twelaq
twen
twey
two
twow
twoyangsing
txal
txaun
txgal
txtaxa
tyaw
tyawca
tyawkwan
tyawmu
tyawye
tyawyey
tyeyn
tyeyncing
tyeyncu
tyeynsan
tyeynsin
tyeyntay
tyuwan
u
ubal
uban
ubung
uci
uciicil
ucik
ucilung
ucpeyk
ucuan
ucuicil
ucwang
ucya
uda
uey
ufungsyang
uganda
uhan
uhung
uhuru
uka
ukanta
uko
ukoran
ukraine
ulay
ulkan
ulkun
umaaw
umaduk
umarang
umau
umaw
umi
umluk
un
unbeyah
undo
undoing
undokay
ung
ungac
ungat
ungu
unhwa
union
unita
united
universidad
university
uniwun
unkwa
unming
unuh
unyifusing
uqan
uqi
uqiyan
uqun
ur
urac
urakwey
uranpato
uraw
uray
uri
uribe
uruc
uruguay
uruk
urung
usa
use
usik
usux
utaysyang
utc
uthuru
utux
uucilung
uuda
uuqan
uuqun
uusa
uuyas
uwa
ux
uxay
uxe
uyas
uyung
v
va
van
vanuatu
vaz
ve
venezuela
vi
vicente
vie
vietnam
ville
von
w
wa
wad
wada
waga
wah
wahal
wahapipay
wahil
wahir
wakefield
wales
walis
walter
walu
wamil
wan
wana
wanfungcun
wang
wangc
wangcan
wangcaw
wangci
wangcu
wangcuke
wangfey
wangjaw
wangkong
wangkuo
wangkwo
wangru
wangs
wangsu
wanjungsyang
wankwo
wannatu
wano
wanrong
wanta
war
waray
ware
waron
waru
wasaw
washington
wasil
waso
wata
watan
wauwa
waw
wawa
wawi
way
waya
wayay
waycyaw
waycyawbu
waycyawpu
wayhuy
wayhwe
waymaw
we
web
weci
weewa
wellington
weluq
wen
wenejuela
wenfa
wenmin
wenming
wenrai
wenran
wenswey
wentay
wenyi
west
wetoriya
wewan
wey
weyci
weycweyn
weyen
weyena
weyenfe
weyenhwe
weyho
weyn
weynso
weysing
weysng
weyswey
weytoriya
weytu
weytwan
weytwey
weyweyn
weyyeyncang
weyyeynhuy
weyyueyn
weyyueynhuey
weyyueynhwey
wi
wicang
wihi
wiki
wikipedia
wilakang
wilang
willem
wisu
wluq
wnse
wo
wongsan
wongsansuci
world
wouwa
wu
wukwo
wun
wunhwa
wunming
wunran
wunsan
wunse
wunti
wuse
www
x
xi
xicin
xiin
xiluy
ximung
xiyin
xiyow
xxiluy
xyo
y
ya
yaa
yaani
yaasa
yabay
yabi
yabu
yaci
yaciyata
yaco
yacow
yah
yahan
yahi
yahun
yaku
yama
yamalin
yamaycya
yameen
yameniya
yameyniya
yami
yamu
yan
yang
yangkwang
yani
yanraw
yapingning
yapota
yari
yarian
yarisanta
yasa
yasaybayran
yasaypayjan
yasebairan
yasepayjan
yasu
yasuar
yatay
yaten
yatoriya
yaw
yawi
yayaung
yayn
yayu
yayug
yayun
yayung
ye
yecu
yemen
yen
yenan
yencuming
yeng
yenso
yerusarun
yesu
yetan
yey
yeyc
yeymen
yeymn
yeyn
yeynan
yeyncyoso
yeyng
yeynhay
yeynpingsyang
yeynso
yeysu
yi
yian
yican
yicang
yici
yicu
yihuwe
yihwe
yihwey
yiin
yilan
yimyaw
yin
ying
yingcyo
yinghang
yingkay
yingkwo
yiserey
yisrancyaw
yisu
yisucya
yiswan
yitang
yitari
yitu
yiu
yiwu
yiyen
yiyueyn
yo
yobing
yocituy
yodaya
yohani
yomu
york
yorozu
yosang
yosing
yotay
youtube
yow
yqeyaq
yu
yuan
yuci
yucinsyang
yucu
yudaw
yudaya
yuen
yuey
yueyn
yueync
yuhung
yuifong
yun
yung
yungsing
yungtong
yunsu
yunton
yuntong
yuntonghwe
yuntung
yuntunghwey
yupan
yuraw
yuri
yurin
yurisyang
yusan
yusi
yutak
yuyey
yuyung
yyayung
z
zaisan
zambia
zambisi
zaw
zealand
zekin
zeman
zeming
zenmin
zenming
zh
zi
zimbabwe
zunming
zupaw
zupun
zweten
|
~
§
°
²
³
´
·
đa
ı
ə
ɸ
ʲ
ʷ
ʻ
ʾ
ʿ
ˇ
ˈ
ˊ
ˋ
ː
˚
ˤ
̀
́
̂
̃
̄
̆
̇
̈
̉
̌
̍
̓
̔
̕
̛
̣
̤
̥
̦
̧
̨
̱
͘
α
β
ο
ς
ְ
ִ
ֵ
ַ
ָ
ׂ
א
ד
י
ל
מ
ר
ש
ת
ا
الا
ة
د
ر
س
ل
م
و
َ
ِ
ّ
ْ
ٓ
ٔ
ٕ
ބ
އ
މ
ދ
ޔ
ަ
ު
ް
ং
দ
ব
ল
শ
া
ে
্
க
ச
ட
ா
ி
ு
ை
்
ං
ක
ත
ර
ල
ශ
්
ා
ී
จ
ด
ั
်
‍
‎
‏
–
—
‘
’
“
”
•
…
‧
′
※
ⁿ
℃
→
↔
↵
↷
∼
⎡
⎦
②
③
④
⑦
─
╱
◎
●
★
⟪
⟫
ⴰ
ⴽ
ⵎ
ⵓ
ⵔ
ⵛ
ⵜ
⺀
⺄
⺆
⺈
⺊
⺌
⺕
⺝
⺸
⺼
⿰
⿱
⿲
⿳
⿴
⿵
⿶
⿷
⿸
⿹
⿺
⿻
、
。
〈
〉
《
》
「
」
『
』
【
】
〔
〕
〜
〝
〞
〢
い
か
し
つ
て
と
な
に
の
ひ
ら
る
れ
を
゙
゚
ア
イ
カ
ケ
コ
サ
シ
テ
ハ
マ
ミ
ャ
ュ
ユ
ョ
ラ
リ
レ
ン
ー
ㄅ
ㄉ
ㄍ
ㄏ
㇁
㇂
㇄
㇇
㇈
㇉
㇓
㎢
㐁
㐄
㐅
㐌
㐫
㐬
㐭
㐮
㐱
㑒
㒵
㒸
㒼
㓁
㓞
㔾
㕛
㕣
㖾
㘝
㚅
㚇
㚔
㚘
㝉
㝡
㝴
㝵
㞋
㞢
㞷
㠩
㠭
㠯
㡀
㡭
㡿
㢲
㢴
㣇
㣺
㥯
㪅
㫄
㫐
㫒
㫺
㬅
㬎
㬥
㬰
㲋
㳄
㷠
㸒
㸚
㸦
㼌
㼲
㽞
㿟
䀠
䂞
䍃
䏍
䒑
䖍
䖒
䖝
䖵
䙴
䚻
䜌
䝿
䡛
䧹
䪞
一
丁
丂
七
丄
丅
丆
万
丈
三
上
下
丌
不
与
丏
丐
丑
专
且
丕
世
丘
丙
业
东
丞
丢
丣
两
严
並
丨
丩
个
丫
丬
中
丮
丰
丱
串
丵
丶
丷
丸
丹
为
主
丽
丿
乀
乂
乃
久
乆
乇
么
义
之
乌
乍
乎
乏
乐
乑
乔
乖
乗
乘
乙
乚
乛
乜
九
乞
也
习
乡
乳
乾
亀
亅
了
亇
予
争
事
二
亍
于
亏
亐
云
互
亓
五
井
亘
亚
些
亜
亞
亟
亠
亡
亢
交
亥
亦
产
亨
亩
享
京
亭
亮
亯
亰
亲
亳
亶
亷
人
亻
亼
亾
仁
今
介
仌
仍
从
仐
仑
仒
仓
仔
仕
他
付
仝
代
令
以
仰
件
任
份
企
伊
伏
伐
休
会
伯
似
但
佈
位
低
住
佔
何
佘
余
佛
作
你
佥
佳
使
來
侈
例
侌
侖
依
侯
侵
便
係
俄
俗
保
俞
信
修
俯
倉
個
倍
們
候
借
倠
倫
值
做
健
備
傳
僅
僉
像
僕
儀
優
儿
兀
允
兂
元
兄
充
兆
兇
先
光
兊
克
兌
免
兑
兒
兓
兔
党
兜
兟
入
內
全
兩
兪
八
公
六
兮
兰
共
关
兵
其
具
典
兹
兼
冀
冂
冃
冄
内
冈
冉
冊
冋
册
再
冎
冏
冐
冒
冓
冖
冗
冘
军
农
冝
冠
冡
冥
冫
冬
冰
冷
几
凡
凢
凱
凵
凶
凷
凸
凹
出
函
凾
刀
刁
刂
刃
刄
刅
分
切
刊
刍
刑
刕
刖
列
刘
则
刚
初
別
利
别
到
制
刺
刻
則
削
剌
前
剛
剝
剡
副
創
剽
劃
劉
劍
力
功
加
劦
助
努
劫
劳
劵
勃
勇
勉
勒
動
務
勝
勞
勢
勤
勹
勺
勻
勾
勿
匀
匂
包
匆
匈
匊
匋
匍
匕
化
北
匚
匝
匡
匪
匯
匱
匸
匹
区
医
匽
匿
區
十
卂
千
卄
卅
卆
升
午
卉
半
卌
华
卑
卒
卓
協
单
卖
南
博
卜
卝
卞
占
卡
卢
卣
卤
卦
卩
卪
卬
卯
印
危
即
却
卵
卷
卸
卻
厂
厃
厄
历
厈
厉
厌
厓
厘
厚
厝
原
厤
厥
厨
厭
厲
厶
厷
厸
去
厼
厽
叀
参
參
叅
又
叉
及
友
双
反
叐
发
叒
叔
叕
取
受
叚
叜
叟
口
古
句
另
叩
只
召
可
台
叱
史
右
叵
号
司
叹
吂
吃
各
吅
合
吉
吊
吋
同
名
后
吏
吐
向
吕
君
吝
吞
否
含
启
吳
吴
吹
吾
呂
呆
呈
告
员
呙
呢
周
呼
命
咅
和
咎
咖
咠
咢
咨
咪
咬
咸
咼
哀
品
哇
哈
哉
員
哥
哪
哲
唇
唐
商
啇
問
啚
啟
啡
啬
啻
善
喉
喔
喜
喪
喬
單
喿
嗇
嗡
嘉
嘎
嘴
器
噩
噴
嚴
囊
囗
囘
囙
囚
四
回
囟
因
囧
囬
困
囱
囷
固
国
圂
圅
國
圍
園
圓
圖
團
土
圡
圣
圥
在
圭
圯
地
圶
圼
址
坂
均
坎
坐
坑
坒
坚
坡
坦
坪
坴
垂
型
垔
垚
埀
埃
埋
城
埔
域
埠
埶
執
培
基
堂
堅
堆
堇
堡
堤
堪
堯
報
場
塔
塞
境
增
墨
墾
壁
壘
壩
士
壬
壯
声
壳
壴
壹
壺
壽
夂
处
夅
夆
备
夊
夋
夌
复
夏
夒
夕
外
夗
夘
多
夜
夢
大
夨
天
太
夫
夬
夭
央
失
夲
头
夷
夸
夹
夻
夾
奂
奄
奇
奈
奉
奎
奏
奐
契
奓
奔
奚
奞
奠
奢
奥
奧
奭
女
奴
她
奻
好
如
妄
妙
妟
妥
妻
妾
姆
姊
始
姑
委
姜
姻
威
娃
娄
娘
娛
娜
娟
娥
婁
婆
婉
婚
婴
媒
嬰
嬴
子
孑
孔
孕
孖
字
存
孚
孛
孝
孟
季
孤
学
孩
孫
孱
學
宀
宁
宂
它
宅
宇
守
安
宋
完
宏
宓
宗
官
定
宛
宜
宝
客
宣
室
宮
宰
害
宴
家
容
宾
宿
寄
寅
密
富
寒
察
實
寧
寨
審
寫
寬
寮
寶
寸
对
寺
寻
寽
対
寿
封
尃
射
将
將
專
尉
尊
尋
尌
對
導
小
少
尒
尓
尔
尖
尗
尚
尞
尢
尣
尤
尧
尨
尭
就
尸
尹
尺
尻
尼
尽
尾
尿
局
居
屈
屋
屎
屏
屑
展
屖
屚
属
屠
屡
層
屬
屮
屯
屰
山
屵
屾
岁
岂
岑
岡
岩
岳
岸
峯
峰
島
崁
崇
崎
崑
崔
崖
崙
崩
嵐
嵬
嶲
嶺
巂
巒
巛
川
州
巟
巠
巢
巤
工
左
巧
巨
巩
巫
差
己
已
巳
巴
巷
巸
巽
巾
巿
帀
市
布
希
帕
帚
帛
帝
带
師
席
帶
常
幫
干
平
年
幵
并
幷
幸
幹
幺
幻
幼
幽
幾
广
広
庄
床
底
店
庚
府
度
座
庫
庭
庶
康
庸
廉
廌
廖
廛
廟
廠
廢
廣
廩
廬
廴
延
廷
建
廾
廿
开
弁
弃
弄
弇
弋
式
弓
弔
引
弗
弘
弜
弟
弥
弦
弱
張
強
强
彊
彌
彎
彐
彑
当
彔
录
彖
彗
彙
彡
形
彥
彦
彧
彭
彳
役
彼
往
待
很
律
後
徐
徒
得
徙
從
復
微
徵
德
心
忄
必
忌
忍
志
忙
忝
忠
忩
快
念
忽
忿
怒
思
怠
急
性
怱
恆
恒
恩
恭
息
悉
悠
患
悤
悲
悶
情
惠
惡
惢
想
愁
愈
意
愛
感
慈
慕
慣
慧
慮
慰
慶
憂
憲
應
懷
戀
戈
戉
戊
戋
戌
戍
戎
成
我
戒
戔
或
戚
戠
戢
截
戰
戲
戶
户
戹
戼
戾
房
所
扁
扇
手
扌
才
扎
打
托
执
批
承
技
把
抓
投
抗
折
抵
拉
拓
拔
招
拜
拿
指
挖
振
捕
捷
掌
排
掘
採
推
描
提
換
援
揹
搜
搭
摩
撈
撒
撫
播
擇
擎
據
擠
擴
擺
支
攴
攵
收
攸
改
放
政
敄
故
效
敏
敕
敖
敗
教
敝
敞
敢
散
敦
敫
敬
数
整
敷
數
斂
文
斉
斊
斗
料
斤
斥
斩
斬
斯
新
斷
方
於
施
斿
旁
旅
旋
族
旗
无
旡
既
旣
日
旦
旧
旨
早
旬
旱
旲
时
旺
旾
昂
昆
昇
昌
昍
明
昏
易
昔
昗
昜
星
春
昬
昭
是
昱
昴
昷
時
晃
晋
晏
晚
晨
普
景
晶
智
暑
暴
曇
曩
曰
曲
曳
更
曷
書
曹
曼
曾
替
最
朁
會
月
有
朋
服
朔
朕
朗
望
朝
期
木
朩
未
末
本
札
朮
术
朱
朵
朶
朿
杀
李
杏
材
村
杜
束
条
来
杯
東
杲
杳
杵
松
板
析
枕
林
枚
果
枝
枯
枲
架
枼
柏
某
染
柔
查
柬
柰
柴
柵
栗
校
株
根
格
桀
桂
桃
案
桐
桑
桫
桶
桼
梁
梅
條
梟
梧
梨
梵
棄
棉
棒
棘
棠
棥
棧
森
植
椰
楊
楓
楚
楝
業
楽
概
榔
榮
榴
構
槓
槽
樂
樊
樑
樓
標
樟
模
樣
樹
橋
機
橫
檔
檢
櫟
櫻
權
欏
欠
次
欣
欮
欲
欶
欽
款
歆
歇
歌
歛
歡
止
正
此
步
武
歨
歪
歮
歯
歰
歲
歴
歷
歸
歹
歺
死
殊
殖
殳
段
殷
殸
殹
殺
殻
殼
殿
毀
毋
毌
母
每
毒
比
毕
毚
毛
毳
氏
氐
民
气
氣
水
氵
氶
氷
永
氺
氾
汀
求
汗
汝
汞
江
池
汶
汽
沃
沒
沓
沖
沙
沝
河
油
治
沼
沿
況
泉
泊
法
泛
波
泣
泥
泰
洋
洛
洞
洪
洲
活
派
流
浦
浪
浮
海
消
涉
涼
淡
淨
淮
深
混
清
渚
渠
渡
測
港
游
湖
湯
湳
源
溝
溪
溫
滋
滾
滿
漁
漂
漏
演
漢
漸
潭
澇
澈
澤
澳
激
濁
濃
濕
濘
濟
濱
瀛
瀾
灣
火
灬
灭
灰
灵
灷
炅
炎
炏
炗
炙
炭
為
烈
烏
烝
焉
無
焦
焱
然
煞
煤
煥
照
熊
熏
熟
燕
營
燮
爪
爫
爭
爯
爰
爱
爲
爵
父
爻
爽
爾
爿
牆
片
版
牙
牚
牛
牜
牟
牡
牢
牧
物
牪
特
牽
犀
犬
犭
犮
犯
狂
狄
狊
狗
狩
独
狺
猋
猒
猪
献
猶
獅
獨
獲
獵
獻
玄
率
玉
王
玟
玨
玩
玻
珈
珊
珍
珎
班
現
球
理
琉
琳
琴
瑞
瑟
瑤
瑩
瑪
璞
環
瓜
瓦
甘
甚
甜
生
產
産
用
甫
甬
田
由
甲
申
电
甶
男
甸
甹
画
甾
畀
界
畏
畐
留
畜
畟
畢
略
畧
畨
番
畫
異
畱
當
畺
畾
疊
疋
疌
疑
疒
疾
病
痛
癶
癸
癹
発
登
發
白
百
皀
皃
的
皆
皇
皋
皐
皕
皮
皷
皿
盃
盆
盇
盈
益
盍
盎
监
盒
盖
盛
盟
盡
監
盤
盧
目
直
相
盾
省
眇
眉
看
眔
眞
真
眷
眼
眾
着
睘
督
睪
睿
瞏
瞢
瞿
矍
矛
矞
矢
矣
知
矦
短
石
砂
研
砲
破
碎
碑
碧
確
碼
磊
磨
磯
礁
礦
示
礻
礼
社
祈
祖
神
祟
祥
票
祭
祿
禀
禁
福
禮
禸
禹
禺
离
禽
禾
禿
秀
私
秃
秉
秋
科
秘
秝
秦
移
程
稟
種
稱
稻
穀
穌
積
穗
穴
究
穹
空
穿
突
窄
窒
窟
窩
立
竒
站
竜
竝
竟
章
童
端
竹
笑
笠
符
第
筆
等
答
箕
算
管
箴
節
範
篇
築
篤
篭
簍
簡
簧
簿
籃
米
粉
粗
粛
粟
粤
粦
粲
精
糞
糠
糧
糯
糸
糹
系
紀
約
紅
紋
納
紐
紙
級
素
索
紫
累
細
紹
組
結
絜
給
絫
統
絲
經
綜
綠
維
網
綿
緊
緒
線
緣
編
緩
緬
緯
縣
縱
總
績
繁
繇
織
繞
繫
繼
續
纍
纟
纳
缶
网
罒
罔
罕
罗
罙
罡
罢
罪
置
署
罷
羅
羊
羌
羍
美
羔
羕
羗
羞
羡
羣
群
義
羲
羸
羽
翁
翏
習
翕
翟
翠
翻
翼
老
耂
考
者
耆
而
耎
耑
耒
耕
耗
耳
耴
耶
耷
聂
聊
聖
聚
聞
聯
聲
聶
職
聽
聿
肀
肃
肅
肉
肖
肙
肥
肩
肯
育
肴
肺
胃
背
胡
胥
能
脈
脊
脩
腳
膚
臣
臤
臧
臨
自
臬
臭
臯
臱
至
致
臺
臼
臽
臾
臿
舀
舂
舄
與
興
舉
舊
舌
舍
舒
舛
舜
舞
舟
般
船
艮
良
色
艸
艹
艾
芒
芔
芝
芬
芭
芮
花
芳
芸
芺
芻
苔
苗
苟
若
苦
苧
英
苳
茂
茄
茲
茶
茸
荅
草
荒
荖
荣
荷
荼
莆
莎
莖
莢
莧
莫
莽
菆
菊
菐
菜
華
菲
萄
萊
萨
萬
落
葉
著
葛
葡
董
葫
葳
葵
蒂
蒙
蒦
蒼
蓄
蓋
蓬
蓮
蓺
蔑
蔡
蕉
蕗
蕭
薄
薛
薦
薩
薰
藉
藍
藏
藝
藤
藥
蘆
蘇
蘭
虍
虎
虐
虒
虔
處
虖
虗
虘
虚
虛
虜
虞
號
虫
虽
蚤
蚩
蛇
蜀
蜜
蝦
融
蟲
蠡
血
行
衍
術
街
衛
衝
衣
衤
表
衮
衰
袁
袋
袞
被
裂
裏
補
裝
裡
製
褭
褱
襄
襾
西
覀
要
覃
見
規
覓
視
覧
親
覽
觀
见
角
解
言
訁
訂
訇
計
訊
記
設
許
訴
詞
試
詩
詮
話
該
詹
誌
認
語
誠
誩
說
課
調
談
請
論
諸
諾
講
謝
證
識
警
譬
譯
議
護
讀
變
讓
讠
谷
豆
豈
豊
豎
豐
豕
豖
豙
象
豦
豩
豪
豸
貇
貌
貓
貝
貞
貟
負
財
貢
貧
貨
貪
貫
責
貳
貴
買
費
貿
賁
資
賈
賏
賓
賔
賛
賜
賞
賢
賣
質
賴
賽
贊
贖
贝
贡
责
贯
贲
贵
赖
赞
赤
赦
赫
走
起
越
趣
足
跟
路
踏
蹇
蹈
身
躬
車
軍
軎
軟
較
輔
輕
輝
輦
輯
轄
轉
车
辛
辜
辟
辥
辦
辭
辰
辱
農
辵
辶
边
达
迄
过
近
连
迪
述
迴
迷
追
退
送
逆
透
逐
途
這
通
速
造
逢
連
逮
進
遀
遂
遊
運
過
道
達
遠
遣
適
遭
遶
遷
選
遺
還
邊
邑
邕
那
邦
邪
邱
郎
部
郭
郵
都
鄉
鄭
鄰
酉
酋
配
酓
醫
釆
采
釋
里
重
野
量
金
釒
銀
銃
銅
鋤
錄
錢
錦
錫
鍾
鎮
鏡
鐘
鐵
钅
長
镸
长
門
閃
閉
開
閏
閑
閒
間
閔
閣
閱
閵
閻
闌
關
门
间
闷
阑
阜
阝
阱
防
阻
阿
附
降
限
院
除
陰
陳
陵
陶
陷
陸
陽
隆
隊
隋
階
隘
際
隡
隨
隱
隶
隸
隹
隺
隻
隼
隽
难
雀
雁
雅
集
雈
雋
雍
雐
雔
雖
雙
雚
雜
雝
離
難
雨
雩
雪
雲
零
雷
電
需
震
霍
霜
霝
霞
霧
露
霸
靈
靑
青
靜
非
靡
面
靣
革
鞍
鞥
韋
韓
韦
韭
韯
韱
音
韻
頁
頂
頃
項
順
須
頌
預
頓
頗
領
頡
頭
頻
顎
顛
類
页
風
风
飛
飞
食
飠
飯
飲
養
館
饣
首
馘
香
馬
馮
駐
駦
騎
騰
驗
马
骨
髒
髓
體
高
髟
髻
鬥
鬧
鬯
鬲
鬼
魂
魚
魯
鮮
鱉
鱼
鲁
鳥
鳳
鴻
鵝
鷂
鷹
鸟
鹵
鹽
鹿
麃
麗
麟
麥
麦
麻
麼
黃
黄
黍
黎
黑
黒
點
黨
黹
黽
黾
鼎
鼓
鼠
鼻
齊
齋
齐
齒
齡
齦
齿
龍
龙
龜
龟
龠
龰
龱
龴
龵
龶
龷
龸
龹
者
艹
﹐
﹑
﹞
﹤
﹥
﻿
！
％
（
）
＊
，
－
．
／
：
；
＝
？
［
ｍ
ｐ
～
｣
�
𠀁
𠀃
𠀆
𠀉
𠀎
𠀐
𠁁
𠁣
𠂆
𠂇
𠂈
𠂉
𠂊
𠂋
𠂎
𠂒
𠂔
𠂛
𠂡
𠂢
𠂤
𠂬
𠂭
𠂹
𠃊
𠃋
𠃌
𠃍
𠃎
𠃑
𠃓
𠃔
𠃜
𠄌
𠄎
𠄠
𠄢
𠆢
𠆥
𠇍
𠈌
𠌵
𠓜
𠔉
𠔥
𠔼
𠔽
𠔿
𠕀
𠕁
𠕋
𠘧
𠘨
𠙻
𠙼
𠚏
𠚒
𠚤
𠚪
𠣏
𠤎
𠤕
𠥓
𠦄
𠦑
𠦝
𠧒
𠧗
𠧪
𠩺
𠪚
𠫓
𠫔
𠫤
𠬛
𠬝
𠬞
𠬢
𠬤
𠬶
𠮛
𠮦
𠮷
𠯑
𠱠
𠳮
𠷎
𡈼
𡉀
𡉵
𡌥
𡍮
𡏳
𡕒
𡕩
𡕰
𡖅
𡗗
𡗜
𡘆
𡘤
𡧱
𡨄
𡩧
𡬠
𡭽
𡰣
𡰥
𡰪
𡰯
𡰱
𡷈
𡸁
𡿨
𡿩
𡿪
𡿺
𢀖
𢀛
𢀩
𢁙
𢆉
𢆰
𢆶
𢇁
𢇇
𢉖
𢌬
𢌿
𢏚
𢑑
𢑚
𢖻
𢙣
𢛳
𢦏
𢦒
𢧵
𢼄
𢾕
𣁋
𣄼
𣅀
𣅽
𣍘
𣎳
𣎵
𣏋
𣏼
𣗥
𣥂
𣥖
𣦵
𣦼
𣧄
𣪊
𣪠
𣬉
𣳾
𣶒
𤇾
𤊽
𤐫
𤓰
𤔔
𤕨
𤣩
𤰇
𤰔
𤰞
𤴓
𤴔
𤽄
𥁑
𥁕
𥃦
𥃩
𥃭
𥇡
𥑟
𥘅
𥘈
𥝢
𥫗
𥱡
𦈢
𦉪
𦉬
𦉼
𦍌
𦍒
𦎧
𦐇
𦓔
𦔮
𦘒
𦙃
𦚏
𦣝
𦣞
𦣻
𦥑
𦥔
𦥯
𦨉
𦭝
𦰩
𧆞
𧈧
𧘇
𧰨
𧴪
𧴮
𧵩
𧾷
𨸏
𨾴
𩙿
𩠐
𩫏
𩵋
𪉷
𪜀
𪟽
𪠲
𪩲
𫇦
𫔭
𫜸
𫝀
𫠣
𫠩
𫢉
𫥞
𫩏
𫩠
𫪡
𫲽
𫶧
𬀷
𬐘
𬗌
𬙙
𬛸
𬜯
𬟩
𬯁
𬴘
𬺻
𬼉
𬼖
𭀰
𭁈
𭁨
𭅰
𭑈
𭕄
𭗼
𭤨
𭥫
𭻾
𮅕
𮊿
𮍌
𮍏
𮓗
𮥼
𮧮
廾
𰀁
𰀄
𰀈
𰀉
𰀕
𰀠
𰀡
𰀢
𰀪
𰁜
𰃮
𰆊
𰆘
𰋙
𰕎
𰢴
𰧭
𰯲
09--
17--
18--
62--
86--
a--
aar--
ab--
ac--
ad--
af--
afg--
ah--
ako--
al--
ali--
aman--
ame--
an--
ani--
apu--
ar--
ari--
as--
ati--
au--
aw--
aws--
ay--
ayha--
ayto--
b--
ba--
bas--
bat--
bb--
bba--
bbi--
bbra--
bbu--
be--
ber--
bey--
bg--
bi--
bing--
bl--
bla--
bn--
bneg--
bng--
bnu--
bo--
bor--
bow--
br--
bre--
bri--
brq--
bs--
bu--
c--
ca--
came--
can--
cang--
car--
cara--
caw--
cay--
cc--
ce--
cen--
cenca--
cha--
ci--
cia--
cig--
cih--
cila--
cin--
cing--
citu--
ciya--
cm--
cn--
cnc--
cng--
co--
com--
con--
confa--
cong--
cu--
cuc--
cun--
cung--
cuyo--
cwan--
cya--
cyaw--
cyey--
cyo--
cyu--
cyun--
d--
da--
dan--
day--
ddi--
ddo--
ddu--
de--
dey--
dg--
dge--
dh--
dhe--
di--
dm--
dma--
dmn--
dmnu--
dmu--
dn--
dnge--
dnng--
do--
dow--
dq--
du--
dx--
e--
ed--
ee--
el--
em--
emb--
embb--
emp--
empa--
emps--
empt--
en--
end--
er--
est--
eu--
euro--
eva--
f--
fa--
fan--
fe--
fey--
fi--
fo--
for--
fu--
fung--
g--
ga--
ge--
ger--
gi--
gm--
gmu--
gn--
gna--
go--
gra--
gre--
gro--
gu--
gx--
h--
ha--
hai--
han--
har--
hay--
hb--
he--
hi--
hji--
hl--
hm--
hmi--
hn--
hng--
ho--
hong--
hp--
hr--
hu--
hun--
huy--
hwa--
hwan--
hwey--
hwo--
i--
ici--
in--
ing--
ini--
intro--
iri--
is--
isu--
ix--
j--
ja--
je--
jen--
ji--
jin--
jji--
jn--
jo--
ju--
jun--
k--
ka--
kan--
kana--
kang--
kaw--
kay--
kb--
kd--
ke--
key--
kg--
kh--
ki--
kin--
king--
kiyo--
kk--
kl--
kla--
km--
kmb--
kmu--
kn--
knb--
knbu--
knd--
kndr--
kne--
kng--
knhb--
knhu--
knl--
knr--
kns--
knu--
ko--
koci--
kon--
kong--
kori--
korun--
kr--
kri--
kru--
ku--
kung--
kuo--
kuy--
kwa--
kwan--
kwo--
l--
la--
lbu--
le--
li--
ll--
lmu--
ln--
lo--
lq--
lu--
luo--
m--
ma--
maa--
man--
mari--
maw--
max--
may--
mb--
mba--
mbb--
mcci--
mdu--
me--
mer--
meu--
mey--
meyn--
mg--
mge--
mgu--
mh--
mhe--
mhu--
mi--
min--
mincu--
ming--
mk--
mke--
mkn--
mkr--
ml--
mlu--
mm--
mmu--
mn--
mna--
mnd--
mne--
mney--
mng--
mnl--
mntu--
mnu--
mo--
moku--
mon--
mor--
mp--
mpla--
mpq--
mpt--
mq--
mr--
mre--
ms--
msa--
msb--
mse--
msee--
msn--
msp--
mss--
msu--
mt--
mta--
mtq--
mu--
muha--
muu--
n--
na--
nah--
nai--
nan--
nay--
ncu--
nd--
ne--
ney--
ng--
nga--
ngen--
ni--
ning--
nn--
nnga--
no--
nri--
nu--
nung--
nwo--
nyo--
o--
oku--
on--
ong--
or--
ota--
ou--
ow--
p--
pa--
pan--
pare--
paw--
pawhu--
pay--
pd--
pe--
pen--
per--
pet--
pey--
pg--
pga--
pge--
ph--
phi--
phl--
phyu--
pi--
pin--
ping--
pk--
pkb--
pkr--
pku--
pl--
pla--
ple--
pn--
pna--
pnc--
pne--
png--
pnhga--
pnhu--
pnl--
pnr--
pnrhu--
pns--
pnt--
pnu--
pnug--
po--
pp--
ppr--
ppu--
pq--
pr--
pra--
pre--
pri--
pru--
ps--
psa--
psb--
pse--
pslu--
psp--
psq--
psr--
psse--
pst--
pt--
ptge--
pu--
pung--
pwo--
pyu--
q--
qa--
qasapu--
qb--
qda--
qdi--
qe--
qla--
qli--
qlu--
qm--
qml--
qn--
qna--
qnba--
qnla--
qow--
qq--
qra--
qu--
qyu--
r--
ra--
raw--
rb--
re--
ren--
rey--
ri--
ric--
rifa--
rin--
rm--
rme--
rmi--
rmn--
rmu--
ro--
roo--
ros--
rqe--
rr--
rra--
ru--
ruci--
rwo--
ryen--
ryo--
ryu--
s--
sa--
san--
sang--
sar--
say--
sb--
sbye--
sc--
sda--
sdh--
se--
see--
sen--
seu--
sey--
sfa--
sg--
sha--
shi--
si--
sin--
sing--
sir--
siyo--
sk--
skr--
sl--
sla--
slma--
slo--
sm--
smb--
sme--
smi--
smk--
sml--
smm--
smme--
smn--
sn--
sne--
sng--
snt--
snu--
so--
sow--
sp--
spa--
spe--
sq--
sr--
sra--
ss--
sse--
ssi--
st--
sta--
su--
suhwa--
suko--
sun--
sung--
sus--
swey--
sya--
syaw--
syo--
t--
ta--
tafa--
tahan--
tai--
tan--
taw--
tay--
tb--
tbu--
tdu--
te--
ten--
tg--
tgli--
tgu--
th--
thu--
thya--
ti--
ticon--
tja--
tji--
tju--
tki--
tla--
tle--
tm--
tma--
tmb--
tme--
tmg--
tmh--
tmn--
tmu--
tn--
tndh--
tne--
tneg--
tng--
tnh--
tnlu--
tnn--
tnu--
to--
ton--
tong--
tow--
tp--
tqa--
tr--
tta--
tu--
tun--
tung--
tuo--
tw--
two--
tyaw--
tyen--
tyeyn--
u--
uci--
un--
une--
uni--
unko--
ur--
ura--
ut--
uu--
v--
va--
ve--
vi--
vil--
vla--
w--
wa--
wan--
way--
we--
wen--
wey--
wi--
wo--
wu--
x--
xi--
y--
ya--
yama--
yaw--
ye--
yen--
yey--
yeyn--
yi--
yo--
yow--
yu--
yuey--
yun--
z--
zen--
zi--
zu--
zun--
zwe--
--0
--1
--2
--25
--27
--3
--4
--5
--6
--7
--8
--9
--a
--aan
--aaw
--ac
--acun
--ah
--ai
--ak
--aku
--al
--alem
--alu
--alun
--an
--ana
--ang
--api
--aq
--aqih
--ar
--ara
--ary
--as
--at
--au
--aw
--ax
--ay
--aya
--ayan
--ayi
--b
--ba
--bay
--bi
--bin
--bo
--bu
--c
--ca
--can
--cang
--caw
--cay
--ce
--cen
--cgn
--ci
--ciau
--cin
--cing
--ck
--cn
--cng
--co
--copu
--cow
--cu
--cuc
--cucu
--cun
--cuyi
--cya
--cyaw
--cyo
--cyu
--d
--da
--dan
--dar
--dax
--day
--de
--dhe
--di
--ding
--do
--du
--dul
--dun
--dus
--e
--ed
--eiq
--ela
--en
--er
--ern
--es
--esu
--etu
--ey
--eyn
--f
--fa
--faan
--fan
--fang
--fayen
--fe
--fey
--fu
--g
--ga
--gal
--gan
--gaw
--ge
--ght
--gi
--go
--gti
--gu
--guc
--gue
--guh
--gul
--gun
--gus
--h
--ha
--han
--haw
--hay
--he
--hes
--hi
--hkwo
--ho
--hu
--huey
--hur
--huwe
--huy
--hwa
--hwe
--i
--ia
--ic
--ica
--ih
--il
--ila
--in
--ing
--io
--iq
--is
--ito
--iueyn
--iya
--j
--ja
--jen
--ji
--jil
--jn
--jo
--ju
--k
--ka
--kan
--kang
--kar
--kas
--kay
--ke
--kear
--ki
--kio
--ko
--kod
--ks
--ku
--kuo
--kuy
--kwan
--kwo
--kyo
--l
--la
--lah
--lan
--las
--lax
--ld
--le
--li
--lid
--lika
--lin
--lm
--lo
--lu
--lug
--luk
--ly
--m
--ma
--man
--mark
--mathi
--may
--me
--mi
--min
--mir
--mo
--mon
--mu
--n
--na
--nan
--nas
--naw
--naya
--ne
--ng
--nghu
--ngri
--ngun
--ni
--nia
--no
--nsa
--nsu
--nu
--nug
--nun
--o
--ol
--on
--os
--ow
--p
--pa
--page
--pan
--paq
--paw
--pay
--pe
--pey
--pi
--pin
--piq
--po
--pu
--pura
--q
--qa
--qi
--qic
--qir
--qn
--qu
--qun
--r
--ra
--rac
--rah
--ran
--rd
--rdam
--re
--ri
--ria
--riku
--rin
--ring
--riq
--rl
--ro
--rt
--ru
--rug
--rux
--ruy
--ry
--ryu
--s
--sa
--sacu
--san
--se
--sen
--si
--sia
--sin
--sk
--sng
--so
--st
--su
--sug
--sun
--swey
--swo
--syang
--syu
--t
--ta
--tan
--tang
--taw
--tay
--te
--th
--ti
--tikuo
--tikwo
--tin
--tis
--to
--tra
--ts
--tu
--tuc
--tun
--tuo
--tus
--tut
--tuy
--twe
--ty
--u
--ua
--uc
--ug
--ugu
--uh
--ui
--uk
--ul
--un
--us
--ut
--uuy
--uw
--ux
--uy
--v
--ve
--vel
--vi
--via
--vu
--w
--wa
--wan
--was
--we
--wey
--weyn
--wi
--wo
--wu
--x
--xa
--xan
--xi
--xul
--xun
--y
--ya
--yal
--yan
--yang
--yano
--yas
--yaw
--ye
--yen
--yey
--yeyn
--yi
--yn
--yo
--yow
--yu
--yueyn
--yuk
--yun
--yus
--yux
--z
--zai
--zi
--zong
--zuan
--zun
