!
"
#
##0
##1
##10
##11
##12
##13
##14
##15
##16
##17
##18
##19
##2
##20
##21
##22
##23
##24
##25
##26
##27
##28
##29
##3
##30
##31
##32
##33
##34
##35
##36
##37
##38
##39
##4
##40
##41
##42
##43
##44
##45
##46
##47
##48
##49
##5
##50
##51
##52
##53
##54
##55
##56
##57
##58
##59
##6
##60
##61
##62
##63
##64
##65
##66
##67
##68
##69
##7
##70
##71
##72
##73
##74
##75
##76
##77
##78
##79
##8
##80
##81
##82
##83
##84
##85
##86
##87
##88
##89
##9
##90
##91
##92
##93
##94
##95
##96
##97
##98
##99
$
%
&
'
(
)
*
+
,
-
.
/
0
00
000
0000
0001
0003
0004
001
002
003
004
0049
005
0067
01
010
0100000
011
012
013
017
01907
02
03
03148
0369
038
04
04902
05
051
0521004276
055
056
06
060
07
07710
08
09
09159
094358
1
10
100
1000
10000
1001
1007
101
102
1025
1027
103
1039
104
1046
1048
105
1051
106
1063
107
1071
108
1080
1086
10875
1088
109
1093
11
110
111
1111
112
1121
113
114
114636
115
116
1163
117
1176
118
118142
1183
119
1195
12
120
1207
1209
121
12148
122
123
124
125
126
1268
127
128
129
13
130
1300
130394
13063
131
132
133
1332
1333154
1335437
134
1349
135
1355
136
1365
137
138
139
1395
14
140
141
142
1429
143
14344
1436
144
145
1450
1452
146
147
1471
148
149
1495
15
150
1500
151
1515
152
153
15338
1538
154
155
156
157
15754
158
159
16
160
1600
161
162
1621
1629
163
1637
164
165
1656
1658
166
1663
167
168
169
17
170
1700
171
17156
172
173
174
175
1754
1755
1758
1759
176
177
1775
1778
177858
1779
178
1784
1785
1786
1787
1788
1789
179
1790
1792
1793
1794
1795
1796
1797
1798
1799
18
180
1800
1801
1802
1803
1804
1805
1806
1807
1808
1809
181
1810
1811
1812
1813
1814
1815
1816
1817
1818
18188
1819
182
1820
1821
1822
1823
1824
1825
1826
1827
1828
1829
183
1830
1831
1832
1833
1834
1835
1836
1837
1838
1839
184
1840
1841
1842
1843
1844
1845
1846
1847
1848
1849
185
1850
1851
18515
1852
1853
1854
1855
1856
1857
1858
1859
186
1860
1861
1862
1863
1864
1865
1866
1867
1868
1869
187
1870
1871
1872
1873
1874
1875
1876
1877
1878
1879
188
1880
1881
1882
1883
1884
1885
1886
1887
1888
1889
189
1890
1891
1892
1893
1894
1895
1896
1897
1898
1899
19
190
1900
1901
1902
1903
1904
1905
1906
1907
1908
1909
19098
191
1910
1911
1912
1913
1914
1915
1916
1917
1918
1919
192
1920
1921
1922
1923
19233
192360
1924
1925
1926
1927
1928
1929
193
1930
1931
1932
1933
1934
1935
1936
1937
1938
1939
194
1940
1941
1942
1943
1944
1945
1946
1947
1948
1949
195
1950
1951
1952
1953
1954
1955
1956
1957
1958
1959
196
1960
1961
1962
1963
1964
1965
1966
1967
1968
1969
197
1970
1971
1972
1973
1974
1975
1976
1977
1978
1979
198
1980
19800035
1981
198182
1982
1983
1984
1985
1986
1987
1988
1989
199
1990
1991
1992
1993
1994
1995
1996
1997
1998
1998399
1998416
1999
2
20
200
2000
2001
2002
2003
20031411
2004
20040525
20041960
2005
2006
2007
2008
200810397
2009
201
2010
2011
2012
2013
201321100
201322790
2014
2015
201526766
201528048
2016
20160322
2017
20170411
2018
2019
202
2020
2021
20210101000000
20210630075411
2022
203
204
205
20553
206
207
2075
208
2087
209
21
210
211
2112
2116
212
2126
2127
213
214
2148
2148295
215
2152
21524
216
217
2170
218
219
22
220
221
222
223
224
225
226
227
228
229
2294
23
230
2306
231
2317
232
233
234
235
236
237
238
239
24
240
241
2410
241600000
242
2424
243
244
2447
245
246
247
248
249
25
250
251
252
253
254
255
256
257
258
259
2598
26
260
2604
261
262
263
264
265
266
267
268
269
27
270
27266
273
274
275
276
27636
277
278
279
28
280
283
284
2840
285
2856
289
2893
29
2900
295
296
2966
297
3
30
300
3000
300410
304
3055
306
308
31
312
313
315
316343
317
317348
318
32
320
322
322488
323
324
325
326
327
328
33
330
331
3318
332
333
334
335
336
3363419
338
339
34
340
341
342
343
344
345
348
349
35
350
351
352
353
354
355
356
357
358
359
36
360
361
365
367
367776
368
37
370
372
374981
375529
378599
379
379232
38
380
383
3847
387
39
390
391
397
399
4
40
400
401
401516290275885
4020
403
405
409
41
412
413
414
416
417
418
42
421
422
425
427
428
43
431550
434
4342
435
4357
436
437
438
439
44
440
442
4422
443
4432
444
4468
448
449
449435
45
450
452
453
455
46
4605
460862
4612
462
4638
469
47
470
472
4744
477
479
48
49
490
493
495
496
4966
497024
498708
499
4998721
5
50
500
5000
50018
501
5010
503
508921
51
510201
5139
517
518
519081
52
524984
525
526
527
53
530
54
541
543
54721
549
55
5516
556
558
56
560
562
563
565
566
57
576
579
58
584177909002241
58495
58843
59
591
592
595
5962
6
60
600
6036
61
615
616
62
620
6256
63
634
6348
6361
637
64
64141
65
653
655
66
67
68
683
689
69
693
698
699
7
70
700
7000
705
707
71
711
713
718
719
72
73
733
74
741
743
746
75
750
753
758
76
761
764
77
772
774
776
78
783
783462
788
78841
79
790
7929
7979
8
80
800
8006
8018
8034
8057
81
810
811
813
817
82
8221
83
830
835
84
845
85
8545212
856
86
862
87
8711
88
89
89051
9
90
900
903
91
913
92
93
936
94
945
95
953
956
96
96082
967
97
971
977
977378
978
9780198606697
9780199773787
9781884446054
98
9821
99
99166
995
9983
:
;
<
=
>
?
@
[
\
]
^
_
`
a
aa
aaomega
aaron
aas
ab
abazajian
abbas
abc
abell
abgeordneten
abhishek
about
abraham
abs
ac
acade
academic
academie
academy
acb
accademia
accademiadellescienze
accuracy
acd
aces
achurchnearyou
acoustic
acoustical
acoustics
acs
act
acting
action
active
activities
actor
actress
ad
adaaf
adam
adams
adelman
adolf
adorocinema
adrian
adriano
adsabs
adw
ae
af
afc
affairs
afl
afltables
africa
african
after
agc
age
aged
agent
agorha
ags
agu
aguirre
ahmed
ahn
aid
air
airport
airportdata
airports
ak
akl
al
alain
alan
alastair
albareti
albert
alberto
albornoz
albumacademicum
alcorn
aldo
aleksandr
aleph
alessandra
alessandro
alex
alexander
alexandre
alexandroff
alexei
alexis
alfonso
alfred
ali
alice
alina
alison
all
allam
allan
allcargo
alle
allen
allende
aller
alliance
allmovie
allmusic
allocine
allplayers
allyn
alpaslan
alpha
altay
altieri
alvar
alvin
am
amar
ame
america
american
amir
amounts
amplified
amusement
an
ana
analysis
anb
ancient
and
anders
anderson
anderton
andre
andrea
andreas
andreu
andrew
andrews
andy
angel
angela
angus
aniello
animation
aniruddha
ann
anna
anne
annie
annuaire
anthony
antoine
anton
antonaldo
antoni
antonio
antonis
anz
aos
ap
apex
api
apiv
apj
apm
app
application
applied
appointments
april
ar
arago
archbishop
archinform
architecture
archive
archived
archives
are
area
arecibo
arel
argentina
argument
arizona
arjen
ark
arkive
armando
armengaud
army
arnaboldi
arnold
around
art
arthur
article
articles
artist
artiste
artistid
artists
artnet
arts
artworks
as
ashley
asian
asked
asp
aspx
assemblee
assembly
assemblylist
associac
association
asteroid
astronomical
astronomy
astrophysical
at
athlete
athletes
athletic
athletics
atlas
atle
atptour
atsuko
attachment
attempt
attribution
au
auction
audrey
august
auguste
augustus
aurelio
aussel
austin
australia
australian
austria
austrian
aut
auteur
auteurs
auth
authid
author
authorities
authoritiesdetail
authority
authors
av
avery
avibase
award
awards
away
awm
axel
az
b
ba
babak
babelio
babesdirectory
background
bad
badminton
baker
bakken
bal
balbinot
baldry
balestra
ball
bamford
band
bandwidth
bank
baptiste
baptized
barbara
bardelli
barentine
baron
barry
bartleby
baryon
base
baseball
basi
basilica
basin
basketball
bassett
basu
bautista
bay
bb
bbc
bbf
bbfc
bc
bcdbced
bd
bdfa
bdfutbol
be
beach
beaton
bec
becker
bedetheque
beers
befolkning
behind
beifiori
being
belgian
bell
belt
ben
bender
benedetta
benezit
benjamin
benne
benz
berenices
bergeron
berk
berlin
berlind
berman
bernard
bernardi
bernhard
best
beta
between
beutler
beweb
bezanson
bf
bg
bhardwaj
bhl
bianca
bibliogra
bibliographisches
biblioteca
bickerton
big
bill
bin
bio
biodisplay
biodiversity
biodiversitylibrary
biogra
biografia
biografias
biografico
biografie
biografier
biografischportaal
biografisk
biografski
biographi
biographical
biographie
biographies
biography
bioguide
biolib
bios
bird
birdlife
bis
bishop
bishops
biusante
biviano
bizyaev
bk
black
bland
blog
blue
bluemax
bm
bmm
bn
bne
bnf
bo
bob
bochanski
boissier
bold
bolton
bongiorno
book
books
boris
boroski
borough
bosch
boston
bovy
box
boxofficemojo
boys
bp
br
bradac
brammer
branchini
branimir
brett
brian
brice
bridge
bright
brightness
brill
brinchmann
brinkmann
britain
britannica
british
britishmuseum
britt
broadway
brockhaus
brough
brown
brownstein
bruce
brunner
bruno
brusa
bryan
bt
bu
budavari
building
bundestag
bundestages
bundy
burden
burditt
burtin
busca
business
bwf
by
c
ca
cae
cairns
calcio
calculator
calibration
california
cambre
cambridge
camera
cameron
camilla
campanas
campbell
canada
canadian
canal
capacity
capak
cappi
capsel
caputi
caracteristiques
cardinal
carey
carithers
carl
carliles
carlo
carlos
carnegie
carnero
carol
carole
carolina
caroline
carollo
carpenter
carrera
casetti
casey
cassata
cast
castander
castella
cat
catala
catalana
catalog
catalogo
catalogs
catalogue
catalonia
catechism
categorized
category
cathedral
catherine
catholic
catholics
cave
caverbob
caves
cb
cc
ccb
ccd
ccew
ccl
ccola
cd
cde
cdfs
cdr
ce
cedsci
cee
census
censuses
censusindia
center
centimeter
central
centre
century
cerl
cerros
cf
cfhtls
cfilm
cfm
cgi
ch
cha
chad
chamber
chambers
championship
championships
chancery
chandra
changbom
chaplin
character
characteres
charitysearchportlet
charles
charlie
charlot
charlotte
che
chemin
chemistry
cheney
chercher
chernykh
chess
chia
chiappetti
chiappini
chicago
chiesacattolica
china
chinese
chojnowski
chris
christ
christian
christianity
christoph
christophe
christopher
christy
chuang
church
ciliegi
cinabro
cinemagia
cites
cities
citizen
city
civil
cker
cl
claire
clara
clark
class
classic
classification
claude
claudia
cle
cleveland
club
clube
cluster
clusters
cm
cmd
cn
cnoc
cnp
co
coach
coast
cobiss
code
codes
codigo
coe
colbert
cole
collection
collections
college
colless
color
colorado
coloradopast
colour
columbia
com
coma
comastri
combo
commander
committee
commons
communist
communities
community
compact
companies
companion
company
comparat
comparison
compendious
competitorid
compiled
complete
complex
componenete
composer
comprehensive
concert
concerts
confirmation
conflict
congreso
congress
connection
connolly
conor
conselice
conservatory
consortium
constance
constituents
content
contents
coppa
copy
core
cornelis
coronavirus
correlation
cosmic
cosmicflows
cosmos
cote
could
council
counterparts
country
county
courtney
covering
covey
cowley
coxed
coxless
cqlmode
cqranking
craig
creative
creek
crepp
crimean
cristian
cristiani
cristiano
cristina
cristo
croom
cross
crown
cruz
cs
csabai
csfd
cso
csv
ct
cths
ctor
cu
cuesta
cullan
cultural
culture
cunha
cup
curid
current
cutri
cv
cy
cz
czarapata
czech
d
da
dabd
dac
dacs
daddi
dalton
dam
dan
dana
daniel
daniela
danilo
danish
danylyk
dario
dark
darsteller
daryl
das
data
database
databasefootball
dataset
datasets
date
datos
dave
davenport
david
davis
dawson
day
db
dbe
dbu
dc
dcd
dd
ddw
de
dead
dean
death
deb
december
deces
declination
deeann
deep
default
defence
definition
deg
degli
degruyter
del
delabrouille
delarge
delgado
delubac
demitri
democratic
demographics
demographie
demographiques
den
denis
denmark
dennis
deokkeun
dependence
deportes
deportista
deportivo
dept
deputato
deputes
deputy
der
derek
des
design
designation
det
detail
detailed
details
determination
deutsche
deutschen
devriendt
df
dfgrs
dfgs
dg
dhital
dhs
di
dia
diaferio
diagnostics
diamond
diane
dias
dib
diccionario
dick
dickey
dickinson
dictionary
dictionnaire
did
didok
die
died
diego
dies
dieter
difference
different
digibok
digital
digitalarchivioricordi
digos
dilday
dimitri
dinescu
diocesan
diocese
dioceses
diogo
diph
diphxd
diputados
director
directory
discogs
disney
display
distant
distinguished
distribution
distributions
district
districts
diversity
divisio
division
dizionario
dk
dmitry
dnb
do
doc
docorder
docs
doctor
document
documents
doi
dokkum
dokumentum
dominique
don
donald
dorta
doubles
douglas
download
downloads
dr
drama
drew
drinkwater
driver
driverdb
drivers
ds
dss
du
duke
durham
dustin
dutch
dw
dwarf
dwelly
dx
dye
dynamic
dynamical
dynamics
dynamo
dynt
dyntaxa
dz
e
ea
ead
eagle
eagles
ealet
earl
early
earth
east
easy
eb
ebelke
ebid
ebird
ec
ecc
eckert
eco
economics
economiques
ecs
ed
edcs
edgar
edge
edinburgh
edition
editors
edmondson
edmund
edu
eduard
eduardo
education
eduskunta
edward
edwin
ee
eec
ef
eff
effect
efron
eg
egypt
ehc
eileen
eionet
ek
el
elaine
election
electoral
electronic
elena
eleventh
elfilm
eli
elisabete
elisabeth
eliteprospects
elizabeth
eljko
ellis
elsworth
elvis
em
emanuele
eme
emeric
emil
emile
emily
eminent
emission
emma
emmanuel
empire
en
enciclope
enciclopedia
enciklopedija
encyclope
encyclopedia
encyclopedic
encyclopædia
encyklopedie
end
energy
eng
engineering
england
english
enplanements
enrique
entertainment
entity
entry
environment
environmental
environments
envwdqi
envwntvaw
envwntymw
enzo
enzy
eol
eorumque
epfl
eppo
epstein
equation
equipe
er
eracleous
eric
erica
erich
erik
erin
ernest
ernst
eros
es
esa
eschmeyer
escoffier
escude
esky
eso
espan
espn
espnfc
esport
esporte
est
establishment
establishments
estimates
et
ethnic
ethnicity
etienne
ettori
eu
euge
eugen
eugene
eurasia
euro
eurobasket
eurohockey
europa
europarl
europe
european
eusebio
ev
eva
evalyn
evans
event
evidence
evolution
ex
example
exe
expected
experiments
explanations
explore
explorer
exploring
extended
extensive
external
externalid
extragalactic
ez
ezo
f
fa
faa
fabio
fabrice
factor
facts
faculty
fall
false
fame
family
far
fast
fazenda
fb
fbf
fbref
fc
fcgi
fcollection
fd
fe
feb
february
federal
federation
federico
felipe
felix
fellow
fellows
fem
fembio
femeni
feminist
ferdinand
fergal
ferguson
ferna
fernando
festival
feuillet
ff
fff
ffu
fi
fiba
ficha
fiche
fichefilm
fichier
fico
ficos
fid
field
fields
fifa
fifo
figuram
figure
fiksid
file
files
filiz
film
filmaffinity
filmalkotasok
filme
filmek
filmes
filmportal
films
final
find
findagrave
finds
fine
finkelstein
finland
finley
finoguenov
fiorentin
first
fis
fisher
fk
flaherty
flavia
fleming
floc
florian
florida
florwering
flowering
flows
fmt
fn
fo
fols
font
fontana
football
footballdatabase
footballfacts
footpass
for
foradejogo
forces
foreign
forest
form
format
formation
former
forming
forrest
fort
fortifications
fortress
fossilworks
foster
fotbal
fotball
fotballdata
fotopoulou
foundation
four
fournon
fourstar
fourth
fperson
fr
fractions
franc
france
francesco
francess
francis
francisco
franco
francois
frank
frankcombe
franklin
franx
franz
franzetti
frau
frauendatenbank
fre
fred
frederick
free
freebase
french
frew
friedrich
frinchaboy
fritz
from
fruchter
fructificationis
fsgfort
fu
fuente
fukugita
full
fullcredits
fumagalli
fumana
func
function
functions
fundamental
fussballdaten
futebol
g
ga
gabriel
gabriella
gaia
gail
galactic
galaxies
galaxy
galbraith
gales
gallery
gama
game
games
gan
gao
garci
garilli
garrett
garth
gary
gas
gastaldello
gates
gaulme
gavin
gawiser
gazetteer
gb
gbif
gc
gcatholic
ge
gec
geimba
gemeinden
gen
gene
genealogics
genealogie
genealogy
geneastar
genera
general
genes
genetics
genome
geo
geographic
geography
geonames
geonet
georg
georgakakis
george
georges
gerard
gerhard
german
get
getperson
getty
gf
ghezzi
ghost
ghosttowns
ghosttownscanada
giavalisco
gil
gilbert
giovanelli
giovanni
girardi
girls
gis
giuseppe
gizis
gj
gks
glass
glazebrook
glen
glenn
global
globes
gml
gn
gnd
gnis
gnispq
go
gob
goff
gold
golden
goldsmith
gontcho
gonza
goods
google
gordon
got
gouv
gov
government
governor
gr
graciela
grado
graham
grammar
gran
grand
gray
graziano
graßhoff
gre
great
greece
green
greenwood
greg
gregory
grid
grism
grogin
group
groups
grove
grs
gru
gruen
grup
gsfc
gsi
gu
guangtun
guerra
guez
guide
guilhem
guillaume
guo
gustav
gutenberg
guy
guzzo
gv
gymnasium
gyoon
gz
h
ha
haggard
hakim
hall
halpenny
hamelin
hamilton
han
handball
handbook
handle
hans
hansard
hapoel
harald
harold
haroldcorwin
harris
harry
harvanek
harvard
has
hasinger
hasselquist
hawaii
hawley
hawthorn
hayden
hayley
hayne
hc
hcp
hdl
hds
he
hearty
heckman
hee
heiligenlexikon
heinrich
heinz
hekker
helen
helio
helmut
hendry
hennessy
henri
henry
her
herbert
heritage
herman
hermann
herna
herve
hessen
hi
hierarchy
high
higher
hill
hills
hilton
hindsley
hipass
hiroaki
hironao
his
histoire
historians
historic
historical
historicengland
historische
history
hk
hka
hl
hls
ho
hockey
hockeydb
hoffmann
hogg
holtzman
holwerda
holy
home
hon
hong
honorary
honour
honscheid
hoogleraren
hopkins
hospital
hotel
houdt
house
how
howard
howlett
hr
hrvatska
hrvatski
hst
hsun
htm
html
http
https
hu
huang
hubble
huber
hubert
hudson
huehnerhoff
hugh
hughes
hugo
human
hungarian
hutton
hx
hy
hyperleda
i
ia
iaaf
ian
iata
iau
ibarra
ibdb
ic
ica
ice
icofort
ictv
ictvonline
id
identifiants
identification
identifier
identity
idnes
if
ignasi
igor
ii
iii
ikt
il
ilbert
ilkid
illingworth
ils
im
imacs
images
imaging
imdb
imperial
improved
imslp
in
inaturalist
includes
increase
independent
index
india
indian
indiastatedist
indonesia
industry
ine
inebase
inese
infall
infante
info
information
infrared
inha
inhaprod
iniciativas
initial
insee
institut
institute
institutes
institution
instructions
int
integrated
interactive
intergalactic
international
internet
intratext
introduction
io
ioc
iop
iopscience
iovino
ipni
ipsb
ir
iras
ireland
irish
irmng
iron
is
isaac
isabart
isabelle
isbn
isfdb
island
ismael
isn
isni
isolated
israel
issn
ist
istva
istvan
isufs
isuresults
it
italian
italiani
italo
italy
itau
itaucultural
item
itemid
itis
its
iucn
iucnredlist
iv
ivan
ivans
ivezic
ivo
ix
j
ja
jabal
jack
jackson
jacob
jacopo
jacqueline
jacques
jahnke
jakob
james
jamie
jan
jane
janice
janine
january
japan
japanese
jarle
jarrett
jason
javier
jazz
je
jean
jeffrey
jennifer
jensen
jeremy
jessica
jeyhan
jiang
jim
jime
jimmy
jin
jk
jmovy
jn
jo
joachim
joan
jochen
joe
joel
johan
johann
johannes
john
johnny
johnson
johnston
jon
jonathan
jonay
jones
jong
joop
jordan
jordi
jorge
jose
josef
joseph
josha
joshua
joss
joueur
journal
journalism
joy
jp
jpg
jpl
jr
js
json
jsp
ju
juan
jubilee
judet
judith
judoinside
judoka
jugador
jules
julia
julian
julie
julien
julius
july
june
juneau
junior
jurek
justin
jx
k
ka
kac
kacprzak
kaike
kansanedustajat
karen
kariera
karina
karl
kartaltepe
kartik
kasper
katalogisering
katarzyna
katherine
katia
kawinwanichakij
kazu
kb
ke
keck
keith
keivan
kelly
kelson
kelvin
ken
kenneth
kertzer
kessler
kevin
kevork
kg
khee
khw
ki
kicker
kid
kim
kin
kindred
kinematics
kinemuchi
king
kingdom
kino
kirkby
kirpal
kisiid
kitaura
kk
klaene
klaus
kle
kleague
km
knaw
kneib
knight
knowledge
knud
ko
koda
koekemoer
koha
komiyama
kong
korea
kr
kriek
kris
krlez
kron
krzesinski
ks
ku
kuenstlerinnen
kulturarv
kulturnav
kunnskapsforlaget
kunstnerid
kurt
kurtz
kyiv
kyle
l
la
labbe
labour
ladies
lado
lady
lake
lalitwadee
lamb
lambda
lambiek
lamport
landshold
landsholdsdatabasen
lang
lange
language
large
larry
lars
las
last
latitude
laura
laurence
laurent
lauro
laval
lavaux
law
lawrence
lcauth
lcnaf
le
leaf
league
lebedeva
leda
ledelarge
lee
leela
legacy
leger
leipzig
leja
leksikon
lens
leo
leon
leonard
leonore
leopold
leopoldo
les
letters
levinson
lewis
lex
lexicographical
lexikon
lez
lfchistory
lfp
lh
li
lib
liberal
library
libris
licence
license
licensing
lie
life
liga
ligue
like
lilly
lima
limited
line
linhua
link
links
lint
lio
lions
liske
list
lister
listing
lists
literary
literature
little
littlefield
livres
ller
lng
lnk
lo
loc
local
localita
lod
london
long
lonsdale
loomis
loose
lop
lord
lorenzo
los
lotz
louis
louise
love
loveday
low
lrg
lt
lu
luan
luca
lucas
lucatello
lucey
lucia
lucio
ludwig
luigi
luis
luke
luminosity
luminous
lundgren
lupton
lus
lyon
lzmk
m
ma
maccabi
machine
mack
mackay
mackness
macs
macsg
madau
maddox
madore
magana
magda
magee
magellan
magnier
mahadevan
maia
maier
main
mainieri
majewski
major
mak
makeup
making
makler
makwww
malanushenko
malaysia
mammal
mammals
mamoru
man
mandelbaum
manera
manga
manuel
mao
map
mapress
maps
mapserver
mara
maraston
marc
marcel
marcella
march
marchesini
marchetti
marcio
marco
marcos
margala
margaret
margon
mari
maria
mariana
mariangela
marie
marijn
mario
mariska
mark
marriner
marshall
marti
martig
martin
martini
marulli
marus
mary
masami
masao
masataka
masato
maseda
mass
masses
massey
massimo
massive
master
masters
masx
match
matchid
math
mathias
mathur
matsubara
matt
matteo
matthew
matthias
mattia
maurice
mauro
max
may
mayor
małek
mcbride
mccarthy
mccracken
mcg
mcgee
mcgehee
mcgreer
mcmahon
md
me
measurements
med
medal
medel
media
medical
medicalnewstoday
medicine
medium
medlineplus
megan
mehmet
mehrtens
mehta
meiksin
melbourne
melchior
mellier
member
memberid
members
membership
membres
memorial
men
menanteau
mentalfloss
mep
meps
merging
merighi
merit
merloni
merluzzi
merriam
met
metacritic
metal
metallurg
method
metre
metres
mexico
meyer
mfgc
mi
miami
michael
michel
michele
michigan
micron
middle
mie
mignoli
miguel
mike
mil
military
milky
miller
milvang
milwaukee
minchin
mining
minister
minor
minorplanetcenter
minsk
minut
miralda
miroslav
mismatch
mission
mistral
mit
mitchell
mixed
miyatake
miyazaki
mjf
mkw
ml
mlb
mlssoccer
mn
mnras
mo
mode
mods
mohamed
mohr
moircs
mojo
molly
moma
monson
monte
montero
montesano
monthly
montreux
moore
more
morgan
morphological
morris
mort
moscardini
moscow
mosque
most
motifs
motions
mount
mountain
mountains
movement
movie
movies
mp
mr
mrk
ms
msl
mu
mub
mubdi
muckrack
mullally
multi
multicultural
muna
municipal
municipality
municipii
municipios
munn
munzinger
murphy
murray
museum
music
musicalics
musicbrainz
mutualart
mx
my
myers
myung
myungshin
mzk
n
na
nacional
nadia
nakajima
name
names
nanayakkara
nandra
nard
nasa
natalia
natalie
natascha
nathalie
nathan
nation
national
nationale
nations
natuknica
natural
naturales
naval
nb
nba
nbic
nbl
nbn
ncbi
ncpedia
nd
ndez
ndip
ndop
ndsu
ne
near
nearby
ned
neilsen
nelson
net
netadmin
netflix
neville
new
news
newton
next
nez
nfl
ng
nga
ngc
ngel
ngp
nhl
ni
nibles
nichol
nicholas
nicinski
nick
nicola
nicolas
nicole
nid
nidever
nieto
nih
nikolai
nil
nina
ninth
nitta
nizhny
nk
nkcr
nkp
nl
nla
nlk
nlm
nlp
nm
nmhh
nmvw
nndb
no
nobel
nobelprize
nodak
node
none
nonino
noosfere
norberg
norbert
norman
norsk
norske
north
northern
norwegian
not
noterdaeme
notice
notices
nova
november
npb
npg
nsicke
nther
ntk
nu
nuclei
nucleus
nukat
num
numauteur
numerum
nurten
nuza
nv
nw
nyilvantartasa
nypl
nytimes
nz
nzor
o
oak
obituaries
obituary
object
objects
observations
observatories
observatory
obtained
oc
och
oclc
october
octobre
odis
odnb
odonata
oefb
oemler
oesch
of
office
officer
officers
official
officielle
og
ogando
ois
okamura
ol
ola
old
oldest
olena
olga
olid
oliver
olivier
olmstead
olympedia
olympiad
olympic
olympics
om
omnium
on
one
online
onodera
ontan
opac
opdef
open
openlibrary
openstreetmap
opentransportdata
opera
optical
optically
or
orange
oras
oravetz
orbit
orcid
order
orders
oregon
org
origin
origins
orsay
ort
os
oscar
oscillation
osob
oss
other
otto
our
outfields
output
ov
overview
owers
oxford
oyaizu
p
pa
pablo
pacaud
pacific
pacifici
pad
padovani
padre
page
pageid
pages
pair
palaeolithic
palanque
paltani
pan
pantheon
paola
paolo
papovich
parameters
parejko
parihar
paris
parisdescartes
park
parker
parkes
parl
parlament
parliament
parlinfo
part
partium
party
pas
pasalodos
pascal
pasj
pasquier
passenger
passes
past
patel
patrick
patronage
pattarakijwanich
paul
paula
pauline
pawel
pb
pbs
pca
pcat
pdf
pe
peace
peculiar
peder
pedia
pedro
pello
people
pepper
per
percival
peredo
peregrine
perez
performing
permanent
perseus
person
persona
persone
personid
personnalites
personnes
persons
persoon
pertoire
pessoa
petchara
peter
petersburg
peterson
petitjean
pfc
pforr
pg
pgc
phane
phanie
philadelphia
philip
philipp
philippe
phillipps
philosophy
photographer
photometric
photometry
php
phylogeny
physical
physics
pi
pic
pictures
pid
pier
pieri
piero
pierre
pieter
pietro
pim
pimbblet
pinsonneault
pinto
piref
pisces
pl
place
plain
plane
planet
planets
planning
plant
plantarum
plants
player
playerid
playerinfo
playerpage
players
playmakerstats
plaza
plazi
plus
pm
pmc
pna
po
point
poland
polish
politics
poole
poor
pop
popescu
populat
population
populations
por
port
portal
portlet
portrait
portrattarkiv
portugal
post
postaux
potential
pourbaix
power
pozzetti
pp
pr
prachi
practical
pradas
prague
prakash
pre
prefix
prehistory
preis
premier
premierliga
prescott
present
presentation
president
press
presses
price
priest
priesthood
priests
prieto
primera
prince
principal
prior
prix
prize
pro
proballers
processing
productions
professionnels
profil
profile
profiles
project
projekte
proleksis
properties
proportionem
prosopographique
protein
province
provincias
ps
psb
pt
ptolemy
pub
public
publications
published
publishers
publishing
pubmed
purger
q
qc
qian
qingqing
qso
quadruple
que
queen
quentin
query
questions
quiescent
quinn
quora
qz
r
ra
race
rachael
rachel
raddick
radial
radio
radovich
rafael
rah
rahman
railway
railways
ral
ralf
ralph
ramella
ramin
ranalli
range
rangers
ranker
raquel
ravindranath
ray
raymond
rb
rc
rd
re
ready
real
realgm
rec
rech
record
records
red
redmapper
redshift
redshifts
reeder
rees
ref
refcelebrite
reference
region
regional
register
reiko
relacio
relation
relations
relativity
relativitycalculator
release
releaseinfo
releases
religious
renbin
rene
rentiels
report
reporter
reprezentace
reptile
republic
republican
republique
research
researchgate
resolve
resolver
resource
resources
response
rest
resultados
results
returns
reveal
review
rey
rez
rf
rg
rgph
ri
ribera
ric
rica
ricardo
riccardo
ricciardelli
rich
richard
richmond
rider
riderid
rio
ris
rism
rita
river
rivers
rk
rkd
rkdartists
rn
rncan
ro
rob
robert
roberto
robin
robinson
robotham
roc
rocha
rock
rockosi
rodri
rodrigues
roe
roger
roglo
rojo
roland
role
roma
romain
roman
romano
ron
ronald
ros
rosa
rosalind
rose
rosell
roser
ross
rossi
rotation
rotten
rowing
rowman
roy
royal
rp
rpl
rpp
rs
rster
rt
rtg
ru
rubin
rudolf
rugby
rupert
russell
russia
russian
ruth
rv
ry
ryan
rykoff
s
sa
sabrina
sadanori
sadler
safety
sahar
sahle
saint
saints
sako
salazar
salim
salvador
salvato
salzburgwiki
sam
samir
sample
samples
samuel
samushia
san
sanchez
sand
sanders
sandro
sansom
santa
santiago
santisteban
santos
sar
sara
sarah
sarbani
saskia
satya
saur
saurav
savant
savante
savita
sayres
sb
sbdb
sbn
sc
scale
scaling
scaramella
scarlata
scarre
schaye
schechter
schiavon
schinnerer
schlegel
schmidt
schneider
scholz
school
schools
schreiber
schubnell
schultheis
schweiz
schwope
science
sciences
sco
scodeggio
scott
scottish
scripts
sculls
sd
sdss
sdsscgb
se
sean
search
season
sebastia
sebastian
second
secondary
secretary
sectorcode
secundum
sedona
sejm
selected
sellgren
seminary
senat
senateur
senior
seo
separated
september
seq
serenelli
sereno
sergio
series
serra
server
service
services
servidorcgi
sesar
seven
seventh
seyfert
sf
sfd
sfix
sg
sh
shane
shanks
shannon
shapley
share
sharing
sharp
sheldon
shels
shen
sheth
shetrone
shimasaku
shota
show
shtml
shu
si
sibley
sierra
sikart
silva
silver
silverman
simbad
simmerer
simmons
simon
simone
simplesearch
since
singapore
singles
sir
site
sites
situm
sivarani
sivut
sixth
sj
sk
ska
skating
skelton
ski
skibba
skiing
sky
skyscraper
sl
sla
slaq
slc
sloan
slosar
sm
smail
small
smh
smith
smolc
sn
snaccooperative
snedden
snl
so
sobeck
sobreira
soccer
soccerbase
soccerdonna
soci
social
socialist
socie
society
socio
sok
someone
sotiria
soto
sotor
source
sources
south
southern
souto
soviet
sp
space
spanish
spartak
spatial
special
species
spectra
spectral
spectroscopic
spectroscopy
speed
spieler
spiral
spirit
spitler
spitzer
sport
sports
springer
springob
sq
squares
sr
srch
srcountry
srid
srlang
ss
ssd
sstr
st
sta
stabila
staff
stammdaten
stanford
stanley
star
stars
stassun
stat
state
states
station
statistics
statistik
stats
statsraadet
statue
staveley
stb
ste
stebbins
stefan
stefano
stellar
stello
sten
stephanie
stephen
steve
steven
stewart
stiavelli
stijn
stopklatka
store
storia
stortinget
story
stoughton
straatman
streaming
streblyanska
string
strip
stromlo
strong
structurae
structure
structures
stt
stu
stuart
studies
studios
study
stv
su
subbarao
subjectid
suchyta
summary
summer
sun
sune
sung
super
supercluster
supplement
sur
surface
surfacewaterbody
surhud
survey
surveys
sus
susan
sutherland
suto
suvrath
suzanne
sv
sveriges
svetlana
swanson
swara
swb
swedish
swimming
swiss
sx
sy
sycomore
sydney
syed
symphony
synchronkartei
system
systems
sz
sza
szabolcs
szapudi
szkody
t
ta
tab
table
tables
taibnet
takahiko
takhtajan
tal
talent
talk
tamas
tara
targeted
taxonomic
taxonredirect
taxref
tayar
taylor
tbol
te
team
teams
teatr
technical
technique
technology
tegmark
tejedor
tejos
telegraph
telescope
temple
tennis
terjesztett
term
terrien
terry
testbed
texas
textes
tff
tgn
tgs
th
thakar
that
the
theatre
theb
thebaseballcube
thefinalball
theguardian
their
thek
theme
themiya
theodor
theodore
thepeerage
there
thesaurus
theuns
thierry
third
thirupathi
thomas
thompson
threatened
through
ti
tico
tigers
till
tim
time
times
timothe
timothy
tinker
title
tk
tkrs
tmf
to
tobias
today
todd
toft
tojeiro
tokyo
tom
tomatoes
tomer
tommaso
tony
toolforge
tools
top
topic
topics
toronto
torpedo
torres
tournamentsoftware
towards
town
tr
tracesofwar
tradingcarddb
transfermarkt
treatise
treccani
tree
tremonti
trends
trenti
tresse
treu
trinity
trm
trojan
trophy
troup
trove
true
tsn
tt
tu
tucker
tully
turner
tuttocalciatori
tv
tvurce
tw
twelfth
two
tx
type
types
u
ua
ub
ubio
uchi
uci
ud
uddin
uds
uefa
ufi
ugc
uielem
uk
ukst
ulan
ulanfulldisplay
ulf
ultra
ultraviolet
ultravista
um
ummi
un
und
under
understandings
unesco
uni
union
unique
united
universe
universidad
universite
university
uomoto
up
update
updated
uploads
uppsala
uri
url
urn
urry
us
usa
use
user
uses
usgs
uslchampionship
ussr
uuid
uv
uva
uvistadr
uzc
ußler
v
va
vachon
vaishali
valena
valley
value
van
vanden
vandenberg
vararepresentant
vargas
vasey
vatican
vatlib
vcba
ve
velocities
velocity
vergani
verification
verlag
verlst
verne
vernesa
version
vi
viaf
vic
victor
victoria
victory
video
viel
vienna
vietnam
view
viewed
vignali
vii
viktor
vimos
vincent
vincenzo
violent
vip
vipers
virginia
virgo
vision
viskunstner
visual
vizier
vladimir
vlt
vocab
vocation
vogeley
volume
von
votes
vow
vre
vse
vulcani
vvds
w
wa
wadadekar
wales
walker
walt
walter
walth
wang
war
ward
warren
warsaw
was
washington
watson
way
wayback
wayne
wc
wd
wdeep
wdk
we
weaver
web
website
webster
weiner
wel
wells
welsh
wer
werner
west
western
wfc
wfd
what
whelan
where
whitaker
white
who
whoswho
wi
wiag
wide
widely
wielki
wigglez
wiki
wikidata
wilhelm
wilhite
will
willem
william
williams
wilson
wings
winter
wisconsin
wise
wisniewski
wisnioski
wissen
with
within
wlong
wm
wmflabs
wnba
wolfgang
woman
women
wood
work
works
world
worldathletics
worldcat
worldfootball
worldrowing
worlds
worldtimezone
worldwide
worms
wp
wright
writers
wsc
wu
wuyts
wwer
www
wyatt
x
xavier
xbox
xinglong
xls
xlsx
xml
xslt
xv
xx
xxl
y
yan
yannick
yanny
yasushi
ye
year
years
yemen
yiping
yogesh
york
you
young
yr
yu
yue
yutaka
yves
yvonne
z
za
zakamska
zamora
zamorani
zanichelli
zasowski
zcosmos
zealand
zfourge
zhu
zibetti
zinn
znf
zone
zoo
zoobank
zootaxa
zt
zu
zucca
zucker
zwicky
{
|
}
~
«
®
°
·
»
×
ø
ʹ
ʻ
ʿ
ˈ
ː
̀
́
̂
̃
̄
̆
̇
̈
̊
̋
̌
̓
̣
̦
̧
̨
α
μ
ν
ο
ς
а
банк
большая
в
видатних
г
жінок
и
про
с
советская
энциклопедия
інформаціі
חה
כ
،
؛
؟
ا
اب
اباد
ابتدا
ابتداي
ابتدت
ابتعادها
ابجدى
ابدول
ابراج
ابراهام
ابراهيم
ابردين
ابرشيه
ابريل
ابطال
ابن
ابنه
ابو
ابوت
ابوسوم
ابون
ابى
ابيب
ابيتيبى
ابيض
ابيل
ات
اتا
اتبنى
اتجاه
اتحاد
اتسمت
اتسمى
اتش
اتعمل
اتفتح
اتكينسون
اتلانتا
اتلتيك
اتلتيكو
اتلعب
اتليتيكو
اتوفى
اتولد
اتولدت
اتيان
اتيلا
اتين
اثار
اثاره
اثلتكس
اثلتيك
اثنيوم
اثيل
اثينا
اثيوبيا
اجتماع
اجرام
اجريف
اجسطس
اجل
اجناطيوس
اجنبى
اجنيس
اجوستين
اجوستينو
احسن
احصاء
احصاءات
احصاي
احمد
احمر
احياء
اخبار
اختصار
اخر
اخراج
اخضر
اد
ادا
ادارة
اداره
ادارى
اداريا
اداريه
ادبى
ادجار
ادريان
ادريانا
ادريانو
ادريس
ادرين
ادلر
ادم
ادمس
ادمون
ادمونتون
ادموند
ادنبره
ادو
ادوار
ادوارد
ادواردز
ادواردس
ادواردو
ادولف
ادولفو
ادوين
ادى
اديت
اديث
ادير
اديسون
اديل
اديلايد
ادين
ادڤانتشر
اذربيجان
اذيربايجان
ار
اراجون
اربع
اربعين
ارت
ارتور
ارتورو
ارتيم
ارتيوم
ارثر
ارجن
ارجنتين
ارستقراطى
ارستقراطيه
ارسنال
ارسولا
ارسين
ارشمندريت
ارشيبالد
ارشيف
ارض
ارفين
ارفينج
اركان
اركنساس
اركى
اركيبالد
اركيف
ارماند
ارماندو
ارمسترونج
ارميا
ارمين
ارمينيا
ارن
ارنسانت
ارنست
ارنو
ارنولد
ارنى
ارنيسانت
ارنيستو
ارهاب
ارون
ارونديسيمينت
اروين
ارويو
ارى
ارياس
اريتش
اريخي
اريزونا
اريس
اريك
اريكا
اريكسون
اريل
ارين
ازرق
ازياء
اس
اسا
اساتذه
اساسى
اسبانيا
اسبنسكروم
اسبنكريسينفو
استاذ
استاذه
استان
استانبول
استحقاق
استر
استرادا
استرالى
استراليا
استرو
استريد
استشهاد
استقلاب
استقلال
استنادى
استون
استونيا
استيبان
استير
استينيا
اسحاق
اسد
اسديبى
اسراي
اسطنبول
اسطوانات
اسقف
اسكتلندا
اسكندر
اسكندريه
اسلام
اسم
اسماعيل
اسماك
اسمه
اسمها
اسود
اسونسيون
اسى
اسيا
اسيوط
اش
اشباح
اشتغل
اشتغلت
اشتون
اشخاص
اشلى
اشهر
اصحاب
اصفر
اصفهان
اصل
اصناف
اصنوفة
اصوات
اطلع
اطول
اعضاء
اعظم
اعلى
اعمال
اعمق
اغانى
اغريف
اغسطس
اف
افتتح
افتراضى
افرايم
افريقى
افريقيا
افريكولتوريس
افستاتيو
افضل
افغانستان
افلام
افونسو
افيباس
افيرى
افيس
اقتصادى
اقتصاديه
اقليم
اكاديمك
اكاديمى
اكاديمية
اكاديميه
اكبر
اكتب
اكتر
اكتشف
اكتشفه
اكتشفها
اكتوبر
اكزتر
اكس
اكسبريس
اكسفورد
اكسل
اكسيل
اكشن
اكوادور
اكود
اكوستا
اكى
اكيرا
اكيل
ال
الا
الاب
الاباما
الابتداي
الابن
الابيض
الاتجاه
الاتحاد
الاتحادى
الاتحادي
الاتحاديه
الاتحاديين
الاثقال
الاجتماعى
الاجتماعيه
الاجرام
الاجنحه
الاحتفال
الاحصا
الاحصاءات
الاحمر
الاحياء
الاحياي
الاخضر
الاخير
الادارى
الاداريه
الادب
الادبيه
الارجنتين
الارجنتينى
الارجنتينيه
الارجوانى
الاردن
الارشيف
الارض
الارضيه
الارهاب
الازرق
الازهار
الاسبانى
الاسبانيه
الاستحقاق
الاستخبارات
الاسترالى
الاستراليه
الاستنادي
الاستواء
الاسد
الاسراي
الاسقفيه
الاسكا
الاسكتلندى
الاسكندريه
الاسلام
الاسلاميه
الاسم
الاسماك
الاسنان
الاسود
الاشباح
الاشتراكى
الاشتراكيه
الاصدار
الاصغر
الاصفر
الاصلى
الاصنوفات
الاصنوفه
الاصوات
الاطلاع
الاعتدال
الاعداديه
الاعضاء
الاعظم
الاعلام
الاعلى
الاعمال
الافتراضي
الافتراضيه
الافريقى
الافريقيه
الافل
الافلام
الاقتصاد
الاقتصادية
الاقليمى
الاكاديمى
الاكاديميه
الاكبر
الاكتشاف
الاكليل
الالب
الالبانى
الالتفاف
الالعاب
الالكترونى
الالمانى
الالمانيه
الالوان
الام
الامارات
الامبراطور
الامبراطوريه
الامتداد
الامريكانيه
الامريكتين
الامريكى
الامريكية
الامريكيه
الامم
الامير
الاميره
الان
الانترنت
الانتصار
الانتقالات
الانجليزى
الانجليزيه
الانحراف
الانديه
الانزياح
الانساب
الانسان
الانسانيه
الانف
الانهار
الانواع
الاهلى
الاوبرا
الاوراق
الاوروبى
الاوروبيه
الاوروجواى
الاوسترالى
الاوسكار
الاوكرانى
الاول
الاولانى
الاولمبى
الاولمبيه
الاولى
الايرلندى
الايرلنديه
الايطالى
الايطاليه
الاين
البا
الباب
البابا
البابوية
البابويه
الباحث
البارالمبيه
البارون
البافارى
البافاريه
البالينولوجيه
البانى
البانيا
الببليوجرافيا
البحث
البحر
البحرين
البحريه
البحوث
البحيره
البدايه
البرازيل
البرازيلى
البرامج
البرت
البرتا
البرتجال
البرتغال
البرتو
البرشت
البرلمان
البرلمانى
البرلمانية
البرلمانيه
البرماي
البروج
البروسيه
البرونزيه
البريتشت
البريشت
البريطانى
البريطاني
البريطانية
البريطانيه
البريه
البشرى
البطن
البطوله
البعد
البقاع
البلاد
البلجيكى
البلد
البنى
البو
البوابه
البورتوجالى
البوسنه
البولندى
البولندية
البولنديه
البوندستاج
البى
البيانات
البيت
البيرت
البيرتو
البيروفى
البيسبول
البيضاء
البين
البيولوجى
البيولوجي
البيولوجيا
البيون
البيي
الت
التا
التاريخ
التاريخى
التاريخي
التاريخيه
التاسع
التالت
التالته
التاملى
التامن
التانى
التانيه
التجديف
التجمع
التحرير
التداول
التذكارى
التذكاريه
التراث
الترفيهيه
التركى
التركي
التزلج
التسعتاشر
التسلسل
التشريفيه
التشيك
التشيكى
التشيكي
التشيكيه
التشيلى
التصنيف
التصنيفيه
التطبيقيه
التطور
التطوير
التعليم
التقانه
التقدمى
التقسيم
التقسيمات
التقنيه
التقويم
التكنولوجيه
التلج
التماثيل
التناوب
التنس
التنميه
التنوع
التنوير
التوامان
التون
التونسى
التونسيه
التويتر
التي
الث
الثابته
الثالث
الثالوث
الثامن
الثانويه
الثانى
الثاني
الثانيه
الثدييات
الثقافة
الثقافه
الثقافى
الثلج
الثلجيه
الثلوج
الثور
الثوره
الثورى
الجامع
الجامعات
الجامعة
الجامعه
الجامعى
الجامعيه
الجايزه
الجبار
الجبال
الجبل
الجبليه
الجديد
الجديدة
الجديده
الجراب
الجرذ
الجرم
الجرى
الجريجورى
الجريجوريه
الجزء
الجزاي
الجزاير
الجزيره
الجزيي
الجسم
الجغرافي
الجغرافية
الجغرافيه
الجليد
الجماعيه
الجمال
الجمباز
الجمعية
الجمعيه
الجمهورى
الجمهوريه
الجميلة
الجميله
الجنه
الجنوب
الجنوبى
الجنوبي
الجنوبيه
الجهاز
الجو
الجودو
الجول
الجوى
الجويه
الجيزه
الجيش
الجيم
الجينوم
الحاج
الحادى
الحب
الحبريه
الحته
الحجر
الحجم
الحديث
الحديثه
الحديدى
الحديديه
الحر
الحرب
الحرة
الحره
الحريه
الحزب
الحسن
الحشرات
الحصون
الحضاره
الحضيض
الحقل
الحقوق
الحقيقى
الحكم
الحكوميه
الحكيم
الحليم
الحمام
الحمراء
الحمل
الحميد
الحوت
الحوسبه
الحياة
الحياه
الحيه
الحيوانات
الحيوانى
الحيوى
الحيويه
الخارجى
الخارجيه
الخاص
الخاصه
الخامس
الخدمه
الخديويه
الخرسانه
الخشب
الخضر
الخطوط
الخليج
الخنافس
الخيال
الد
الداخل
الدار
الدانماركى
الداي
الدايره
الدراجات
الدراسات
الدراسه
الدراما
الدرجة
الدرجه
الدفاع
الدفع
الدقهليه
الدكتور
الدكتوراه
الدلو
الدليل
الدم
الدنمارك
الدنماركي
الدنماركيه
الدنيا
الدو
الدوران
الدورى
الدوري
الدول
الدولة
الدوله
الدولى
الدولي
الدولية
الدوليه
الدوما
الدومينيكان
الدير
الديمقراطى
الديمقراطيه
الديموقراطى
الديموقراطيه
الدين
الديناميكا
الذاتية
الذاتيه
الذباب
الذهب
الذهبى
الذهبيه
الذى
الذي
الذيل
الرابطة
الرابطه
الرابع
الرابعه
الراج
الراديكالى
الراس
الراصد
الراعى
الراي
الرايخ
الرايخستاج
الراين
الرايه
الرباط
الربيعى
الرتبه
الرجال
الرجبى
الرجبي
الرجل
الرحمن
الرخصة
الرخويات
الرسمى
الرسميه
الرصد
الرقص
الرقمى
الرقمية
الرقميه
الرمى
الروح
الروس
الروسى
الروسي
الروسية
الروسيه
الروك
الروم
الرومانى
الرومانية
الرومانيه
الري
الرياض
الرياضه
الرياضى
الرياضيات
الرياضية
الرياضيه
الرياضيين
الريتش
الريشه
الريفى
الريك
الریفى
الزاويه
الزراعه
الزعانف
الزواحف
الس
السا
السابع
السادس
الساعيه
السالفادور
السامية
الساي
السباحه
السبع
الست
الستات
السجل
السرعه
السريع
السطر
السعودى
السعوديه
السفارة
السفاره
السفلى
السكان
السلام
السلة
السلسله
السلطان
السله
السلوفاكيه
السلوفينى
السماوى
السماويه
السنة
السنجاب
السنه
السنويه
السوبر
السوداء
السودان
السوفيتى
السوفيتيه
السوفييتى
السوق
السويد
السويدى
السويدي
السويدية
السويديه
السويس
السويسرى
السويسري
السويسريه
السى
السياسيه
السيد
السيدات
السيده
السير
السيرة
السيره
السيمفونيه
السيناريو
السينما
السينماي
الشارع
الشاطي
الشام
الشامل
الشاي
الشباب
الشبكات
الشبكه
الشتويه
الشجاع
الشجر
الشجره
الشخصيات
الشذوذ
الشرف
الشرق
الشرقى
الشرقيه
الشركات
الشركه
الشريف
الشطرنج
الشعاعيه
الشعب
الشعبى
الشعر
الشعوب
الشغل
الشقيقه
الشكل
الشمال
الشمالى
الشماليه
الشمس
الشمسى
الشمسي
الشهره
الشورى
الشيخ
الشيطان
الشيوخ
الشيوعى
الصاعده
الصالات
الصحراء
الصحية
الصحيه
الصداقه
الصدر
الصغرى
الصغير
الصغيرة
الصغيره
الصفحة
الصفحه
الصليب
الصليبى
الصليبيين
الصناعيه
الصوت
الصور
الصيفيه
الصين
الصينيه
الض
الضباط
الضبط
الضفدع
الضوي
الطاوله
الطاي
الطايره
الطب
الطبى
الطبيعه
الطبيعى
الطبيعيه
الطبيه
الطريق
الطماطم
الطول
الطويل
الطيران
الطيور
الظاهر
الظاهرى
الظهر
العاب
العاشر
العاصفه
العاصمه
العاقل
العالم
العالمى
العالمي
العالمية
العالميه
العالى
العالي
العام
العامة
العامل
العامه
العاي
العبريه
العدد
العدرا
العدل
العديد
العذراء
العراق
العرب
العربى
العربي
العربيات
العربية
العربيه
العرش
العرض
العرقيه
العزيز
العسكرى
العسكريه
العسل
العشرين
العصر
العصور
العظمى
العظيم
العقاب
العقده
العلم
العلمى
العلميه
العلوم
العليا
العمارة
العمال
العمالى
العمر
العمق
العمل
العملاق
العموم
العمومية
العنقاء
العنكبوتيات
العنوان
العهد
العيش
العين
العيون
الغالب
الغبار
الغرب
الغربى
الغربيه
الغلاف
الغنا
الـ
الف
الفا
الفاتيكان
الفار
الفارس
الفارسيه
الفارو
الفاريز
الفاسده
الفتح
الفتره
الفخريه
الفراشات
الفربيون
الفرد
الفرق
الفرنساوى
الفرنسى
الفرنسي
الفرنسية
الفرنسيه
الفريد
الفريدو
الفريق
الفضاء
الفضاي
الفضى
الفضيه
الفطريات
الفعل
الفلبين
الفلك
الفلكى
الفلكية
الفلكيه
الفن
الفنان
الفنانين
الفنلندى
الفنلندي
الفنون
الفنى
الفنيه
الفهارس
الفهرس
الفهرسة
الفولجا
الفونس
الفونسو
الفي
الفيدراليه
الفيروسات
الفيزياي
الفيس
الفيفا
الفيل
الفيلم
الفيليبين
الفين
الفيوم
القابلة
القادر
القارات
القارى
القاعدة
القاعده
القاموس
القانون
القاهرة
القاهره
القاي
القبرصى
القبطى
القدر
القدس
القدم
القديس
القديسه
القديسين
القديم
القديمة
القديمه
القرن
القرنين
القرون
القريبه
القزم
القسطنطينيه
القسم
القصر
القطر
القطع
القفز
القلاع
القلب
القلعه
القمر
القمم
القناه
القنوات
القوات
القوس
القومى
القوه
القوى
الك
الكاتالانية
الكاتالونى
الكاتوليك
الكاثوليك
الكاثوليكى
الكاثوليكي
الكاثوليكيه
الكامل
الكاميرون
الكاي
الكبار
الكبارى
الكبرى
الكبير
الكبيره
الكتاب
الكتالانيه
الكتالونية
الكتب
الكتله
الكرة
الكركى
الكره
الكريكت
الكريكيت
الكريم
الكساندرا
الكسندر
الكسندرا
الكسيس
الكلاب
الكلاسيكية
الكلاسيكيه
الكليه
الكندى
الكندي
الكندية
الكنديه
الكنيسة
الكنيست
الكنيسه
الكهرومغناطيسى
الكهرومغناطيسيه
الكهوف
الكواكب
الكوره
الكورى
الكوري
الكوريه
الكوكب
الكوكبه
الكومنولث
الكومونويلث
الكوميديين
الكونت
الكونجرس
الكونجو
الكونغرس
الكونيه
الكويت
الكويكب
الكويكبات
اللازم
اللبنانى
اللجنة
اللجنه
اللعبه
اللغة
اللغه
الله
اللورد
اللوردات
اللون
اللى
اللي
الليبرالى
الليتوانى
الليل
اللينك
الم
الما
الماء
الماسى
المالطى
المانيا
الماي
المتاح
المتحد
المتحدة
المتحده
المتحف
المتزامن
المتعدده
المتكامل
المتوسط
المتوسطه
المجالات
المجتمع
المجر
المجره
المجرى
المجريه
المجلة
المجلد
المجلس
المجمع
المجموعات
المحافظ
المحافظين
المحترفة
المحترفه
المحترفين
المحرر
المحصوره
المحفوظات
المحلى
المحور
المحيط
المختاره
المخترع
المخروطى
المخطط
المدار
المدارات
المدارى
المداريه
المدرسه
المدن
المدنى
المدنيه
المدينة
المدينه
المر
المراه
المرجع
المرجعى
المرصد
المرفق
المركز
المركزى
المركزي
المركزيه
المريخ
المساحه
المساهمون
المستحاثات
المستقله
المستقيم
المستوى
المسرح
المسرحية
المسرحيه
المسلحه
المسلمين
المسو
المسيح
المسيحى
المسيحيه
المسيحيين
المشاريع
المشاع
المشاهير
المشترى
المشتقات
المشى
المصارعه
المصرى
المصري
المصرية
المصريه
المصريين
المصورين
المضرب
المضمار
المضيفه
المطلع
المطلق
المعاصر
المعاصره
المعبد
المعتدل
المعجم
المعرف
المعرفه
المعركه
المعلومات
المعمدان
المعهد
المعيارى
المغرب
المغلق
المغموره
المغناطيسيه
المغول
المفتوحة
المفتوحه
المفهرس
المقال
المقالة
المقدس
المقدسه
المقدمه
المقوسه
المقياس
المقيمين
المكافي
المكانية
المكتب
المكتبات
المكتبة
المكتبه
المكرم
المكسيك
الملاكمه
الملز
الملزمة
الملف
الملك
الملكه
الملكى
الملكية
الملكيه
الملوك
المماليك
الممتاز
الممثل
المملكة
المملكه
المناصب
المنافسه
المنتخب
المندوبية
المنطقه
المنقار
المنوفيه
المنيا
المهدده
المو
المواهب
الموت
الموجه
الموجود
الموحد
الموسم
الموسوعة
الموسوعه
الموسيقى
الموسيقي
الموسيقيه
الموضوع
الموقع
المي
الميادين
الميدا
الميداليه
الميدان
المير
الميزان
الميكانيكا
الميكسيك
الميل
الميلاد
الميلان
الميه
الن
الناحيه
النادى
النادي
النار
الناريه
النازى
النازيه
الناس
الناشر
الناصر
الناقص
الناي
النبات
النباتات
النباتيه
النبانات
النبتات
النبلاء
النبى
النجم
النجمه
النجوم
النخب
النخبة
النخبه
النرويج
النرويجى
النرويجي
النرويجية
النرويجيه
النساء
النساي
النسر
النشر
النص
النصر
النصية
النط
النظام
النفاث
النمسا
النمساوى
النمساوي
النمساوية
النمساويه
النهاي
النهر
النهضه
النواب
النوردى
النيشان
النيل
النيوتريونات
النيوزيلنديه
الهدف
الهرسك
الهرمى
الهرمي
الهلال
الهند
الهندى
الهنديه
الهوكى
الهوكي
الهولندى
الهولنديه
الهيدروجين
الهيليوم
الهيي
الو
الوجه
الورد
الوزراء
الوسام
الوساي
الوسط
الوسطى
الوسيط
الوصول
الوطن
الوطنى
الوطني
الوطنية
الوطنيه
الوعاي
الوغاريتمى
الوقت
الولايات
الونسو
الونيت
الوهاب
الويس
الويسيوس
الى
اليابان
اليابانى
الياباني
اليابانية
اليابانيه
الياس
اليانور
اليخاندرو
اليد
اليزابيث
اليس
اليسا
اليسار
اليسارى
اليساندرو
اليسون
اليسيا
اليسيو
اليشا
اليك
اليكس
اليكساندار
اليكساندر
اليكساندرا
اليكساندرو
اليكساندير
اليكسى
اليكسيس
اليمن
اليمني
الين
الينا
الينوى
اليهود
اليو
اليوبيل
اليوت
اليوثيروداكتيلوس
اليوم
اليونان
اليونانى
اليونانيه
اليچاندرو
الڤارو
الڤاريز
الڤيس
ام
اما
امام
امان
اماندا
امانويل
امبراطور
امبراطوريه
امبروز
امر
امرا
امريكا
امريكانى
امريكى
امريكية
امريكيه
امستردام
امفيبياويب
امم
امهرست
اموس
امى
اميت
اميدى
امير
اميرة
اميره
اميرى
اميس
اميل
اميلى
اميليا
اميليو
امين
امينه
ان
انا
اناتول
اناتولى
اناستاسيا
انت
انتاج
انتجته
انتر
انترتنمنت
انتريه
انتهى
انتون
انتونى
انتونين
انتونيو
انتويرب
انتوين
انتى
انثروبولوجيا
انثونى
انج
انجا
انجريد
انجل
انجلاند
انجلترا
انجلس
انجلش
انجلوس
انجليزى
انجليس
انجو
انجوس
انجولا
انجى
انجيل
انجيلا
انجيلو
انجيليس
انحراف
انخيل
اند
اندر
اندراس
اندراى
اندرزيچ
اندرس
اندرسن
اندرسون
اندرو
اندروز
اندروس
اندروميدا
اندرى
اندريا
اندرياس
اندريس
اندريه
اندريچ
اندو
اندورا
اندونيسيا
اندى
انديانا
انديانابوليس
انديانز
انديبندينتى
انديرس
انديرسون
انديز
انديه
انريكو
انريكى
انزمبل
انزو
انسان
انسبروك
انطوان
انطون
انطونيو
انظمة
انقره
انقليس
انه
انها
انهالت
انهم
انو
انواع
انور
انى
انيا
انيت
انيتا
انيس
اه
اهل
اهليجى
اهم
اهميد
او
اوبرا
اوبراين
اوبرى
اوبسالا
اوبلاست
اوبورج
اوبى
اوبينبوليس
اوبينملول
اوت
اوتاوا
اوتاوى
اوتريخت
اوتفيلدر
اوتو
اوتيس
اوجاست
اوجاندا
اوجست
اوجستين
اوجسطس
اوجسطين
اوجوسانت
اوجوست
اوجوستا
اوجوستو
اوجوستوس
اوجوستين
اوجين
اوجينيو
اود
اودرى
اودو
اودونيل
اوديسا
اور
اوراق
اورانج
اورايجا
اورتيجا
اورتيز
اورج
اورسولا
اورسيد
اوركسترا
اورلاندو
اورليان
اورليانز
اورلينز
اوروبا
اوروبى
اوروجواى
اورورا
اورى
اوريجون
اوريل
اوريليو
اورينت
اوريول
اوريولز
اوزبيكيستان
اوزوالد
اوزيرو
اوسا
اوساكا
اوسبورن
اوستراليا
اوستريا
اوستريك
اوستن
اوستين
اوسكار
اوسلو
اوف
اوفير
اوك
اوكرانيا
اوكس
اوكسفورد
اوكلاند
اوكلاهوما
اوكونور
اوكى
اول
اولا
اولاد
اولاف
اولجا
اولد
اولدهام
اولريش
اولسن
اولسون
اولمبياد
اولمبيك
اولمبيه
اولوف
اولى
اوليج
اوليفر
اوليفيا
اوليفيرا
اوليفييه
اوليكساندريه
اوليمبياد
اوليمبيه
اوليه
اوليڤير
اوليڤيرا
اومار
اون
اونتاريو
اونو
اونيفرسيداد
اونيل
اوه
اوهارا
اوهايو
اوى
اويدا
اويزومى
اوين
اوينز
اوپن
اى
اي
اياكس
ايالا
ايام
ايان
ايبراهيم
ايتو
ايتون
ايجلز
ايجناسيو
ايجور
ايد
ايدا
ايداهو
ايدى
ايدين
اير
ايرا
ايران
ايرل
ايرلاندا
ايرلندا
ايرنسانت
ايرنست
ايرنى
ايرنيست
ايرى
ايريدانوس
ايريس
ايريك
ايرين
ايرينا
ايزابيل
ايزابيلا
ايزيدور
ايسابيل
ايساك
ايست
ايستڤان
ايسلاند
ايسلاندا
ايسمايل
ايشى
ايشيكاوا
ايطاليا
ايف
ايفا
ايفان
ايفانز
ايفانوف
ايفرت
ايفرتون
ايفلين
ايفو
ايفون
ايفين
ايك
ايكاترينا
ايكوكروب
ايل
ايلا
ايلان
ايلاند
ايلست
ايلى
ايليا
ايلين
ايلينا
ايلينوى
ايم
ايما
ايمانويل
ايمرسون
ايمى
اين
اينا
اينار
اينجريد
ايند
اينو
اينيس
ايه
ايهور
ايوا
ايوان
ايوب
ايون
ايڤا
ايڤار
ايڤان
ايڤانس
ايڤو
اپير
اڤجينى
اڤيلين
ب
با
باب
بابا
بابتيست
بابلو
بابوا
بابيليو
بات
باتجاه
باترسون
باتريشيا
باتريك
باتل
باتلر
باتون
باتى
باتيس
باتيستا
باث
باحث
باخ
باد
بادريس
بادما
بادن
بادوفا
بادى
بار
بارا
باراجواى
باربارا
باربرا
باربل
باربوسا
بارت
بارتليت
بارتولوميو
بارتون
بارتيزان
بارسلونا
بارسونز
بارك
باركر
باركلى
بارلو
بارما
بارنارد
بارنت
بارنز
بارنسلى
بارنى
بارنيت
بارو
باروس
بارون
بارى
باريت
باريس
باز
بازل
بازيليك
باس
باسكال
باسكت
باسم
باسو
باسيل
باش
باشا
باغ
بافاريا
بافالو
بافل
بافيل
باك
باكرز
باكستان
باكستر
باكو
بال
بالا
بالاتينات
بالاسم
بالانجليزى
بالانزياح
بالانقراض
بالتالى
بالتيمور
بالدوين
بالذكرى
بالرمز
بالسالب
بالسلطه
بالسيف
بالضبط
بالفارسى
باللغة
باللغه
بالمثل
بالمر
بالمملكه
بالموجب
بالموسيقى
بالمياه
بالنسب
بالنسبه
بالومار
بالى
باليرمو
باليه
باميلا
بان
بانثرز
بانج
بانجلاديش
باندكامب
بانك
بانكس
باهكال
باهيا
باو
باور
باورز
باول
باولو
باومان
باى
بايام
باير
بايرتس
بايرن
بايرون
بايك
بايلى
باين
باپتيسانت
بباريس
ببساطه
ببغاء
بتاريخ
بتاع
بتبعتها
بتتبع
بتتجمع
بتتشاف
بتتعرف
بتتنظم
بترتفع
بترفده
بتزداد
بتشتغل
بتعتبر
بتعرض
بتقدم
بتقل
بتكون
بتلر
بتلعب
بتمتد
بتنقاس
بتهدف
بثمن
بجامعة
بحث
بحثيه
بحر
بحرى
بحوث
بحيث
بحيرات
بحيره
بخش
بدا
بداعي
بداي
بداية
بدر
بدور
بدون
بديل
برابوك
برات
براتيسلافا
براج
براجا
براد
برادفورد
برادلى
برادى
برازيل
برازيليا
براند
براندان
براندت
براندنبورج
براندون
برانكو
براهيم
براون
براونز
براونشفايج
برايان
برايتون
برايس
براين
براينت
برتبه
برتراند
برث
برج
برشلونة
برشلونه
برشية
بركلى
برلمان
برلين
برمجيات
برمنجهام
برمينجهام
برن
برنارد
برناردو
برنامج
برنستين
برنهارد
برنو
برنيس
برو
بروبولرز
بروج
بروخروف
برودواى
برودواي
برودى
بروزوڤيك
بروس
بروسيا
بروفسور
بروك
بروكس
بروكسل
بروكسيل
بروكلين
بروكهوس
برولكسيس
بروميتش
برون
برونر
برونزويك
برونكس
برونكوز
برونو
بروير
بروينز
برى
بريان
بريت
بريتا
بريتانى
بريتانيكا
بريتو
بريتون
بريتيش
بريجز
بريجيت
بريس
بريسا
بريستول
بريستون
بريطانيا
بريفز
بريل
بريمن
برين
برينان
برينت
برينتفورد
بريندا
برينز
بريورز
بس
بسبب
بشريه
بشكل
بط
بطاقه
بطرس
بطرسبرج
بطرسبورج
بطل
بطليموس
بطولة
بطوله
بعثه
بعد
بعده
بعدها
بعدين
بعض
بعيد
بغداد
بـ
بقت
بقوس
بقى
بقيمة
بك
بكر
بكين
بل
بلا
بلاء
بلات
بلاتا
بلاد
بلازا
بلازما
بلاك
بلاكبول
بلاكبيرن
بلاكهوكس
بلان
بلانتون
بلانش
بلانشارد
بلانك
بلانكا
بلانكو
بلاى
بلباو
بلبل
بلجاريا
بلجراد
بلجيكا
بلد
بلده
بلدية
بلديه
بلفاست
بلو
بلوخ
بلودهاوند
بلوز
بلوفديف
بلوك
بلوم
بليت
بلير
بليس
بليك
بليموث
بمحتويات
بمركز
بمعامل
بن
بناء
بنات
بنت
بنجامين
بندر
بنسلفانيا
بنسون
بنسيلفانيا
بنفيكا
بنك
بنما
بنه
بنى
بنيامين
به
بها
بو
بوا
بوابة
بوابه
بوب
بوبى
بوت
بوتش
بوث
بوججيد
بوجدان
بوخارست
بود
بودابست
بودابيست
بودو
بودى
بودين
بور
بوربون
بورت
بورتر
بورتريه
بورتلاند
بورتو
بورتوريكو
بورتون
بورج
بورجوس
بورجيس
بوردو
بورك
بورن
بورنس
بورنموث
بورنوجرافى
بورنوجرافية
بوروسيا
بورى
بورياليس
بوريس
بوريل
بوزنان
بوس
بوسان
بوست
بوستش
بوسطن
بوسطون
بوسى
بوش
بوك
بوكا
بوكانان
بوكانيرز
بوكس
بول
بولا
بولارد
بولاندا
بولاية
بولتون
بولد
بولز
بولس
بولسيس
بولشايا
بولشوى
بولك
بولندا
بولندى
بولو
بولوك
بولونيا
بولى
بوليتزر
بوليتيفاكت
بوليفيا
بولين
بوم
بومان
بومه
بون
بونتى
بوند
بونس
بونى
بوى
بويبلا
بويد
بوير
بويز
بويس
بويكى
بويل
بوين
بوينت
بوينس
بوينوس
بى
بي
بيا
بياتريس
بياتى
بيار
بيانات
بيانكا
بيانكى
بيانو
بيب
بيبدا
بيبرس
بيبسيس
بيبولز
بيبى
بيت
بيتا
بيتار
بيتبع
بيتر
بيتربورو
بيترز
بيترسن
بيترسون
بيترو
بيترى
بيتريوتس
بيتس
بيتسبرج
بيتسبورج
بيتسمى
بيتش
بيتعبر
بيتقالها
بيتقس
بيتوفى
بيتى
بيث
بيج
بيجاسوس
بيجى
بيحتوى
بيحدد
بيدرس
بيدرو
بيدفورد
بيدور
بير
بيرا
بيرت
بيرتفع
بيرتن
بيرثا
بيرج
بيرجر
بيرجمان
بيرجيت
بيرجير
بيرد
بيرز
بيرس
بيرسون
بيرسى
بيرفده
بيرك
بيركنز
بيركيلى
بيرل
بيرلنتاوشر
بيرلين
بيرم
بيرمان
بيرن
بيرنارد
بيرناردو
بيرنت
بيرند
بيرنلى
بيرنهارد
بيرنى
بيرو
بيروت
بيرون
بيرى
بيريرا
بيريز
بيرين
بيز
بيزا
بيزنيس
بيس
بيساوى
بيسبول
بيستخدم
بيستغرقه
بيشتغل
بيشفره
بيشوب
بيصب
بيضاء
بيعتبر
بيعدى
بيفرلى
بيقدم
بيقول
بيك
بيكا
بيكر
بيكون
بيكيت
بيل
بيلا
بيلاروسيا
بيلبورد
بيلز
بيلعب
بيلو
بيلى
بيمر
بين
بينا
بينتج
بينتهى
بينتو
بينج
بينجت
بينرمزله
بينو
بينوا
بينويت
بينى
بينيا
بينيت
بينيتو
بينيديتو
بينيديكت
بينيزيت
بينچامين
بيه
بيها
بيو
بيوتر
بيوجراد
بيورن
بيويب
بيير
بيچينج
بچورن
ة
ت
تا
تابع
تابعه
تاتيانا
تاج
تاجر
تاديوسز
تارتو
تاريخ
تافتس
تاكاشى
تاكاهاشى
تاكاو
تاكر
تاكويا
تاكيشى
تالبوت
تالت
تالين
تاماس
تامبا
تان
تاناكا
تانج
تانى
تاني
تانيا
تانيه
تاو
تاون
تاى
تايت
تايتانز
تايجر
تايجرز
تايلاند
تايلاندا
تايلر
تايلور
تايم
تايمز
تايوان
تبقا
تبليسى
تتابع
تتشاف
تتوع
تتويك
تجاريه
تجاهله
تجديف
تجمع
تحالف
تحت
تحتاج
تحديدها
تحسين
تحقق
تخص
تراث
تراسى
ترافيس
ترانسفير
ترانمير
ترتيب
ترشيح
تركيا
تروبيكوس
تروديل
تروى
ترى
تريستان
تريسى
تريفور
ترينت
ترينيتى
ترينيداد
تريڤور
تزلج
تزلجى
تساعد
تسجيلات
تسجيلى
تسلسل
تسمانيا
تسميات
تسهيل
تشابل
تشاد
تشارجرز
تشارلتون
تشارلز
تشارلوت
تشارلى
تشاك
تشان
تشانج
تشاه
تشاو
تشستر
تشغيلها
تشن
تشنج
تشو
تشوك
تشول
تشون
تشونج
تشوى
تشى
تشيبا
تشيس
تشيستر
تشيسترفيلد
تشيفس
تشيكوسلوفاكيا
تشيكيا
تشيلسى
تشيلى
تشين
تشيناى
تشينج
تصانيف
تصميم
تصنيع
تصنيف
تضيف
تضيفلها
تطور
تطوير
تعاونية
تعد
تعداد
تعقب
تفصيلي
تفکیک
تقاطع
تقاوى
تقسيم
تقسیمات
تكاثر
تكام
تكبرها
تكساس
تكون
تل
تلات
تلال
تلفزيونى
تلفزيونيه
تم
تماما
تمبل
تمت
تمثال
تمثلها
تمثيل
تمر
تمنيه
تناجر
تنام
تناوب
تنج
تنس
تنسيق
تنظيم
تو
توب
توبى
توبياس
توت
توتنهام
تود
تودور
تور
توربيدو
توركو
توركى
توركيا
تورنتو
تورنر
تورنير
تورو
تورونتو
تورى
توريس
تورينو
توضيحى
توف
توفيق
توك
توكو
تولوز
تولى
توليدو
توم
توما
توماس
توماسز
توماسو
توماش
تومسون
تومى
توميتوز
توميسلاڤ
تون
تونج
تونس
تونشيپ
تونى
توينس
تى
تي
تياجو
تيبور
تيت
تيتو
تيتوس
تيد
تيدى
تير
تيرانا
تيرنبول
تيرنر
تيرى
تيريز
تيريزا
تيريسا
تيريل
تيرينس
تيك
تيكسيرا
تيل
تيلا
تيلير
تيليڤزيون
تيم
تيمز
تيمو
تيموثى
تيمور
تيميسكامينج
تين
تينا
تينيسى
تيودور
تييرى
ث
ثار
ثانويه
ثانى
ثراء
ثقال
ثلاثى
ثم
ثناي
ثور
ثورة
ثورن
ثورنتون
ثوره
ثوم
ثومپسون
ثيرى
ثيو
ثيودور
ج
جابر
جابريل
جابريلا
جابرييل
جابرييلا
جابور
جابى
جار
جارد
جاردنر
جارسيا
جارلاند
جارى
جاريت
جاريث
جاز
جاسبار
جاسبر
جاستن
جاستون
جاستين
جافين
جاك
جاكسون
جاكسونفيل
جاكلين
جاكوب
جاكوبس
جاكى
جال
جالاكسى
جالو
جالى
جالينا
جام
جاما
جامايكا
جامع
جامعات
جامعة
جامعه
جامعى
جامعيه
جان
جانا
جانج
جانيت
جانيرو
جاى
جاي
جايتانو
جايز
جايزة
جايزه
جايسون
جايل
جايلز
جاين
جاينتس
جايه
جبال
جبر
جبريل
جبل
جبليه
جتس
جدا
جدانسك
جداول
جديد
جديده
جراتس
جراح
جراس
جراف
جرام
جرامى
جران
جرانادا
جرانت
جراند
جراندى
جراهام
جراى
جرايم
جرجس
جرذ
جرزيجورز
جرم
جروب
جروت
جروتر
جروس
جروسمان
جروسير
جروف
جرونفيلد
جرى
جريت
جريج
جريجور
جريجورى
جريجوريو
جرير
جريس
جريف
جريفز
جريفيث
جريفين
جريمسبى
جريمه
جرين
جرينفيل
جرينلاند
جرينوود
جرينى
جزء
جزر
جزيرة
جزيره
جسر
جسك
جسم
جعفر
جغرافيا
جل
جلاديس
جلاس
جلاسجو
جلال
جلان
جلوريا
جليسون
جلين
جمال
جمباز
جمعية
جمعيه
جمعیت
جمهورية
جمهوريه
جميع
جميل
جناح
جنب
جندى
جنس
جنسن
جنكينز
جنو
جنوب
جنوبی
جنوه
جنيف
جنينة
جو
جوا
جواتيمالا
جوادالاخارا
جوان
جوانا
جواو
جواي
جوتا
جوتفريد
جوتليب
جوتنبرج
جوتيريز
جوتينجن
جوج
جوجل
جوجنهايم
جود
جودارد
جودفرى
جودمان
جودو
جودوين
جودى
جوديث
جور
جورا
جوران
جورج
جورجتاون
جورجى
جورجيا
جورجيو
جوردان
جوردن
جوردون
جوردى
جورى
جوزفين
جوزمان
جوزيبى
جوزيف
جوزيه
جوس
جوستاف
جوستافسون
جوستافو
جوستاڤ
جوستاڤو
جوستين
جوسلين
جوسيف
جوش
جوشوا
جوقه
جول
جولد
جولدبرج
جولدن
جولى
جوليا
جوليارد
جوليان
جوليس
جوليو
جوليوس
جولييت
جوميز
جوميس
جون
جوناثان
جونار
جوناس
جونتر
جونتير
جونثير
جونج
جونز
جونزاجا
جونزالو
جونزاليز
جونزاليس
جونستون
جونستين
جونسون
جونى
جونيور
جونيورز
جوهان
جوهانس
جوهانسون
جوهر
جوى
جويدو
جويس
جويل
جويلاوم
جويلرمو
جويليرمو
جوين
جى
جياكومو
جيان
جيانفرانكو
جيانكارلو
جيانلوكا
جيانى
جيب
جيبس
جيبسون
جيت
جيتار
جيتس
جيتي
جير
جيرا
جيرار
جيرارد
جيراردو
جيرالد
جيرالدين
جيرت
جيرترود
جيرد
جيرزى
جيرسى
جيرمان
جيرمين
جيرهارد
جيرو
جيرولامو
جيروم
جيرى
جيريت
جيريرو
جيريلز
جيريمى
جيزا
جيس
جيست
جيسوس
جيسون
جيسى
جيسيكا
جيش
جيف
جيفرسون
جيفرى
جيك
جيل
جيلان
جيلبرت
جيلبيرت
جيلر
جيلمور
جيليان
جيليس
جيلينجهام
جيم
جيمز
جيمس
جيمى
جين
جينا
جينادى
جينالوجيكس
جينالوجيكش
جينو
جينى
جيني
جينيا
جينيرال
جينيس
جينيفر
جينيفير
جينينجز
جيه
جيو
جيورجوس
جيورجى
جيورجيا
جيورجيو
جيورجيوس
جيوسيپ
جيوفانى
جيوفرى
جيولا
جيوليو
جيوم
جيون
جيونيمز
جيوڤانى
جیرفت
ح
حاج
حاجه
حاجى
حاجی
حاخام
حارس
حافظ
حاكم
حالة
حاليا
حامد
حاول
حاييم
حب
حباك
حبيب
حبيبي
حبيل
حتى
حد
حديثه
حديد
حديقة
حر
حرب
حرة
حرف
حركة
حركته
حركه
حره
حزام
حزب
حساب
حسابات
حسب
حسن
حسنا
حسنى
حسين
حسین
حسینا
حشرات
حصاء
حصاءات
حصاي
حصل
حصلت
حصن
حضيض
حق
حقاي
حقوق
حكم
حلب
حمام
حمامة
حمامه
حماية
حمد
حمدى
حمر
حمزه
حمص
حمض
حمو
حنا
حنه
حواجز
حوالى
حوض
حول
حولين
حوليها
حومه
حى
حياء
حياة
حياته
حيانا
حيث
حيدر
حيفا
حيوانات
خ
خاركيف
خافيير
خالد
خان
خايمى
خبار
خد
خدمة
خدمه
خر
خراج
خراسان
خربة
خريطة
خريطه
خط
خطا
خطوط
خفاش
خفيف
خلال
خلف
خلفى
خليج
خليفه
خليل
خمسين
خنفساء
خواكيم
خواكين
خوان
خورخى
خوزستان
خوسي
خوسيه
خوليو
خيال
خير
خيسوس
خيمينيز
د
دا
داب
داتا
داخل
داخلى
دار
دارة
دارتموث
دارسى
داركو
دارلينجتون
دارمشتات
داروين
داريا
داريل
دارين
داريو
داريوس
داس
دافى
دافيد
داكوتا
دال
دالاس
دالتون
دالى
داليبور
دام
دامز
داميان
دان
دانا
دانى
دانيال
دانيل
دانيلا
دانيلو
دانييل
دانييلا
داه
داهل
داود
داوسون
داون
داى
داي
دايتون
دايرة
دايره
دايفيد
داين
داڤ
داڤى
داڤيس
دب
دبلن
دبلوماسى
دبلوماسيه
دبليو
دبى
دة
دخل
در
دراج
دراجان
دراجة
دراجه
دراجون
دراسة
دراكو
دراما
درجات
درجه
درس
درست
درسدن
دره
درو
دريك
درگاه
دشت
دفاعى
دقيقة
دقيقه
دك
دكتور
دكتوراه
دل
دلهى
دلوقتى
دليل
دم
دمشق
دموند
دميترو
دميترى
دن
دندى
دنفر
دنكان
دنمارك
دنيس
ده
دهستان
دو
دوار
دوارتى
دوان
دوايت
دوبان
دوبويس
دوت
دوج
دوجان
دوجلاس
دود
دودلى
دور
دورا
دوران
دوراند
دورتموند
دوره
دورهام
دوروثى
دوروثيا
دورى
دوري
دوريس
دورين
دوس
دوسان
دوسلدورف
دوف
دوق
دوقه
دوك
دول
دولار
دولة
دولفينز
دوله
دولى
دوم
دومينجو
دومينيك
دومينيكا
دومينيون
دون
دونا
دونالد
دونج
دونكاستر
دونكان
دونلوپ
دونوفان
دونى
دونيتسك
دوى
دويسبورج
دويل
دى
دي
دياز
دياس
ديالنيت
ديالو
ديان
ديانا
ديب
ديبورا
ديبورتيفو
ديبى
دية
ديتر
ديترويت
ديتريتش
ديتريش
ديتليف
ديتمار
ديتير
ديجو
ديد
دير
ديربى
ديرك
ديرى
ديريك
ديزر
ديزنى
ديس
ديستريكت
ديسكوغس
ديسمبر
ديف
ديفوار
ديفى
ديفيد
ديفيدسون
ديفيز
ديفيس
ديك
ديكر
ديكسون
ديكنسون
ديكى
ديل
ديلا
ديلارج
ديلان
ديلجادو
ديلون
ديلى
ديمترى
ديميترى
ديميتريس
ديميتريوس
دين
دينا
دينامو
دينتاكسا
دينو
دينى
دينيس
دينيسى
ديه
ديوجو
ديوك
ديون
دييجو
ديين
ديڤيد
ذ
ذا
ذات
ذاتية
ذاتيه
ذاكره
ذربایجان
ذكر
ذكى
ذلك
ذهبى
ذو
ذى
ر
را
راب
رابطة
رابطه
رابيد
رابيدز
راتشيل
راجم
راجنار
راح
رادكليف
راديكال
راديو
راس
راسل
راسموس
راسموسن
راسيل
راسينج
راش
راشيل
راضي
رافاي
رافايل
رافاييل
راقص
راقصه
راك
رالف
رالى
رام
رامز
رامزى
راموس
رامون
رامى
راميريز
ران
راندال
راندولف
راندى
رانينج
راو
راول
راى
راي
رايت
رايس
رايلى
رايموند
راين
راينر
راينهارد
راينير
رة
رتبه
رتين
رثر
رجال
رجع
رجل
رجنتينية
رخ
رخصة
رخصه
رخه
رد
رسام
رسامه
رساي
رستم
رسمها
رسمى
رسميا
رسولى
رش
رشفته
رشيد
رشيف
رصيف
رض
رضا
رضوى
رضية
رعب
رفرنس
رفع
رقص
رقم
رقمى
رقيب
رك
ركاب
ركوب
رمادى
رمز
رمزى
رمضان
رمى
ره
رهبانيه
رو
رواتي
رواد
روان
رواي
روايه
روب
روبرت
روبرتس
روبرتسون
روبرتو
روبسون
روبن
روبنز
روبنسون
روبى
روبيرت
روبيرتس
روبيرتو
روبين
روبينسون
روبيو
روت
روتردام
روتشا
روتشديل
روتشستر
روتشيلد
روتليدج
روتن
روث
روج
روجر
روجرز
روجير
رود
رودا
رودريجو
رودريجويز
رودريجيز
رودس
رودلف
رودنى
رودوفيد
رودولف
رودولفو
رودى
روز
روزا
روزاريو
روزفلت
روزمارى
روزنامه
روزنبرج
روزنتال
روزين
روس
روسا
روساريو
روستوف
روستوك
روسلان
روسو
روسى
روسيا
روسيل
روش
روغلو
روفرز
روفوس
روك
روكا
روكو
روكى
رول
رولان
رولاند
رولف
روم
روما
رومان
رومانسى
رومانو
رومانيا
رومى
روميرو
روميو
رون
رونالد
رونى
روى
رويال
رويز
رويس
رويل
روچ
رى
ري
ريا
رياضات
رياضه
رياضى
رياضي
رياضيا
رياضيات
رياضياتى
رياضيه
رياضيى
ريال
ريان
ريبوزى
ريبيرو
ريبيكا
ريتا
ريتر
ريتش
ريتشارد
ريتشاردز
ريتشاردسون
ريتشموند
ريتشى
ريج
ريجا
ريجنالد
ريجى
ريجيس
ريجينا
ريجينالد
ريختر
ريد
ريدج
ريدرز
ريدز
ريدسكينس
ريدنج
ريدى
ريزا
ريس
ريستيتوتا
ريسزارد
ريسيڤير
ريشه
ريف
ريفر
ريفيرا
ريفيوز
ريك
ريكا
ريكاردو
ريكس
ريكو
ريكوردز
ريكى
ريل
ريلجم
ريلى
ريمون
ريموند
ريمى
رين
رينا
رينات
ريناتو
رينالدو
رينجرز
رينزو
رينهارد
رينهولد
رينو
رينولدز
رينى
رينيه
ريه
ريو
ريوس
رييس
ريڤير
ريڤيير
ز
زاك
زامبيا
زاوية
زاويه
زاي
زاڤير
زبابه
زبماث
زبيجنيو
زجرب
زدينيك
زكريا
زكى
زماله
زمان
زميل
زه
زهافى
زهانج
زهرة
زو
زوجى
زوران
زولتان
زوى
زى
زي
زياء
زيادة
زياده
زيجمونت
زيد
زيمبابوى
زيمرمان
زين
زينب
زينو
زيورخ
س
سا
سابق
سابين
سابينزا
ساتذة
ساتو
ساجيناى
ساحل
سارا
ساراجوسا
ساراه
سارة
ساره
سارى
ساشا
ساعد
ساعه
سافاج
سافوى
ساكرامنتو
ساكس
ساكسفون
ساكسون
ساكسونيا
سال
سالازار
سالزبورج
سالزبورغ
سالم
سالومون
سالى
سالڤاتور
سالڤادور
سام
سامانثا
سامبافوت
سامسون
ساموا
سامويل
سامى
سان
سانت
سانتا
سانتانا
سانتشيز
سانتو
سانتوس
سانتى
سانتياجو
سانج
ساندرا
ساندرز
ساندرو
ساندور
ساندى
سانشيز
سانفورد
ساو
ساوث
ساوثهامپتون
ساول
ساوندز
ساى
ساي
سايت
سايتاما
سايتس
سايتو
سايد
سايدنج
سايكلنج
سايمور
سايمون
ساين
ساينت
ساينى
سباح
سباحه
سبارتا
سبارتاك
سباستيان
سباق
سباقات
سبان
سبانيا
سبانية
سبايس
سبتمبر
سبرنجر
سبرينج
سبرينجز
سبقها
سبنسر
سبور
سبورت
سبورتس
سبورتينج
سبيرجل
سبيس
ست
ستاتس
ستاد
ستار
ستارز
ستارك
ستافورد
ستان
ستانتون
ستانفورد
ستانلى
ستانيساو
ستانيسلاف
ستانيسلاو
ستانيسلاوس
ستانيسلاڤ
ستايت
ستايسى
ستراسبورج
سترالي
ستراليا
سترالية
ستركتر
سترونج
ستريت
ستشول
ستشولز
ستوارت
ستوديوز
ستور
ستورا
ستورم
ستوك
ستوكبورت
ستوكهولم
ستون
ستى
ستيت
ستيج
ستيرلينج
ستيرن
ستيشن
ستيف
ستيفان
ستيفانو
ستيفانى
ستيفن
ستيفنز
ستيفنسون
ستيفين
ستيل
ستيلا
ستيلرز
ستيم
ستين
ستيوارت
ستيڤ
ستيڤين
سجل
سجلات
سجن
سجون
سحاب
سحليه
سد
سدود
سر
سرا
سراى
سراي
سرشماری
سرعته
سرعه
سرفب
سركب
سرى
سريع
سريلانكا
سزالاى
سس
سسات
سساتى
سسة
سست
سسه
سطح
سطور
سعد
سعدان
سعود
سعيد
سفارات
سفارة
سفاره
سفر
سفلى
سفلی
سفيتلانا
سفير
سفين
سكاربورو
سكان
سكاى
سكسونيا
سكندرية
سكنيه
سكه
سكوب
سكوبس
سكوت
سكولار
سكوير
سكي
سلافيا
سلام
سلامه
سلة
سلحفاه
سلسلة
سلسله
سلطان
سلطنة
سلطه
سلفادور
سلمان
سله
سلوفاكيا
سلوفينيا
سلون
سليم
سليمان
سم
سماء
سماوى
سمك
سمكة
سمى
سميث
سمير
سن
سنة
سنتر
سنترال
سنجاب
سنجافوره
سندرلاند
سنكلير
سنه
سنو
سنوات
سنين
سو
سوارتز
سواريز
سواريس
سواق
سوان
سوانزى
سوبر
سوتو
سوتون
سوث
سود
سوداء
سور
سورة
سوريا
سورين
سوزا
سوزان
سوزانا
سوزوكى
سوزى
سوس
سوسا
سوسان
سوسردونا
سوفت
سوفى
سوفيا
سوق
سوك
سوكرودنا
سوكس
سول
سولومون
سولى
سولير
سوليفان
سون
سونج
سوندرز
سونى
سونيا
سوهاج
سويت
سوير
سويسرا
سويف
سويفت
سويندون
سوينى
سى
سي
سيا
سياتل
سيارا
سياسى
سياسيا
سياسيه
سيان
سيباستيان
سيباستين
سيبيل
سيبييا
سيت
سيتى
سيث
سيجا
سيجال
سيجفريد
سيجموند
سيجورد
سيد
سيدات
سيدة
سيدريك
سيدنى
سيده
سيدى
سير
سيرا
سيرات
سيراكيوز
سيرانو
سيرة
سيرج
سيرجى
سيرجيو
سيره
سيرو
سيروس
سيرى
سيريل
سيرينا
سيزار
سيس
سيسار
سيستم
سيسها
سيسيل
سيسيليا
سيشينى
سيف
سيفتى
سيك
سيكارت
سيكستانس
سيكليباس
سيكومور
سيل
سيلا
سيلتيك
سيلفا
سيلفر
سيلفستر
سيلفيا
سيلفيو
سيلى
سيلين
سيلڤا
سيلڤيا
سيلڤيو
سيم
سيما
سيمبسون
سيمز
سيمفونيه
سيمور
سيمون
سيمونز
سيمونس
سيميون
سين
سينا
سيناريست
سيناريو
سينت
سينترال
سينتس
سينتوراس
سينثيا
سينج
سينجابوره
سيندى
سينسيناتى
سينما
سينماي
سينى
سيني
سينيجال
سينيماجيا
سينيور
سيهوكس
سيو
سيون
سيونج
سيوى
سيويه
سييرا
سيينا
سپيسووتش
سپينسير
سڤيتلانا
سڤين
ش
شابمان
شابيرو
شارب
شارع
شارك
شاركت
شارل
شارلوت
شارما
شاره
شارون
شاطي
شاعر
شاعره
شامبين
شان
شانجهاى
شانون
شاه
شاهين
شاو
شاون
شاى
شاي
شاين
شباب
شبخ
شبكة
شبه
شتا
شتاين
شتاينر
شتاينميتز
شتوتجارت
شخاص
شخص
شخصى
شخصي
شخصيات
شخصيه
شر
شرخ
شرف
شرق
شرقی
شركات
شركة
شركه
شرودر
شروزبرى
شرى
شريف
شريك
شط
شطرنج
شعاع
شعب
شعبيه
شعه
شغل
شفيرين
شفيلد
شكال
شكل
شكله
شلومو
شماس
شمال
شمالى
شمالی
شمس
شميت
شميد
شميدت
شنايدر
شهر
شهرستان
شهرك
شو
شوارتز
شوب
شوت
شور
شورتستوب
شولتز
شولز
شون
شى
شيء
شياوهوى
شيبرد
شيخ
شير
شيرلى
شيرمان
شيرى
شيريدان
شيريل
شيزوكا
شيفر
شيفيلد
شيكاجو
شيل
شيلا
شيلت
شيلتون
شيلدز
شيلدون
شيلى
شيميزو
شين
شيوخ
شیخ
ص
صاحب
صالح
صامويل
صاي
صباح
صحرا
صحفى
صحفي
صحفيه
صحيفه
صدار
صدر
صدرت
صربيا
صطلح
صغر
صغير
صغيره
صفحات
صفحة
صل
صلاح
صليب
صموي
صن
صو
صوت
صوتيه
صور
صوره
صوفى
صوفيا
صيانة
صيد
صيربيا
صيغة
صيف
صيفيه
ض
ضابط
ضافي
ضد
ضريح
ضفدع
ضمن
ضهر
ضوي
ضياء
ط
طارق
طالب
طاي
طايره
طب
طبول
طبيب
طبيبه
طبيعة
طرف
طرواده
طريق
طشقند
طفل
طلاب
طه
طهران
طواف
طورها
طوكيو
طول
طوله
طولها
طويل
طويلة
طيار
طيران
طيور
ظابط
ظهر
ظهرة
ظهرت
ظهير
ع
عادل
عارض
عارضه
عازف
عازفه
عاش
عاصمة
عاصمتها
عاصمه
عالم
عالمه
عالمية
عام
عامر
عامل
عامه
عاي
عايده
عباس
عبد
عبدالله
عبده
عبر
عثمان
عجل
عداء
عدة
عدد
عر
عرب
عربى
عربيات
عربيه
عرض
عرضها
عرقيه
عز
عزله
عزيز
عسكرى
عسكريه
عشان
عشر
عصر
عصفور
عضاء
عضو
عضوه
عضويه
عقد
علاء
علام
علامة
علشان
علم
علماء
علمى
على
علي
عليا
عليه
عليها
عليهم
علی
علیا
عمار
عمال
عمان
عمده
عمر
عمرو
عمقها
عمل
عمله
عملها
عموم
عميد
عن
عنا
عناكب
عناوين
عند
عنده
عنصر
عنكبوت
عننا
عنه
عنها
عنوان
عه
عهد
عياري
عيد
عيسى
عين
عيون
غ
غابة
غالبا
غرب
غربی
غريبيل
غسطس
غلط
غماقتها
غنية
غير
ـ
ف
فا
فابر
فابريزيو
فابيان
فابيو
فات
فاجنر
فار
فارجاس
فارس
فارغ
فارم
فارو
فاروق
فاريل
فاز
فاسكو
فاسيلى
فاضى
فاضيه
فاق
فال
فالتر
فالديمار
فالس
فالك
فالكونز
فالنتين
فالنسيا
فالى
فاليرى
فاميليسيرش
فان
فانجرافس
فانكوفر
فانى
فانيسا
فاوستو
فاولر
فاى
فايس
فايكنج
فايل
فايلات
فايمار
فاينال
فايند
فبراير
فبيكون
فتح
فترة
فتره
فخريه
فرازير
فراسخ
فران
فرانتيسيك
فرانز
فرانس
فرانسوا
فرانسواز
فرانسيس
فرانسيسك
فرانسيسكا
فرانسيسكو
فرانشيسكا
فرانشيسكو
فرانك
فرانكفورت
فرانكلين
فرانكو
فرانكويس
فرانكى
فراى
فرايبورج
فرجينيا
فرد
فردى
فرديناند
فرس
فرسان
فرع
فرق
فرقة
فرقه
فرناندو
فرنانديز
فرنسا
فرنسوا
فرنسيس
فرنسيسكو
فروتسواف
فروست
فروع
فرى
فريبيس
فريتز
فريد
فريدا
فريدة
فريدرش
فريدريتش
فريدريش
فريدريك
فريدمان
فريدى
فريديريك
فريزر
فريس
فريق
فريك
فريمان
فرينش
فصيله
فضاء
فضاي
فضل
فقط
فكونتاكتى
فلاديسلاف
فلاديمير
فلام
فلامنجو
فلسطين
فلك
فلكى
فلكيه
فلم
فلمنج
فلورا
فلورنسا
فلوريان
فلوريدا
فلوريس
فلويد
فليتشر
فليتشير
فلين
فلينت
فن
فنان
فنانه
فنانو
فناني
فندق
فنزويلا
فنسنت
فنلندا
فنون
فنى
فني
فنيه
فه
فهارس
فهرس
فو
فوتبول
فوجل
فور
فوراديجوجو
فوراديجوغو
فوربس
فورت
فورتمبيرج
فورتونا
فورد
فورست
فورستر
فورك
فورمان
فورناكس
فوزى
فوس
فوستر
فوستير
فوق
فوكس
فوكوكا
فوكولور
فولتون
فولر
فولز
فولفجانج
فولك
فولهام
فولى
فون
فونتانا
فونج
فونجوروم
فونسيكا
فوينتيس
فى
في
فيتالى
فيتزجيرالد
فيتوريا
فيتوريو
فيجا
فيجاس
فيجو
فيد
فيدال
فيديريكو
فيديو
فير
فيرا
فيرارى
فيرجسون
فيرجينيا
فيردى
فيرديناند
فيرمونت
فيرناند
فيرناندو
فيرنانديز
فيرنر
فيرنون
فيرو
فيروس
فيرونا
فيرونيكا
فيرى
فيرير
فيريرا
فيرينك
فيزيا
فيزياي
فيسبادن
فيسبوك
فيستا
فيسنتى
فيش
فيشر
فيصل
فيفيان
فيك
فيكتور
فيكتوريا
فيل
فيلا
فيلادلفيا
فيلبس
فيلد
فيلدر
فيلدمان
فيلسوف
فيلم
فيلمافينيتي
فيلمبورتال
فيلموجرافيا
فيلنيوس
فيلهلم
فيلى
فيليب
فيليبس
فيليبو
فيليبى
فيليز
فيليس
فيليكس
فيليم
فيليپ
فيليپس
فيليپو
فيمبيو
فين
فينتر
فينس
فينسينزو
فينش
فينك
فينلاندا
فينى
فينيكس
فيه
فيها
فيو
فيودور
فيولا
فيونا
فييتنام
فييرا
فيينا
ق
قاره
قاسم
قاضى
قاعة
قاعدة
قاعده
قاعدى
قاعه
قافز
قافي
قال
قالب
قام
قامت
قاموس
قانون
قانونى
قاي
قباط
قبرص
قبطى
قبل
قبله
قت
قتباس
قد
قدر
قدم
قدمها
قديس
قديم
قرب
قرش
قرن
قره
قرى
قريب
قرية
قريه
قزم
قسطنطين
قسم
قسيس
قشلاق
قصة
قصر
قصص
قصه
قصير
قضاء
قطر
قطع
قفز
قفص
قلاده
قلب
قلبى
قلبي
قلعة
قلعه
قمه
قناة
قناه
قوات
قوس
قوى
قياس
قياسه
قيصر
قيمة
ك
كا
كاب
كابا
كابريرا
كابز
كابلان
كابور
كات
كاتارينا
كاتالينا
كاتب
كاتبه
كاتدراي
كاترين
كاترينا
كاتس
كاتشار
كاتو
كاتوليك
كاتى
كاتيا
كاثرين
كاثلين
كاثوليكى
كاثى
كاثيرين
كاديمي
كاديمية
كار
كارا
كاراكاس
كاربنتر
كارتر
كارتير
كاردوسو
كارديف
كاردينال
كاردينالز
كارستن
كارستين
كارسون
كارل
كارلا
كارلايل
كارلتون
كارلسروه
كارلسون
كارلو
كارلوس
كارمن
كارمين
كارو
كارول
كارولاينا
كارولى
كارولين
كارولينا
كارون
كارى
كاريل
كارين
كارينا
كاريوكا
كازاخستان
كازيميرز
كاس
كاسبار
كاسبر
كاسترو
كاستل
كاستيلو
كاستييا
كاسل
كاسى
كاسپار
كال
كالجارى
كالدويل
كالديرون
كالفين
كالى
كاليفورنيا
كاليه
كام
كامارا
كامب
كامبريدج
كامبل
كامبو
كامبوس
كامل
كاميرون
كاميل
كاميلا
كاميلو
كامپبيل
كان
كاناجاوا
كانبرا
كانت
كانترى
كانتو
كانتون
كانتيك
كانج
كانزاس
كانساس
كانسر
كانو
كانوا
كانون
كانيدا
كانيديينز
كاهن
كاوبويز
كاونتى
كاى
كايتانو
كايزر
كايل
كاين
كبار
كبير
كبيرة
كبيره
كت
كتاب
كتابتها
كتابه
كتالوج
كتب
كتر
كتيبه
كتير
كتيره
كثافه
كثر
كجم
كده
كراسنودار
كرافت
كراكوف
كرامر
كراوس
كراوفورد
كرايج
كرة
كرزيسزتوف
كرمانشاه
كره
كرو
كرواتيا
كروجر
كروز
كروس
كروسبى
كروفورد
كرولى
كرون
كريج
كريس
كريستا
كريستال
كريستنسن
كريستوبال
كريستوف
كريستوفر
كريستى
كريستيان
كريستين
كريستينا
كريشنا
كريك
كريكت
كريل
كريم
كرين
كزافييه
كسب
كسفورد
كـ
كفر
كل
كلاب
كلاته
كلارا
كلارك
كلارنس
كلارينس
كلاس
كلاسيك
كلام
كلاود
كلاوديوس
كلاوس
كلاى
كلايتون
كلايد
كلاير
كلايس
كلايف
كلاين
كلثوم
كلفلاند
كلمات
كلمة
كله
كلوب
كلوج
كلود
كلوديا
كلوديو
كلوز
كلية
كلير
كليف
كليفتون
كليفلاند
كليفورد
كليمنت
كليمنتس
كليمنس
كليمينت
كليمينس
كلين
كلينت
كلينتون
كليه
كليوباترا
كليڤلاند
كم
كما
كمال
كمان
كمنجه
كميل
كنت
كنتاكى
كندا
كندى
كنوت
كنيس
كنيسة
كنيسه
كه
كهف
كهنوت
كهوف
كو
كوارترباك
كواست
كوان
كوانج
كوب
كوبا
كوباياشى
كوبر
كوبرى
كوبنهاجن
كوت
كوتا
كوتش
كود
كودى
كور
كورادو
كوربيت
كورة
كورت
كورتنى
كورتيس
كوردوبا
كوردون
كورك
كورنرباك
كورنيل
كورنيليا
كورنيليس
كورنيليوس
كوره
كورونا
كورى
كوريا
كوريبالسكي
كورين
كوس
كوستا
كوستاريكا
كوستاس
كوسماكر
كوش
كوفمان
كوفنترى
كوفى
كوك
كوكب
كوكبة
كوكبه
كوكس
كوكو
كوكى
كول
كولترناف
كولتس
كولتشستر
كولكاتا
كولمان
كولن
كولو
كولورادو
كولوم
كولومبوس
كولومبيا
كولون
كولونيا
كولى
كوليت
كوليج
كوليدج
كوليدچ
كولير
كولين
كولينز
كولينس
كوم
كوما
كومار
كومبيوتر
كومنز
كومو
كومونز
كوميدى
كوميديا
كون
كونت
كونتى
كونتيسه
كونج
كونجو
كونراد
كونستانتين
كونستانتينوس
كونستانس
كونو
كونواى
كونور
كونوس
كونولى
كونى
كونيتيكت
كونيجستوهل
كونينجهام
كوه
كوهن
كوهين
كوى
كويكب
كويل
كوين
كوينتين
كوينز
كوينزلاند
كوينسى
كوپير
كى
كيب
كيبك
كيبيك
كيت
كيتا
كيتى
كيث
كيد
كير
كيربى
كيرت
كيرستين
كيرك
كيرن
كيرى
كيريل
كيس
كيسى
كيف
كيفن
كيفين
كيك
كيكو
كيل
كيلر
كيلومتر
كيلى
كيم
كيمياي
كين
كينان
كينت
كينج
كينجز
كينجستون
كيندال
كيندرد
كينوبويسك
كينى
كينيا
كينيث
كينيدى
كينيز
كينيوت
كيه
كيو
كيوتو
كيورا
كيون
كيونج
كييف
كيڤين
ل
لا
لاتحاد
لاتفيا
لاجو
لاجوا
لاجوس
لاجون
لاجونا
لادان
لارا
لارس
لارسن
لارسون
لارى
لاريسا
لازار
لازم
لاس
لاست
لاسزلو
لاسماء
لاسى
لاسيلا
لاعب
لاعبة
لاعبه
لاعبي
لافال
لافضل
لافى
لاك
لاكمال
لالعاب
لام
لامار
لامب
لامبرت
لامبيرت
لان
لانج
لاند
لانس
لانكستر
لانوديير
لاهاڤ
لاهوت
لاو
لاورا
لاورى
لاورينت
لاورينس
لاول
لاولاد
لاى
لايبتزج
لايبزيج
لايدن
لايف
لاين
لاڤال
لبافاريا
لبريطانيا
لبنان
لبوم
لة
لتاريخ
لتشغيل
لتصاميم
لتصنيف
لتعزيز
لتقدم
لجامعة
لجرم
لجسم
لجمهوريه
لجنة
لجنه
لجوقه
لحد
لحسن
لحكومة
لخط
لدوله
لدى
لرسوم
لرفع
لرهبانيه
لروسيا
لز
لسباق
لستة
لستر
لسته
لسنة
لسه
لشبونه
لصفحات
لعاب
لعالم
لعام
لعب
لعبت
لعبه
لعلماء
لعيب
لغاء
لغاية
لغة
لغه
لغوى
لـ
لف
لفنان
لفنلندا
لفنون
لفه
لفون
لفي
لفيف
لفين
لقب
لك
لكاس
لكرة
لكره
لكل
لكن
لكورة
لكوره
للا
للاتحاد
للادب
للاستحقاق
للاسر
للاسم
للاسماء
للاشخاص
للاطفال
للاعب
للاعمال
للاقتصاد
للالعاب
للامبراطوريه
للانواع
للبحوث
للبياثلون
للتاريخ
للتجديف
للتحكم
للتخطيط
للتدوير
للتزلج
للتصنيف
للتعرف
للتعليم
للتكنولوجيا
للتنس
للتنوع
للتوثيق
للجمباز
للجمهور
للجمهوريه
للجنه
للجودو
للحقوق
للحياه
للحيوان
للخدمات
للدراجات
للدراسات
للدفاع
للذكريات
للرجال
للرياضيات
للريشه
للسباحه
للسدود
للسكك
للسلطه
للسنه
للسيدات
للصفحه
للطب
للطيران
للعلوم
للفن
للفنانين
للفنون
للقانون
للقذف
للقصص
للقضاه
للقوات
للكره
للكريكت
للكورة
للكوره
للكويكبات
للم
للمبدعين
للمحترفين
للمراه
للمشاهير
للمعارف
للمملكه
للمو
للموسيقى
للناشي
للنجوم
للنساء
للنمسا
للهندسه
للوثاي
لم
لما
لماس
لماني
لمانيا
لمانية
لمجلس
لمدة
لمصر
لمعلومات
لمكتبة
لمكتبه
لمو
لموارد
لموسكو
لموقع
لن
لندن
لنقطة
لنكولن
لنيشان
له
لها
لهذه
لهوكى
لو
لوا
لواء
لوب
لوبيز
لوت
لوتز
لوتشيانو
لوتون
لوثار
لوثر
لوجان
لوحه
لودفيج
لودويج
لورا
لوران
لورانس
لورد
لورنس
لوروا
لورى
لورين
لورينتيد
لورينز
لورينزو
لوز
لوزان
لوس
لوسون
لوسى
لوسيا
لوسيان
لوسيانو
لوسين
لوسيو
لوسيوس
لوف
لوك
لوكا
لوكاس
لوكسمبورج
لوكسيمبورج
لوكوموتيف
لولا
لون
لونا
لونج
لوند
لوندي
لونش
لونى
لوى
لويجى
لويد
لوير
لويز
لويزا
لويزيانا
لويس
لويسا
لويفيل
لويل
لوپيز
لى
لي
ليا
ليام
ليان
لياندرو
ليبريس
ليبى
ليبيا
ليبيرس
ليبيندكس
ليتش
ليتل
ليتلسيس
ليتوانيا
ليتوريا
ليتون
ليج
ليختنشتاين
ليدز
ليدن
ليديا
ليروى
ليز
ليزا
ليزلى
ليس
ليسا
ليست
ليستة
ليستر
ليستير
ليسلى
ليسيا
ليشبوا
ليف
ليفربول
ليفس
ليفى
ليفين
ليفينجستين
ليك
ليكيب
ليل
ليلا
ليلة
ليله
ليلى
ليليان
ليم
ليما
ليماسول
ليمان
ليمور
ليمون
لين
لينا
لينارت
لينتس
لينج
ليند
ليندا
ليندساى
ليندسى
لينك
لينكات
لينكد
لينكس
لينكولن
لينو
لينوكس
لينى
لينين
لينيوس
ليه
ليها
ليهم
ليو
ليوبليانا
ليوبولد
ليوبولدينا
ليودميلا
ليون
ليونارد
ليوناردو
ليونز
ليونس
ليونور
ليونيد
ليونيل
ليويس
ليوپولد
لييج
ليڤ
ليڤى
ليڤين
م
ما
مات
ماتا
ماتت
ماتثياس
ماتس
ماتسوموتو
ماتشادو
ماتوس
ماتى
ماتياس
ماتيلدا
ماتيو
ماتيوس
ماثماتيكل
ماثياس
ماثيو
ماثيوز
ماثيوس
ماجدالينا
ماجدبورج
ماجنوس
ماجى
مادلين
مادونا
ماديرا
ماديسون
ماديلين
مار
مارا
مارت
مارتا
مارتن
مارتى
مارتين
مارتينا
مارتينز
مارتينس
مارتينيز
مارثا
مارجاريت
مارجاريتا
مارجريت
مارجريتا
مارجريف
مارجورى
مارجيت
مارس
مارسيل
مارسيلو
مارسيليا
مارسين
مارش
مارشال
مارفن
مارك
ماركت
ماركس
ماركو
ماركوس
ماركيز
مارلين
مارى
ماريا
ماريان
ماريانا
ماريانو
ماريس
ماريسا
ماريك
ماريلاند
مارين
مارينا
مارينرز
مارينو
مارينوس
ماريو
ماريوس
ماريون
ماس
ماساتشوستس
ماساكى
ماسون
ماسى
ماسيمو
ماسيچ
مافيهاش
ماك
ماكاى
ماكدونالد
ماكس
ماكسويل
ماكسيم
ماكسيميليان
ماكلين
ماكن
ماكنزى
ماكوتو
ماكوليك
ماكى
ماكينزى
مال
مالطا
مالك
مالكولم
مالكوم
مالمو
مالوش
مالون
مالى
ماليزيا
مام
مان
مانسفيلد
مانشستر
مانفريد
مانهاتن
مانهايم
مانو
مانويل
مانويلا
مانى
مانيلا
مانينج
ماهر
ماورو
ماوريزيو
ماوريس
ماوريسيو
ماوس
ماونت
ماونتن
ماى
ماي
مايا
ماير
مايرز
مايك
مايكروسوفت
مايكل
مايكوبنك
مايلز
ماين
ماينتس
مايو
مايور
مايوركا
مباراه
مبارز
مبارك
مباره
مبتدا
مبراطورية
مبنى
مة
متحف
متر
مترجم
متزحلق
متزحلقه
متزلج
متزلجه
متسابق
متسابقه
متعلقه
متكامل
متكونه
متوسط
مث
مثل
مجال
مجانية
مجتمع
مجدف
مجدفه
مجره
مجرهبتتبع
مجرى
مجلة
مجلس
مجله
مجمع
مجموعة
مجموعه
محافظة
محافظه
محامى
محاميه
محترف
محترفات
محترفه
محترفى
محترفي
محرر
محسن
محطة
محطه
محله
محمد
محمدا
محمود
محمية
محور
محوره
محيط
مختار
مختبر
مخترع
مختص
مختلط
مختلفة
مخرج
مخرجه
مخروطى
مخطط
مدار
مدارات
مدارس
مداره
مدافع
مدة
مدرب
مدرس
مدرسة
مدرسه
مدريد
مدن
مدنى
مدنيه
مدير
مديريه
مدينة
مدينه
مر
مرات
مراد
مراصد
مراض
مرافق
مراقبه
مربع
مرة
مرتبط
مرجع
مرجعية
مرسى
مرشح
مرصد
مرض
مركز
مركزه
مركزى
مركزی
مرمى
مره
مري
مريكى
مريكي
مريكية
مريم
مرکزی
مزدوج
مزيكا
مسابقه
مساحة
مساحتها
مساحه
مسار
مساعد
مساعدة
مساهم
مستخدم
مستردام
مستشفى
مستكشف
مستوى
مسجد
مسح
مسدد
مسرح
مسرحى
مسرحيات
مسرحية
مسرحيه
مسعود
مسلسل
مسير
مسيسيبى
مش
مشاهير
مشروع
مشهوره
مصارع
مصالح
مصالحها
مصبو
مصدر
مصر
مصرفى
مصرى
مصري
مصرية
مصريه
مصريين
مصطدم
مصطفى
مصلى
مصمم
مصممه
مصور
مصوره
مضيء
مطار
مطبعة
مطران
مع
معامل
معاه
معايير
معبد
معجم
معرض
معرف
معرقل
معركة
معروضه
معروف
معسكر
معظم
معف
معلق
معلم
معلومات
معناها
معهد
معيارى
معين
مغاره
مغنى
مغنيه
مفتاح
مفصله
مفقود
مقابر
مقاطعة
مقاطعه
مقالات
مقالة
مقاله
مقتبس
مقدار
مقدم
مقدونيا
مقرها
مكابى
مكارثى
مكافي
مكان
مكاى
مكاي
مكتب
مكتبات
مكتبة
مكتبه
مكجيل
مكدونالد
مكسوره
مكعب
مكلنبورج
مل
ملاحظة
ملاكم
ملاهى
ملحن
ملحنه
ملعب
ملف
ملفات
ملفين
ملك
ملكة
ملكه
ملوك
ملي
مليون
ملی
ممثل
ممثلة
ممثله
ممثلى
ممفيس
ممكن
مملكة
مملكه
مملوكه
من
منافس
منافسه
منتج
منتجات
منتجع
منتخب
منجم
منحه
منخفضه
مندليه
منزل
منشورات
منشي
منصب
منصور
منطقة
منطقه
منظمة
منظمه
منه
منها
منهم
منى
منير
منيسوتا
مه
مهاجم
مهام
مهدى
مهرجان
مهندس
مهندسه
مو
مواطنينها
مواقع
مواليد
موت
موتا
موتور
موجو
موجود
موجوده
موجودين
مود
مودى
موديل
مودينا
مور
مورا
موراليس
موران
موراى
موراياما
مورايس
مورتون
مورجان
مورديليستينا
مورس
مورفى
مورلى
مورو
مورى
موريتز
موريرا
موريس
موريسون
موريسى
موريل
مورين
مورينو
موس
موستافا
موسر
موسكو
موسم
موسوعة
موسى
موسيس
موسيقى
موسيقيه
موسيقيين
موش
موضوع
موطنه
موظف
موفى
موفي
موفيز
موقع
موك
مول
مولدوڤا
مولر
مولى
مولير
مولين
مولينا
مومباى
مون
مونا
موناكو
مونبلييه
مونت
مونتاجو
مونتانا
مونتجومرى
مونتريال
مونتفيدو
مونتى
مونتيرو
مونتيرى
مونتيفيديو
مونتينيجرو
مونرو
مونزينجر
مونستر
مونك
مونى
مونيسيپاليتى
مونيكا
مونيوث
موير
مى
مي
ميا
ميامى
ميانمار
ميبل
ميت
ميتا
ميتاكريتيك
ميتال
ميتز
ميتس
ميتش
ميتشال
ميتشل
ميتشيل
ميتكالف
ميته
ميجان
ميجويل
ميجيل
ميخاي
ميخايل
ميداليه
ميدان
ميدلزبره
ميدينا
مير
ميرا
ميراندا
ميرزا
ميرسير
ميرفى
ميركو
ميرو
ميروسلاڤ
ميرى
ميريام
ميريت
ميريل
ميرين
ميزة
ميزورى
ميس
ميسا
ميسورى
ميشال
ميشيجان
ميشيل
ميك
ميكا
ميكاي
ميكايل
ميكسيكو
ميكلوس
ميكو
ميكولا
ميكى
ميكيل
ميل
ميلان
ميلانو
ميلانى
ميلاووكى
ميلبورن
ميلتون
ميلر
ميلز
ميلس
ميلو
ميلواكى
ميلوس
ميلون
ميلووكى
ميلوول
ميلى
ميلير
ميليس
ميليسا
ميمى
مين
مينا
مينج
ميندوزا
مينديز
مينسك
مينور
مينيابوليس
مينيسوتا
ميوزك
ميوزيك
ميوزيكاليكس
ميونخ
ميونيخ
ميچور
ن
نا
نابليون
نابولى
نات
ناتاشا
ناتالى
ناتاليا
ناثان
ناثانيل
ناجى
ناحيه
ناد
نادى
نادين
ناس
ناسو
ناسيونال
ناش
ناشر
ناشط
ناشطه
ناشفيل
ناصر
ناطحة
نافارو
نافورة
ناقد
ناقص
ناقل
ناكامورا
نام
نان
نانا
نانت
نانسى
ناي
نايب
نايت
نايجل
نايجيريا
نبات
نباتات
نباتى
نبراسكا
نبيل
نت
نتاج
نتایج
نترنت
نجليزية
نجم
نجمه
نجوم
نجوين
نجيب
نحات
ندرو
ندرياس
ندى
نزلت
نسبه
نسخة
نسمه
نسويه
نشا
نشر
نشرها
نشوء
نص
نصر
نصف
نصفى
نظام
نظره
نظريه
نفاي
نفس
نفسه
نفسى
نفورم
نقار
نقطه
نمر
نمو
نه
نها
نهاي
نهاية
نهر
نو
نواب
نوادى
نواع
نواك
نواه
نوبل
نوتر
نوتس
نوتنجهام
نوتينجهام
نوح
نور
نورا
نوربرت
نوربيرت
نورتون
نورث
نورثامبتون
نورثويسترن
نورفولك
نورمان
نورنبرج
نورويتش
نورى
نوريس
نوع
نوفا
نوفمبر
نوفى
نوكس
نولان
نونو
نونيز
نووسفير
نووى
نوى
نويل
نى
نيا
نيبال
نيت
نيتا
نيتشولاس
نيتشولس
نيتفليكس
نيتو
نيجنى
نيجيريا
نيد
نيديرلاند
نيس
نيستور
نيشان
نيفادا
نيفيل
نيك
نيكس
نيكلاس
نيكلسون
نيكو
نيكوس
نيكول
نيكولا
نيكولاس
نيكولاوس
نيكولاى
نيكولز
نيكولو
نيكى
نيكيتا
نيل
نيلز
نيلس
نيلسن
نيلسون
نيلسين
نيلى
نيمان
نينا
نيناد
نينتندو
نينو
نيو
نيوانجلاند
نيوبورت
نيوبيرج
نيوتن
نيوتون
نيوجيرسى
نيوز
نيوزيلاندا
نيوزيلندا
نيوكاسل
نيومان
نيويورك
ه
ها
هاج
هاجن
هارالد
هاربر
هاربور
هارت
هارتلى
هارتمان
هاردى
هاردينج
هارفارد
هارفى
هارلم
هارولد
هارون
هارى
هاريس
هاريسبرج
هاريسون
هارينجتون
هارييت
هارڤى
هاس
هاسان
هاشم
هافانا
هاك
هال
هاله
هالى
هاليفاكس
هام
هامبتون
هامبل
هامبورج
هاموند
هاميلتون
هان
هانا
هانز
هانزارد
هانس
هانسن
هانسون
هانسين
هانسينما
هانك
هانكوك
هانوفر
هانوڤر
هانى
هاو
هاواى
هاوس
هاى
هايتس
هايد
هايدلبرج
هايدن
هايدوك
هايديلبيرج
هايز
هايس
هايم
هاين
هاينريش
هاينز
هايوارد
هبوعيل
هجوم
هد
هدرسفيلد
هدسون
هذا
هذه
هربرت
هرمان
هرنانديز
هسن
هشام
هـ
هكتار
هل
هم
هما
همفرى
هنا
هناك
هنت
هنتر
هندرسون
هندريك
هندوسى
هندى
هنرى
هنريك
هنرييت
هنس
هو
هوا
هوارد
هوان
هوانج
هوب
هوبارت
هوبر
هوبكينز
هوبير
هوبيرت
هوت
هوتسبير
هوتن
هوتون
هوتين
هوج
هوجو
هوجيس
هود
هودسون
هوراس
هوراسيو
هورتون
هورسانت
هورست
هورن
هورولوجيوم
هوس
هوسين
هوف
هوفمان
هوك
هوكايدو
هوكس
هوكى
هوكينز
هول
هولاند
هولت
هولشتاين
هولم
هولمز
هولندا
هولى
هوليوود
هوم
هومبولت
هون
هونج
هوه
هوى
هويات
هويت
هويل
هوپ
هى
هي
هيا
هيب
هيتوشى
هيجينز
هيد
هيدى
هيدي
هير
هيرب
هيربيرت
هيرست
هيرش
هيرشيل
هيرفورد
هيركوليس
هيرمان
هيرنان
هيرنانديز
هيروشى
هيروشيما
هيرويوكى
هيريرا
هيس
هيك
هيكتور
هيكس
هيكى
هيل
هيلارى
هيلتون
هيلج
هيلجا
هيلد
هيلدا
هيلر
هيلز
هيلسينكى
هيلمان
هيلموت
هيلى
هيلير
هيلين
هيلينا
هين
هيندريك
هينرى
هينريتش
هينريخ
هينريك
هينز
هينك
هينى
هينينج
هيو
هيوجو
هيوز
هيوستن
هيون
هيونج
هيويت
هيي
و
وا
وات
واتانابى
واتس
واتسون
واتش
واتفورد
واحد
واحدة
واحده
واد
وادى
وارتون
وارد
وارسو
وارن
وارنر
وارين
واشنطن
واشينطون
وال
والا
والادب
والاس
والت
والتر
والتكنولوجيا
والتون
والدراسات
والرقص
والسياسه
والش
والعث
والعلمى
والعلمي
والعلوم
والفنون
والفيزياء
والقديس
والقنصلية
والكر
واللى
واللي
والمتوسطية
والمناظر
والمنظم
والمو
والميدان
والنباتات
والنشر
والهرسك
والى
وان
وانت
وانج
واندررز
واى
وايت
وايد
وايرلندا
وايز
وايس
وايلد
واين
وبالترخيص
وبر
وبرا
وبعد
وبكده
وترخيص
وتسجيلات
وثاي
وج
وجرجس
وجه
وحدة
وحيد
وخط
ود
وده
ودى
ور
ورا
وراء
وراثه
ورد
ورشه
وروبا
وروبي
وروبية
وريجت
وزارة
وزاره
وزراء
وزن
وزير
وس
وسام
وست
وسترن
وستفاليا
وستمنستر
وسط
وسع
وسم
وسياق
وصل
وصلات
وصلة
وصلت
وصله
وظ
وعة
وعصره
وعلامة
وفاة
وفق
وفنانين
وفى
وفي
وفيس
وقت
وقتها
وقد
وك
وكالة
وكان
وكانت
وكرانيا
وكمان
وكونور
وكيل
ول
ولا
ولاد
ولاية
ولايه
ولد
ولز
ولف
ولفجانج
ولكن
ولمبيديا
ولى
ولي
وليام
وليامز
وليم
ومسح
ومشروع
ومن
ون
ونايت
ونز
وهو
وهى
وهي
وو
وود
وودج
وودز
وورث
ووكر
وول
وولف
وولفجانج
وون
وونج
وى
ويب
ويبر
ويبسايت
ويبستير
ويبو
ويت
ويتنى
ويجان
ويد
وير
ويرنير
ويريليت
ويس
ويسانت
ويست
ويسترن
ويسكنسن
ويسكونسن
ويسكونسين
ويسلى
ويك
ويكى
ويكي
ويكيبيديا
ويكيترى
ويكيداتا
ويكيميديا
ويكيپيديا
ويل
ويلارد
ويلر
ويلز
ويلس
ويلسون
ويلفريد
ويلكينسون
ويلهلم
ويلهيلم
ويلى
ويليام
ويليامز
ويليامس
ويليامسون
ويليس
ويليم
ويلينجتون
ويم
ويمبلدون
وين
وينجز
ويندوز
ويندى
وينزداى
وينيبيج
ويه
وچسيتش
ى
ي
يا
يابانى
يات
ياجيلونيا
ياروسلاف
ياروسلافل
ياسمين
ياسين
ياكوب
يام
ياماجوتشى
يامادا
ياماموتو
يان
يانج
يانسن
يانكيز
يانيك
ياهو
ياو
ياورى
ياون
يايڤجينى
ياڤون
ياڤيس
ية
يت
يتاو
يتز
يتقاس
يتيمه
يحيى
يد
ير
يرس
يرلندية
يريفان
يزنشتاين
يس
يسلندا
يسوع
يسى
يسي
يسيه
يطالي
يطالية
يعقوب
يعنى
يفجينى
يقدر
يكمل
يكون
يل
يلاند
يلعب
يلى
يليه
يمكن
ين
يناير
ينج
ينس
يه
يهودا
يهودى
يو
يوا
يواكيم
يوان
يوتا
يوجوسلافيا
يوجين
يوحنا
يورج
يورجن
يورك
يوروبايا
يوروليج
يوروهوكي
يورى
يوريتش
يوسف
يوشيدا
يوكو
يوكوهاما
يوكى
يوليا
يوليه
يوليو
يوليوس
يوم
يون
يونايتد
يونج
يونس
يونيه
يونيو
يونيون
يونيڤيرسيداذ
يوهان
يوڤينتوس
يى
ييتس
ييك
ييل
يين
ً
ٌ
ٍ
َ
ُ
ِ
ّ
ْ
ٓ
ٔ
ٕ
٪
پا
پابلو
پات
پاتريسيا
پاتريك
پاتيرسون
پارك
پاركير
پاريس
پاريش
پاز
پاسكال
پاسكوال
پال
پالاس
پاول
پاين
پاڤيل
پایین
پريس
پرينس
پلیٹ
پورتسموث
پورتوجال
پول
پولا
پولو
پولى
پوليستا
پولين
پوند
پويرتو
پوينت
پوپ
پى
پياك
پيت
پيتار
پيتر
پيترا
پيترو
پيتروس
پيتسبرج
پيتيت
پيتير
پيدرو
پير
پيرسى
پيرو
پيرى
پيريرا
پيريز
پيز
پيك
پيكا
پيل
پين
پينا
پيوتر
چ
چاروسلاڤ
چاسون
چاسيك
چاك
چاكسون
چاكوب
چاكى
چامايكا
چامى
چان
چانوس
چانوسز
چانيس
چاه
چاى
چايانتس
چايم
چاين
چاڤير
چر
چشمه
چم
چو
چواكوين
چواكيم
چوان
چوانا
چواو
چودى
چورج
چورجين
چوردان
چوردى
چورچ
چوزسيف
چوزيف
چوس
چوستين
چوسى
چوسيپ
چوش
چوشوا
چولى
چوليا
چوليان
چوليس
چولين
چوليو
چوليوس
چون
چوناثان
چوناس
چونج
چونيس
چونيور
چوهان
چوهانس
چوهانسين
چوهانيس
چوى
چويل
چى
چيان
چيرزى
چيروم
چيرى
چيريمى
چيس
چيسوس
چيف
چيفرى
چيم
چيمس
چيمى
چيمينيز
چين
چينس
چينسين
چينى
چينيفير
چيونج
ڈیٹا
ڤاديم
ڤاسيل
ڤاسيلى
ڤاكلاڤ
ڤال
ڤالى
ڤاليا
ڤاليرى
ڤالينتين
ڤالينسيا
ڤالڤ
ڤان
ڤلاديسلاڤ
ڤلاديمير
ڤولوديمير
ڤون
ڤى
ڤياتشيسلاڤ
ڤيتالى
ڤيتوريو
ڤيديو
ڤيرا
ڤيرد
ڤيرونيكا
ڤيرچينيا
ڤيسينت
ڤيكتور
ڤيكتوريا
ڤيل
ڤيلا
ڤيناتيساى
ڤينسينت
ڤينسينزو
ڤينيزويلا
ڤينيسيا
ڤيينا
کشوری
ی
یه
​
‌
‎
‏
‐
–
—
‘
’
“
”
†
•
…
↑
↔
↷
−
∼
≃
≤
≲
③
④
⑦
★
⺀
⺄
⺆
⺈
⺊
⺌
⺕
⺝
⺸
⺼
⿰
⿱
⿲
⿳
⿴
⿵
⿶
⿷
⿸
⿹
⿺
⿻
、
〢
か
の
゙
゚
イ
ク
コ
シ
ス
タ
ト
フ
ユ
ン
ー
㇁
㇂
㇄
㇇
㇈
㇉
㇓
㐁
㐄
㐅
㐌
㐫
㐬
㐭
㐮
㐱
㑒
㒵
㒸
㒼
㓁
㓞
㔾
㕛
㕣
㖾
㘝
㚅
㚇
㚔
㚘
㝉
㝡
㝴
㝵
㞋
㞢
㞷
㠩
㠭
㠯
㡀
㡭
㡿
㢲
㢴
㣇
㣺
㥯
㪅
㫄
㫐
㫒
㫺
㬅
㬎
㬥
㬰
㲋
㳄
㷠
㸒
㸚
㸦
㼌
㼲
㽞
㿟
䀠
䂞
䍃
䏍
䒑
䖍
䖒
䖝
䖵
䙴
䚻
䜌
䝿
䡛
䧹
䪞
一
丁
丂
七
丄
丅
丆
万
丈
三
上
下
丌
不
与
丏
丐
丑
专
且
丕
世
丘
丙
业
东
丞
丢
丣
两
严
並
丨
丩
个
丫
丬
中
丮
丰
丱
串
丵
丶
丷
丸
丹
为
主
丽
丿
乀
乂
乃
久
乆
乇
么
义
之
乌
乍
乎
乏
乐
乑
乔
乖
乗
乘
乙
乚
乛
乜
九
乞
也
习
乡
乳
乾
亀
亅
了
亇
予
争
事
二
亍
于
亏
亐
云
互
亓
五
井
亘
亚
亜
亞
亟
亠
亡
亢
交
亥
亦
产
亨
亩
享
京
亭
亮
亯
亰
亲
亳
亶
亷
人
亻
亼
亾
仁
今
介
仌
从
仐
仑
仒
仓
仕
他
付
仝
代
令
以
任
企
伊
伏
伐
休
会
伯
但
位
何
佘
余
作
佥
使
來
侈
侌
侖
侯
侵
便
保
俞
信
修
倉
倍
候
倠
備
僉
僕
儿
兀
允
兂
元
兄
充
兆
兇
先
光
兊
克
兌
免
兑
兒
兓
兔
党
兜
兟
入
全
兩
兪
八
公
六
兮
兰
共
关
兵
其
具
典
兹
兼
冀
冂
冃
冄
内
冈
冉
冊
冋
册
再
冎
冏
冐
冒
冓
冖
冗
冘
军
农
冝
冡
冥
冫
冬
冷
几
凡
凢
凵
凶
凷
凸
凹
出
函
凾
刀
刁
刂
刃
刄
刅
分
切
刍
刑
刕
刖
列
刘
则
初
別
利
别
到
制
刺
則
削
剌
前
剡
剽
劉
力
功
加
劦
助
劫
劳
劵
勃
勇
勉
勒
動
務
勞
勤
勹
勺
勻
勾
勿
匀
匂
包
匆
匈
匊
匋
匍
匕
化
北
匚
匝
匡
匪
匱
匸
匹
区
医
匽
匿
區
十
卂
千
卄
卅
卆
升
午
卉
半
卌
华
卑
卒
卓
单
卖
南
卜
卝
卞
占
卡
卢
卣
卤
卦
卩
卪
卬
卯
印
危
即
却
卵
卷
卸
卻
厂
厃
厄
历
厈
厉
厌
厓
厘
厚
原
厤
厥
厨
厭
厲
厶
厷
厸
去
厼
厽
叀
参
參
叅
又
叉
及
友
双
反
叐
发
叒
叔
叕
取
受
叚
叜
叟
口
古
句
另
叩
只
召
可
台
叱
史
右
叵
号
司
叹
吂
各
吅
合
吉
吊
吋
同
名
后
吏
向
吕
君
吝
吞
否
含
启
吳
吴
吹
吾
呂
呆
呈
告
员
呙
周
命
咅
和
咎
咠
咢
咨
咸
咼
哀
品
哉
員
哥
哲
唐
商
啇
問
啚
啬
啻
善
喜
喬
單
喿
嗇
噩
嚴
囊
囗
囘
囙
囚
四
回
囟
因
囧
囬
困
囱
囷
固
国
圂
圅
國
圍
圓
土
圡
圣
圥
在
圭
地
圶
圼
坐
坒
坚
坴
垂
垔
垚
埀
埋
埶
執
基
堂
堅
堆
堇
堯
塞
墨
壘
士
壬
壯
声
壳
壴
壹
壺
壽
夂
处
夅
夆
备
夊
夋
夌
复
夏
夒
夕
外
夗
夘
多
夜
夢
大
夨
天
太
夫
夬
夭
央
失
夲
头
夷
夸
夹
夻
夾
奂
奄
奇
奈
奉
奎
奏
奐
契
奓
奔
奚
奞
奠
奢
奥
奭
女
奴
奻
好
如
妄
妙
妟
妥
妻
妾
姑
委
姜
威
娄
婁
婴
嬰
嬴
子
孑
孔
孕
孖
字
存
孚
孛
孝
孟
季
孤
学
孫
孱
學
宀
宁
宂
它
宅
宇
守
安
宋
完
宏
宓
宗
官
定
宛
宜
宝
客
宣
室
宮
宰
害
家
容
宾
宿
寄
寅
密
富
寒
察
寧
審
寫
寬
寮
寸
对
寺
寻
寽
対
寿
封
尃
射
将
將
專
尉
尊
尋
尌
對
小
少
尒
尓
尔
尖
尗
尚
尞
尢
尣
尤
尧
尨
尭
就
尸
尹
尺
尻
尼
尽
尾
尿
局
居
屈
屋
屎
屏
屑
展
屖
屚
属
屠
屡
屬
屮
屯
屰
山
屵
屾
岁
岂
岑
岡
岩
岳
岸
峯
島
崇
崑
崔
崖
崙
崩
嵬
嶲
巂
巛
川
州
巟
巠
巢
巤
工
左
巧
巨
巩
巫
差
己
已
巳
巴
巷
巸
巽
巾
巿
帀
市
布
希
帚
帛
帝
带
師
席
帶
常
干
平
年
幵
并
幷
幸
幺
幻
幼
幽
幾
广
広
庄
床
底
店
庚
府
度
庫
庭
庶
康
庸
廉
廌
廛
廣
廩
廴
延
廷
建
廾
廿
开
弁
弃
弄
弇
弋
式
弓
弔
引
弗
弘
弜
弟
弥
弦
弱
張
強
强
彊
彌
彎
彐
彑
当
彔
录
彖
彗
彡
形
彥
彦
彧
彭
彳
役
彼
往
待
律
徒
得
徙
從
復
微
徵
心
忄
必
忌
忍
志
忝
忠
忩
快
念
忽
忿
思
怠
急
怱
恆
恒
恩
恭
息
悉
患
悤
悲
悶
惠
惡
惢
愁
愈
意
愛
感
慈
慧
慮
憂
憲
應
戀
戈
戉
戊
戋
戌
戍
戎
成
我
戒
戔
或
戚
戠
戢
截
戲
戶
户
戹
戼
戾
房
所
扁
扇
手
扌
才
打
托
执
承
折
拉
拜
拿
掌
推
提
摩
支
攴
攵
收
攸
改
放
政
敄
敏
敕
敖
敗
敝
敞
敢
散
敦
敫
敬
数
敷
數
斂
文
斉
斊
斗
斤
斥
斩
斬
斯
新
方
於
施
斿
旁
旋
族
无
旡
既
旣
日
旦
旧
旨
早
旬
旱
旲
时
旾
昆
昇
昌
昍
明
昏
易
昔
昗
昜
星
春
昬
是
昱
昴
昷
時
晃
晋
晏
普
景
晶
智
暑
暴
曇
曩
曰
曲
曳
更
曷
書
曹
曼
曾
替
最
朁
會
月
有
朋
服
朔
朕
朗
望
朝
木
朩
未
末
本
札
朮
术
朱
朵
朶
朿
杀
杏
杜
束
条
来
東
杲
杳
松
析
林
枚
果
枝
枲
枼
某
柔
查
柬
柰
柴
栗
桀
桑
桼
梁
條
梟
梨
棘
棠
棥
森
楚
業
楽
榮
樂
樊
欠
次
欣
欮
欲
欶
欽
款
歆
歇
歛
止
正
此
步
武
歨
歪
歮
歯
歰
歲
歴
歷
歸
歹
歺
死
殳
段
殷
殸
殹
殺
殻
殿
毋
毌
母
每
毒
比
毕
毚
毛
毳
氏
氐
民
气
氣
水
氵
氶
氷
永
氺
氾
求
汝
汞
江
沃
沓
沙
沝
泉
法
波
泣
泥
泰
洛
洪
活
派
流
浦
浪
浮
淡
淮
清
渚
渠
湯
滿
漸
火
灬
灭
灰
灵
灷
炅
炎
炏
炗
炙
炭
為
烈
烏
烝
焉
無
焦
焱
然
煞
熊
熏
燕
營
燮
爪
爫
爭
爯
爰
爱
爲
爵
父
爻
爽
爾
爿
片
牙
牚
牛
牜
牟
牢
牧
牪
牽
犀
犬
犭
犮
狂
狄
狊
独
狺
猋
猒
猪
献
獻
玄
率
玉
王
玟
玨
珎
班
琴
瑟
瑩
瓜
瓦
甘
甚
生
産
用
甫
甬
田
由
甲
申
电
甶
男
甸
甹
画
甾
畀
界
畏
畐
留
畜
畟
畢
畧
畨
番
畫
異
畱
當
畺
畾
疊
疋
疌
疑
疒
疾
癶
癸
癹
登
發
白
百
皀
皃
的
皆
皇
皋
皐
皕
皮
皷
皿
盃
盆
盇
盈
益
盍
盎
监
盒
盖
盛
盡
監
盤
盧
目
直
相
盾
省
眇
眉
看
眔
眞
真
眷
眼
眾
着
睘
睪
睿
瞏
瞢
瞿
矍
矛
矞
矢
矣
知
矦
短
石
破
碎
磊
磨
示
礻
礼
祟
票
祭
禀
禁
禸
禹
禺
离
禽
禾
禿
秀
秃
秉
秋
科
秝
秦
移
稟
穀
穌
穴
究
穹
空
穿
突
窄
窒
立
竒
竜
竝
竟
章
童
竹
笑
笠
筆
等
答
箕
算
箴
節
篤
篭
米
粉
粛
粟
粤
粦
粲
糞
糸
糹
系
約
納
素
索
紫
累
細
絜
絫
絲
維
綿
縣
繇
纍
纟
缶
网
罒
罔
罕
罗
罙
罡
罢
罪
署
罷
羅
羊
羌
羍
美
羔
羕
羗
羞
羡
羣
群
義
羲
羸
羽
翁
翏
習
翕
翟
翠
翼
老
耂
考
者
耆
而
耎
耑
耒
耳
耴
耶
耷
聂
聊
聖
聚
聶
聿
肀
肃
肅
肉
肖
肙
肥
肩
肯
育
肴
胃
背
胡
胥
能
脊
脩
膚
臣
臤
臧
自
臬
臭
臯
臱
至
致
臺
臼
臽
臾
臿
舀
舂
舄
與
興
舉
舌
舍
舛
舜
舞
舟
般
艮
良
色
艸
艹
艾
芒
芔
芬
芮
花
芳
芺
芻
苔
苗
苟
若
苦
英
茶
茸
荅
草
荒
荣
荼
莆
莧
莫
莽
菆
菊
菐
華
萬
落
葉
著
葛
董
葵
蒙
蒦
蒼
蓋
蓬
蓺
蔑
蔡
蕉
蕭
薄
薛
薦
薰
藍
藏
藥
蘭
虍
虎
虐
虒
虔
處
虖
虗
虘
虚
虛
虜
虞
虫
虽
蚤
蚩
蜀
蜜
蟲
蠡
血
行
衍
衛
衣
衤
表
衮
衰
袁
袞
褭
褱
襄
襾
西
覀
要
覃
見
規
覓
覧
親
覽
见
角
解
言
訁
訇
計
詹
誩
諸
讠
谷
豆
豈
豊
豐
豕
豖
豙
象
豦
豩
豪
豸
貇
貝
貞
貟
負
貢
貧
貪
貫
責
貳
貴
買
費
賁
資
賈
賏
賓
賔
賛
賞
賢
賣
質
賴
贊
贝
贡
责
贯
贲
贵
赖
赞
赤
赦
走
越
足
路
蹇
身
躬
車
軍
軎
軟
輦
车
辛
辜
辟
辥
辰
辱
農
辵
辶
边
达
过
近
连
迷
追
退
送
逆
逐
通
速
造
逢
連
逮
進
遀
遂
過
道
達
遣
適
遷
遺
邊
邑
邕
那
邦
邪
郎
部
郭
都
鄉
酉
酋
配
酓
釆
采
里
重
野
量
金
釒
錢
钅
長
镸
长
門
閃
閉
開
閏
閑
閒
間
閔
閵
閻
闌
门
间
闷
阑
阜
阝
阿
降
陳
隆
隊
隋
隡
隨
隱
隶
隹
隺
隻
隼
隽
难
雀
雁
集
雈
雋
雍
雐
雔
雙
雚
雜
雝
離
難
雨
雩
雪
雲
零
雷
需
霍
霜
霝
霞
霸
靈
靑
青
非
靡
面
靣
革
韋
韦
韭
韯
韱
音
頁
頃
項
須
頗
頡
頻
顛
页
風
风
飛
飞
食
飠
養
饣
首
香
馬
馮
駦
马
骨
高
髟
鬥
鬯
鬲
鬼
魚
魯
鮮
鱼
鲁
鳥
鳳
鸟
鹵
鹿
麃
麗
麥
麦
麻
黃
黄
黍
黎
黑
黒
黨
黹
黽
黾
鼎
鼓
鼠
鼻
齊
齋
齐
齒
齿
龍
龙
龜
龟
龠
龰
龱
龴
龵
龶
龷
龸
龹
者
艹
？
𠀁
𠀃
𠀆
𠀉
𠀎
𠀐
𠁁
𠁣
𠂆
𠂇
𠂈
𠂉
𠂊
𠂋
𠂎
𠂒
𠂔
𠂛
𠂡
𠂢
𠂤
𠂬
𠂭
𠂹
𠃊
𠃋
𠃌
𠃍
𠃎
𠃑
𠃓
𠃔
𠃜
𠄌
𠄎
𠄠
𠄢
𠆢
𠆥
𠇍
𠈌
𠌵
𠓜
𠔉
𠔥
𠔼
𠔽
𠔿
𠕀
𠕁
𠕋
𠘧
𠘨
𠙻
𠙼
𠚏
𠚒
𠚤
𠚪
𠣏
𠤎
𠤕
𠥓
𠦄
𠦑
𠦝
𠧒
𠧗
𠧪
𠩺
𠪚
𠫓
𠫔
𠫤
𠬛
𠬝
𠬞
𠬢
𠬤
𠬶
𠮛
𠮦
𠮷
𠯑
𠱠
𠳮
𠷎
𡈼
𡉀
𡉵
𡌥
𡍮
𡏳
𡕒
𡕩
𡕰
𡖅
𡗗
𡗜
𡘆
𡘤
𡧱
𡨄
𡩧
𡬠
𡭽
𡰣
𡰥
𡰪
𡰯
𡰱
𡷈
𡸁
𡿨
𡿩
𡿪
𡿺
𢀖
𢀛
𢀩
𢁙
𢆉
𢆰
𢆶
𢇁
𢇇
𢉖
𢌬
𢌿
𢏚
𢑑
𢑚
𢖻
𢙣
𢛳
𢦏
𢦒
𢧵
𢼄
𢾕
𣁋
𣄼
𣅀
𣅽
𣍘
𣎳
𣎵
𣏋
𣏼
𣗥
𣥂
𣥖
𣦵
𣦼
𣧄
𣪊
𣪠
𣬉
𣳾
𣶒
𤇾
𤊽
𤐫
𤓰
𤔔
𤕨
𤣩
𤰇
𤰔
𤰞
𤴓
𤴔
𤽄
𥁑
𥁕
𥃦
𥃩
𥃭
𥇡
𥑟
𥘅
𥘈
𥝢
𥫗
𥱡
𦈢
𦉪
𦉬
𦉼
𦍌
𦍒
𦎧
𦐇
𦓔
𦔮
𦘒
𦙃
𦚏
𦣝
𦣞
𦣻
𦥑
𦥔
𦥯
𦨉
𦭝
𦰩
𧆞
𧈧
𧘇
𧰨
𧴪
𧴮
𧵩
𧾷
𨸏
𨾴
𩙿
𩠐
𩫏
𩵋
𪉷
𪜀
𪟽
𪠲
𪩲
𫇦
𫔭
𫜸
𫝀
𫠣
𫠩
𫢉
𫥞
𫩏
𫩠
𫪡
𫲽
𫶧
𬀷
𬐘
𬗌
𬙙
𬛸
𬜯
𬟩
𬯁
𬴘
𬺻
𬼉
𬼖
𭀰
𭁈
𭁨
𭅰
𭑈
𭕄
𭗼
𭤨
𭥫
𭻾
𮅕
𮊿
𮍌
𮍏
𮓗
𮥼
𮧮
廾
𰀁
𰀄
𰀈
𰀉
𰀕
𰀠
𰀡
𰀢
𰀪
𰁜
𰃮
𰆊
𰆘
𰋙
𰕎
𰢴
𰧭
𰯲
00--
000--
001--
002--
003--
004--
005--
01--
010--
011--
012--
013--
017--
02--
03--
04--
05--
06--
07--
08--
09--
100--
101--
102--
103--
104--
105--
106--
107--
108--
109--
110--
111--
112--
113--
114--
115--
116--
117--
118--
119--
120--
121--
122--
123--
124--
125--
126--
127--
128--
129--
130--
131--
132--
133--
134--
135--
136--
137--
138--
139--
140--
141--
142--
143--
144--
145--
146--
148--
150--
151--
152--
153--
154--
155--
157--
158--
159--
160--
161--
162--
163--
164--
165--
170--
171--
172--
173--
174--
175--
176--
177--
178--
203--
205--
210--
213--
214--
220--
221--
222--
223--
224--
231--
232--
233--
234--
235--
27--
28--
29--
30--
31--
313--
32--
320--
33--
34--
358--
36--
37--
38--
39--
40--
401--
403--
405--
4060--
4080--
41--
42--
43--
44--
45--
46--
47--
48--
49--
50--
500--
503--
51--
52--
53--
54--
55--
558--
56--
560--
562--
563--
57--
58--
59--
60--
61--
62--
63--
64--
65--
66--
67--
68--
69--
70--
71--
72--
73--
74--
75--
76--
77--
78--
79--
80--
81--
82--
83--
84--
85--
86--
87--
88--
89--
90--
91--
92--
93--
94--
95--
96--
97--
98--
99--
a--
aa--
ab--
ac--
ad--
adel--
admini--
ae--
af--
ag--
ak--
al--
ale--
alek--
am--
an--
ana--
ang--
angio--
anti--
ap--
ar--
arch--
archa--
art--
as--
ash--
at--
au--
av--
ay--
az--
b--
ba--
bal--
ban--
bar--
barc--
bart--
bb--
bc--
bd--
be--
bei--
bel--
ber--
bert--
bf--
bg--
bi--
bib--
bil--
bir--
bk--
bla--
blan--
blo--
bm--
bn--
bo--
bol--
bon--
bor--
bota--
bou--
bp--
br--
bra--
bri--
bro--
broo--
bru--
bt--
bu--
bul--
bund--
bur--
but--
by--
c--
ca--
cal--
can--
cana--
cand--
capi--
car--
cat--
cd--
ce--
cec--
cele--
cen--
cf--
ch--
che--
chi--
chil--
cho--
cir--
cl--
cle--
co--
col--
com--
con--
conse--
const--
coo--
cor--
corn--
cou--
cra--
cre--
cri--
cro--
cs--
cu--
cur--
cy--
cz--
d--
da--
dal--
dan--
dar--
data--
db--
dc--
dd--
de--
dec--
depu--
des--
dev--
di--
disp--
do--
dr--
dra--
ds--
du--
dun--
dy--
e--
ea--
eb--
ec--
ed--
edo--
ee--
ef--
eg--
ei--
el--
ely--
em--
en--
epi--
er--
es--
et--
eu--
ev--
ex--
f--
fa--
fal--
fb--
fc--
fe--
fer--
fi--
fin--
fla--
flo--
fo--
fol--
for--
fr--
fred--
fri--
fu--
g--
ga--
gal--
gar--
ge--
geo--
geoff--
ger--
get--
gi--
gia--
gil--
gio--
glo--
go--
gr--
gro--
gu--
guar--
guil--
h--
ha--
hal--
ham--
har--
hart--
hay--
he--
hel--
her--
hi--
hil--
hl--
ho--
hol--
hou--
hr--
hu--
hun--
hur--
hy--
hydr--
i--
ia--
id--
ign--
il--
im--
in--
indi--
inter--
io--
ir--
is--
it--
iv--
j--
ja--
je--
jeff--
jen--
jer--
jo--
joaqu--
ju--
just--
k--
ka--
kal--
kan--
kay--
ke--
ken--
kha--
ki--
kil--
ko--
kon--
kr--
ku--
l--
la--
lan--
land--
lau--
le--
les--
li--
lin--
lo--
loko--
lt--
lu--
luci--
ly--
m--
ma--
mag--
magn--
mal--
man--
mar--
mars--
maus--
mc--
mcc--
me--
mel--
mem--
men--
mer--
merc--
mi--
mik--
mil--
mini--
minne--
mo--
mol--
mon--
mor--
mord--
mr--
mu--
mul--
my--
n--
na--
nan--
nd--
ne--
net--
neu--
new--
ni--
no--
nor--
nov--
nu--
ny--
o--
ob--
oc--
of--
ol--
om--
on--
or--
os--
out--
ov--
p--
pa--
page--
pal--
patr--
pe--
per--
petr--
phi--
pho--
pi--
pin--
pl--
play--
pm--
po--
pol--
poli--
pon--
ponti--
posi--
pr--
pro--
ps--
pu--
q--
qu--
qua--
quic--
r--
ra--
rac--
rad--
rap--
rb--
re--
red--
reg--
resi--
rg--
ri--
ro--
rou--
rs--
ru--
ry--
s--
sa--
sac--
sal--
sala--
sc--
sch--
scien--
se--
sei--
sel--
sele--
sey--
sh--
sher--
shi--
sho--
si--
sid--
sil--
sk--
sl--
sloven--
sm--
sn--
so--
sol--
sop--
sp--
spa--
sq--
st--
stani--
ste--
sto--
stra--
stu--
su--
sub--
super--
supp--
sv--
swe--
swi--
sy--
syl--
sz--
t--
ta--
tai--
te--
tele--
ter--
th--
the--
ti--
to--
tor--
tou--
tr--
tra--
tran--
trea--
tri--
tro--
tt--
tu--
tw--
ty--
u--
uk--
ul--
um--
un--
univers--
up--
us--
uv--
v--
va--
val--
van--
ve--
ver--
vi--
view--
vil--
vo--
vol--
vor--
w--
wa--
wal--
war--
wat--
we--
whit--
wi--
wiki--
wil--
win--
wol--
wri--
wy--
x--
y--
ye--
yo--
yu--
z--
za--
zu--
ا--
اب--
ابو--
ابي--
ابير--
ات--
اتا--
اتي--
اث--
اج--
اجنا--
اجو--
اح--
اخ--
اخت--
اد--
ادال--
ادو--
ادي--
ار--
ارا--
ارت--
ارش--
ارن--
ارو--
اري--
از--
ازو--
ازي--
اس--
اسا--
است--
اسط--
اسي--
اش--
اشت--
اص--
اض--
اط--
اع--
اعت--
اعص--
اغ--
اف--
اق--
اك--
اكا--
اكت--
اكر--
اكس--
اكل--
اكم--
اكو--
ال--
الا--
الات--
الاح--
الار--
الاست--
الاسكتلن--
الاق--
الاكو--
الان--
الب--
البا--
البح--
البص--
البط--
البل--
البو--
الت--
التا--
التح--
التر--
التس--
التش--
التع--
الث--
الج--
الجن--
الح--
الحص--
الحض--
الخ--
الخم--
الد--
الذ--
الر--
الرح--
الز--
الزي--
الس--
السع--
الش--
الشع--
الص--
الصح--
الصر--
الصن--
الصو--
الض--
الط--
الظ--
الع--
العص--
العق--
الغ--
الغز--
الف--
الفي--
الق--
القو--
الك--
الكت--
الكي--
الل--
اللا--
الم--
المت--
المح--
المس--
المست--
المن--
الن--
اله--
الهولن--
الو--
الي--
اليج--
اليز--
الڤ--
ام--
اما--
امب--
امي--
ان--
انا--
انت--
انتر--
انتي--
انث--
انج--
اند--
انر--
انز--
انس--
انط--
انغ--
انو--
اني--
اه--
او--
اوب--
اوت--
اوج--
اود--
اور--
اوري--
اوز--
اوس--
اوست--
اوسو--
اوش--
اوف--
اوق--
اوك--
اول--
اولد--
اولم--
اولي--
اوليك--
اوليم--
اون--
اوه--
اوي--
اي--
ايا--
ايب--
ايت--
ايتا--
ايث--
ايج--
ايد--
اير--
ايز--
ايس--
ايش--
ايشي--
ايف--
ايك--
ايل--
ايم--
اين--
اپ--
اڤ--
اڤي--
ای--
ب--
با--
باب--
بات--
باج--
باد--
بار--
باس--
باسي--
باش--
باك--
بال--
بالا--
بام--
بان--
باه--
باو--
باي--
بت--
بتت--
بتو--
بج--
بح--
بخ--
بر--
برا--
برام--
بران--
برت--
برج--
برد--
برك--
برن--
برو--
بروفي--
بروك--
بري--
بريز--
بريش--
بريط--
برين--
بز--
بس--
بش--
بص--
بط--
بع--
بق--
بك--
بل--
بلا--
بلاك--
بلو--
بلوم--
بلون--
بلي--
بم--
بن--
به--
بها--
بو--
بوا--
بوب--
بوت--
بوج--
بود--
بور--
بوز--
بوس--
بوش--
بوك--
بول--
بولي--
بوم--
بومير--
بون--
بوهي--
بوي--
بي--
بيا--
بيب--
بيت--
بيج--
بيد--
بير--
بيرن--
بيري--
بيس--
بيست--
بيش--
بيك--
بيل--
بيلي--
بيم--
بين--
بيني--
بيو--
بچ--
بی--
ت--
تا--
تات--
تاج--
تار--
تاك--
تاكا--
تالا--
تام--
تان--
تاو--
تاي--
تب--
تت--
تج--
تح--
تحر--
تخ--
تد--
تر--
ترا--
ترك--
ترنت--
ترو--
تري--
تريس--
تريم--
تز--
تس--
تسو--
تسي--
تش--
تشا--
تشاب--
تشات--
تشار--
تشارل--
تشام--
تشاپ--
تشر--
تشو--
تشي--
تشيت--
تشير--
تصو--
تض--
تع--
تغ--
تف--
تق--
تقلي--
تك--
تل--
تلم--
تم--
تن--
تو--
توب--
تور--
توش--
توشي--
توك--
تول--
توم--
تون--
تي--
تيت--
تير--
تيك--
تيل--
تيم--
تين--
تيو--
ث--
ثع--
ثق--
ثم--
ثور--
ثوم--
ثي--
ثير--
ثيل--
ثيو--
ج--
جا--
جاب--
جات--
جاد--
جار--
جاس--
جاف--
جاك--
جال--
جالا--
جام--
جان--
جاو--
جاي--
جر--
جرا--
جراو--
جرو--
جرون--
جري--
جرين--
جز--
جش--
جع--
جل--
جلو--
جلي--
جن--
جو--
جوا--
جوت--
جوث--
جود--
جور--
جوس--
جول--
جولد--
جوم--
جون--
جوي--
جي--
جيا--
جيام--
جيان--
جيب--
جيد--
جير--
جيري--
جيزي--
جيس--
جيف--
جيل--
جيم--
جين--
جيو--
جيور--
جيورد--
ح--
حب--
حج--
حد--
حر--
حص--
حض--
حق--
حكا--
حن--
حو--
خ--
خا--
خار--
خد--
خر--
خري--
خش--
خض--
خط--
خل--
خم--
خن--
خو--
خي--
د--
دا--
داج--
دار--
داس--
دال--
دام--
دان--
داي--
دب--
در--
درو--
دري--
دز--
دع--
دك--
دل--
دم--
دن--
دني--
ده--
دو--
دوب--
دوت--
دوج--
دود--
دور--
دوس--
دوك--
دول--
دوم--
دون--
دوپ--
دي--
ديا--
ديب--
ديج--
ديد--
دير--
ديز--
ديس--
ديف--
ديك--
ديل--
ديم--
دين--
ديو--
ديڤ--
ديڤي--
دی--
ذ--
ر--
را--
راب--
رات--
راج--
راد--
راس--
رام--
ران--
راو--
راي--
راين--
راچ--
رت--
رح--
رخ--
رسم--
رش--
رف--
رق--
رك--
رم--
رن--
ره--
رو--
روب--
روت--
روث--
روج--
روخ--
رود--
روز--
روزن--
روس--
روسي--
روسين--
روش--
روك--
رول--
روم--
رون--
روي--
ري--
ريا--
ريت--
ريج--
ريد--
ريس--
ريش--
ريف--
ريك--
رين--
ريو--
ريي--
ری--
ز--
زا--
زاب--
زار--
زاف--
زاك--
زام--
زان--
زاه--
زر--
زع--
زغ--
زن--
زه--
زو--
زي--
زير--
زين--
زی--
س--
سا--
سات--
سار--
ساس--
ساع--
سال--
سالز--
سام--
سان--
ساو--
ساوث--
ساي--
ساڤ--
سب--
ست--
ستاف--
ستام--
سترا--
ستش--
ستشر--
ستشو--
ستو--
ستول--
ستي--
ستين--
سح--
سر--
سز--
سزي--
سس--
سع--
سف--
سفي--
سق--
سك--
سكا--
سكار--
سكو--
سكوت--
سكون--
سكي--
سل--
سلا--
سم--
سميث--
سن--
سه--
سو--
سوج--
سود--
سور--
سوس--
سول--
سولي--
سومير--
سون--
سوي--
سي--
سيا--
سيت--
سيج--
سيجيس--
سيد--
سير--
سيس--
سيف--
سيك--
سيل--
سيم--
سين--
سيو--
سيپ--
سيڤ--
سيڤي--
سپ--
سپا--
سی--
ش--
شا--
شاب--
شات--
شاد--
شار--
شاف--
شام--
شان--
شاه--
شب--
شت--
شتي--
شج--
شر--
شع--
شق--
شك--
شمع--
شن--
شها--
شو--
شور--
شون--
شوي--
شي--
شيت--
شير--
شيل--
شين--
شيه--
شی--
ص--
صب--
صح--
صد--
صف--
صل--
صن--
صو--
ض--
ضر--
ط--
طا--
طب--
طبيع--
طل--
طو--
طي--
ظ--
ع--
عا--
عال--
عبد--
عر--
عز--
عش--
عص--
عط--
عظ--
عق--
عن--
غ--
غر--
غل--
غو--
ف--
فا--
فار--
فاط--
فال--
فان--
فاندر--
فاي--
فاير--
فاين--
فر--
فرا--
فراي--
فرن--
فرو--
فري--
فط--
فق--
فكت--
فل--
فلا--
فلو--
فلي--
فن--
فه--
فو--
فوت--
فور--
فوس--
فول--
فون--
في--
فيت--
فيتز--
فيد--
فير--
فيس--
فيست--
فيش--
فيك--
فيل--
فيلا--
فيلو--
فين--
فيو--
فی--
ق--
قا--
قت--
قد--
قر--
قرا--
قص--
قض--
قط--
قن--
قو--
قي--
ك--
كا--
كاب--
كات--
كاث--
كاج--
كار--
كارا--
كارل--
كاري--
كاز--
كازو--
كازي--
كاس--
كاسي--
كاش--
كال--
كالي--
كالين--
كام--
كان--
كاو--
كاوا--
كاي--
كاپ--
كت--
كث--
كر--
كرا--
كران--
كرد--
كرو--
كري--
كست--
كش--
كل--
كلو--
كلي--
كم--
كن--
كنا--
كه--
كهر--
كو--
كوب--
كوت--
كود--
كور--
كوري--
كوز--
كوس--
كوش--
كوك--
كول--
كولي--
كوم--
كومي--
كون--
كونيجس--
كوه--
كوي--
كوپ--
كوڤ--
كي--
كيا--
كيت--
كير--
كيرك--
كيس--
كيل--
كيم--
كين--
كينج--
كيو--
كيپ--
كچ--
ل--
لا--
لاب--
لات--
لاث--
لار--
لاز--
لاس--
لاك--
لام--
لان--
لانج--
لاند--
لاو--
لاي--
لاڤ--
لت--
لح--
لط--
لع--
لغ--
لف--
لق--
لك--
لل--
للا--
للت--
للتقن--
للح--
للر--
للك--
للم--
للن--
لم--
لمحتر--
لن--
له--
لو--
لوب--
لوت--
لوث--
لوج--
لود--
لور--
لوس--
لوف--
لوك--
لوم--
لون--
لونج--
لوپ--
لي--
ليب--
ليبر--
ليت--
ليج--
ليس--
ليف--
ليك--
ليل--
ليم--
لين--
ليند--
ليو--
ليپ--
ليڤ--
لی--
م--
ما--
مات--
ماث--
ماج--
ماد--
مار--
ماري--
ماز--
ماس--
ماش--
ماك--
ماكور--
مال--
مام--
مان--
ماها--
ماي--
ماچ--
مب--
مت--
مج--
مح--
مخ--
مد--
مذ--
مر--
مز--
مزر--
مس--
مست--
مستش--
مش--
مشت--
مص--
مض--
مط--
مطث--
مع--
مغ--
مف--
مق--
مقب--
مك--
مكا--
مكل--
مل--
مم--
من--
منت--
منظ--
مه--
مو--
موت--
مود--
مور--
موز--
موس--
موك--
مول--
موم--
مون--
مونت--
مي--
ميا--
ميت--
ميث--
ميج--
ميخ--
ميد--
ميدل--
مير--
ميري--
ميس--
ميش--
ميك--
ميل--
ميلي--
مين--
ميه--
ميچ--
می--
ن--
نا--
نات--
ناج--
نار--
ناز--
ناس--
ناكا--
نان--
ناو--
ناي--
نب--
نت--
نج--
نح--
نخ--
نر--
نز--
نس--
نص--
نظ--
نع--
نق--
نو--
نور--
نوف--
نوي--
نوڤ--
ني--
نيج--
نيد--
نير--
نيس--
نيش--
نيشي--
نيك--
نيل--
نين--
نيه--
نيو--
ه--
ها--
هات--
هاج--
هار--
هارت--
هارد--
هاز--
هاس--
هاشي--
هاف--
هاك--
هال--
هالي--
هام--
هان--
هاني--
هاو--
هاي--
هد--
هر--
هل--
هم--
هن--
هو--
هوب--
هوت--
هوج--
هود--
هور--
هورو--
هوس--
هوف--
هول--
هوم--
هون--
هوي--
هي--
هيب--
هيبر--
هيج--
هيد--
هير--
هيس--
هيك--
هيل--
هيلي--
هيم--
هين--
هيو--
و--
وا--
وات--
واد--
وار--
واش--
وال--
وان--
واي--
وايت--
وت--
وج--
وح--
وحد--
ود--
ور--
وز--
وس--
وش--
وص--
وط--
وع--
وق--
وك--
ول--
ولف--
ولم--
وم--
ون--
وه--
وو--
وود--
وي--
ويت--
ويد--
وير--
ويز--
ويس--
ويست--
ويك--
ويل--
وين--
ي--
يا--
يار--
ياسو--
يام--
يان--
ياو--
ياي--
يايڤ--
يت--
يح--
يخ--
يد--
ير--
يزو--
يس--
يست--
يش--
يط--
يع--
يف--
يق--
يل--
ين--
ينت--
يه--
يو--
يور--
يوش--
يوشي--
يوم--
يون--
يوني--
پ--
پا--
پات--
پار--
پال--
پان--
پاڤ--
پرا--
پرو--
پري--
پش--
پلا--
پو--
پوج--
پود--
پور--
پوس--
پوك--
پول--
پون--
پونت--
پي--
پيت--
پير--
پيس--
پيك--
پيل--
پيلي--
پين--
پی--
چ--
چا--
چار--
چاس--
چاك--
چان--
چاي--
چو--
چوس--
چون--
چي--
چير--
چيف--
چيل--
چين--
ڤ--
ڤا--
ڤار--
ڤال--
ڤان--
ڤاي--
ڤو--
ڤور--
ڤول--
ڤي--
ڤيت--
ڤيج--
ڤير--
ڤيس--
ڤيل--
ڤين--
ڤينت--
ڤيو--
ڤيڤ--
ک--
ی--
--0
--00
--01
--02
--022
--023
--026
--028
--03
--037
--04
--041
--042
--049
--05
--06
--07
--08
--083
--09
--096
--1
--10
--11
--12
--13
--14
--15
--16
--17
--18
--19
--2
--20
--21
--22
--23
--24
--25
--26
--27
--28
--286
--29
--292
--3
--30
--302
--303
--31
--32
--329
--33
--34
--35
--36
--37
--375
--38
--39
--4
--40
--41
--42
--43
--433
--44
--45
--457
--458
--459
--46
--47
--48
--484
--49
--5
--50
--507
--508
--509
--51
--52
--521
--528
--53
--531
--536
--54
--542
--544
--55
--56
--57
--58
--583
--59
--6
--60
--61
--611
--62
--625
--63
--639
--64
--65
--66
--667
--67
--68
--69
--694
--7
--70
--708
--71
--72
--722
--724
--725
--73
--734
--74
--747
--75
--754
--759
--76
--77
--78
--79
--792
--8
--80
--806
--81
--82
--83
--833
--834
--84
--85
--86
--87
--875
--88
--89
--9
--90
--91
--915
--917
--92
--93
--932
--94
--944
--95
--958
--96
--97
--972
--98
--99
--a
--able
--ac
--ack
--ad
--ada
--ado
--ae
--ag
--ah
--ai
--ain
--ak
--al
--ald
--ale
--als
--am
--ama
--an
--ani
--ano
--ans
--ant
--anu
--ao
--ar
--ara
--ard
--ari
--ary
--as
--ase
--assets
--at
--ata
--ate
--ation
--ations
--ative
--ato
--ats
--au
--aud
--aw
--ay
--aya
--b
--ba
--be
--ber
--berg
--bes
--bi
--bl
--ble
--burg
--by
--c
--ca
--cal
--can
--ce
--cer
--ch
--chi
--ci
--cia
--cing
--cio
--ck
--co
--cs
--cts
--cy
--d
--da
--data
--de
--di
--dio
--do
--dom
--ds
--dt
--duct
--dy
--e
--ea
--eau
--ed
--ee
--ei
--eira
--ek
--el
--ell
--elm
--els
--em
--en
--ens
--ent
--er
--era
--erg
--ern
--ero
--ers
--ert
--es
--ese
--et
--ets
--ett
--eum
--eur
--eus
--eux
--ev
--ey
--ez
--f
--fa
--ff
--fic
--ft
--g
--ga
--ge
--ger
--ggs
--ght
--ghts
--gi
--go
--gram
--gs
--gue
--h
--ha
--hall
--ham
--he
--hi
--hn
--ho
--ht
--i
--ia
--ial
--ian
--ic
--ich
--ick
--ico
--id
--ida
--ie
--ien
--ier
--ies
--ig
--ii
--ik
--il
--ila
--ill
--ille
--im
--in
--ina
--ine
--ing
--ings
--ini
--ino
--ins
--io
--ion
--ional
--ions
--ip
--ir
--ira
--ire
--iro
--is
--ish
--ist
--it
--ita
--ite
--ities
--ity
--itz
--ius
--iv
--iva
--ivo
--ix
--iz
--j
--ja
--je
--ji
--jo
--k
--ka
--ke
--ker
--ket
--ki
--ko
--kov
--ks
--ky
--l
--la
--lan
--land
--lands
--lar
--latura
--ld
--le
--len
--ler
--let
--ley
--lf
--li
--lia
--lin
--ling
--lis
--lk
--ll
--lla
--lle
--lli
--llo
--lls
--lly
--lm
--ln
--lo
--logy
--lon
--lor
--ls
--lt
--ly
--m
--ma
--man
--mar
--me
--ment
--mer
--mercial
--mi
--mia
--mmad
--mo
--mon
--my
--n
--na
--nal
--nberg
--nc
--nce
--nd
--nda
--nde
--ndo
--ne
--nel
--ner
--nes
--ney
--ng
--ngo
--ngs
--ni
--nia
--nic
--nie
--nik
--nis
--nk
--nko
--nn
--nne
--nny
--no
--nor
--ns
--nse
--nt
--nta
--ntin
--nton
--nts
--nus
--ny
--o
--od
--og
--ogy
--ok
--ol
--om
--on
--ona
--ong
--oni
--ons
--ook
--op
--or
--ord
--ore
--ori
--ors
--os
--ot
--ou
--ous
--ov
--ova
--ovic
--ovich
--ow
--oy
--p
--pa
--pe
--ph
--q
--r
--ra
--ran
--rd
--rdt
--re
--res
--rg
--ri
--ria
--ridge
--rie
--rik
--rin
--rity
--rn
--ro
--rod
--rr
--rs
--rt
--ru
--rus
--ry
--s
--sa
--sch
--se
--sed
--sen
--ser
--sey
--sh
--shi
--ship
--si
--sia
--sion
--sk
--sket
--so
--son
--ss
--sson
--st
--ston
--style
--su
--t
--ta
--tas
--tat
--te
--ted
--ten
--ter
--tes
--th
--ti
--tic
--tin
--ting
--tion
--tions
--to
--ton
--tor
--tov
--ts
--tt
--tta
--tte
--tti
--ty
--tz
--u
--ual
--ud
--ue
--uk
--ul
--um
--un
--ung
--ur
--ura
--ure
--ures
--urg
--ury
--us
--usz
--ut
--ux
--v
--va
--ve
--ver
--via
--ville
--vo
--vy
--w
--wa
--wn
--ws
--x
--xa
--y
--ya
--yd
--ye
--yn
--yo
--ys
--z
--za
--ze
--zo
--zzi
--zzo
--и
--ич
--н
--я
--ء
--ا
--اء
--اب
--ابا
--اة
--ات
--اتا
--اته
--اتو
--اتى
--اث
--اج
--اجا
--اجو
--اجى
--اح
--اخ
--اد
--ادا
--ادو
--ادى
--اذ
--ار
--ارا
--ارت
--ارد
--اردو
--ارك
--اره
--ارو
--ارى
--اريا
--از
--ازى
--اس
--اش
--اشر
--اشى
--اع
--اعة
--اف
--اق
--اقع
--اك
--اكا
--اكو
--اكى
--ال
--الا
--الى
--ام
--امو
--اموتو
--ان
--انا
--انت
--اند
--انز
--انس
--انو
--انى
--اني
--انين
--انيه
--اه
--اهان
--او
--اوا
--اوات
--اوس
--اوير
--اى
--اي
--ايا
--ايت
--ايس
--ايل
--اين
--ايو
--اچ
--اڤ
--ب
--با
--باتش
--باخ
--باس
--بة
--بت
--بر
--برت
--برج
--برز
--بره
--بز
--بس
--بسون
--بع
--بق
--بل
--بن
--به
--بو
--بورج
--بورو
--بوز
--بوس
--بول
--بى
--بي
--بيرج
--بيك
--بيل
--ة
--ت
--تا
--تاد
--تار
--تارو
--تاس
--تال
--تان
--تاون
--تاين
--تر
--ترا
--ترز
--تز
--تس
--تسا
--تسو
--تسى
--تش
--تشا
--تشر
--تشى
--تك
--تكس
--تل
--تلى
--تمان
--تن
--تنر
--تنير
--ته
--تها
--تهم
--تو
--تور
--توس
--تون
--توڤ
--تى
--تي
--تيا
--تيان
--تير
--تيس
--تيل
--تين
--تيه
--تيو
--تيوس
--تيون
--تچارنين
--ث
--ثا
--ثال
--ثر
--ثل
--ثوس
--ثون
--ثى
--ثير
--ج
--جا
--جات
--جان
--جاوا
--جة
--جت
--جتون
--جد
--جر
--جرز
--جز
--جس
--جع
--جل
--جلو
--جلى
--جن
--جنر
--جه
--جو
--جوت
--جى
--جي
--جيا
--جير
--جين
--ح
--حاث
--حة
--حت
--حل
--حله
--حه
--حي
--خ
--خا
--خام
--خب
--خت
--خر
--خرج
--خل
--خن
--خو
--خوف
--خى
--د
--دا
--دات
--داد
--دال
--دة
--دت
--دج
--در
--درا
--درز
--درو
--درى
--دريد
--دريه
--دز
--دس
--دل
--دلر
--دلى
--دلير
--دمان
--دن
--ده
--دو
--دورف
--دون
--دى
--دي
--ديا
--ديت
--دير
--ديز
--ديس
--ديش
--ديل
--دين
--ديو
--ذ
--ذر
--ذن
--ر
--را
--رات
--راج
--راد
--راضى
--رال
--رام
--ران
--راند
--رب
--ربع
--رة
--رت
--رتش
--رتى
--رث
--رج
--رد
--ردو
--ردى
--رز
--رس
--رش
--رع
--رف
--رق
--رقه
--رك
--رل
--رم
--رن
--ره
--رو
--روا
--روس
--روف
--روفت
--روڤ
--رى
--ري
--ريا
--ريت
--رير
--ريز
--ريس
--ريش
--ريك
--رين
--ريه
--ريو
--ری
--ز
--زا
--زاده
--زان
--زة
--زر
--زكا
--زل
--زن
--زه
--زو
--زون
--زى
--زيا
--زير
--زيك
--زيل
--زيو
--س
--سا
--سار
--ساس
--سب
--سبى
--سة
--ست
--ستاين
--ستر
--ستروم
--ستش
--ستن
--ستول
--ستون
--ستيدت
--ستير
--ستين
--سدورف
--سر
--سز
--سفيل
--سك
--سكا
--سكايا
--سكس
--سكو
--سكى
--سل
--سلاف
--سلر
--سلو
--سلى
--سمان
--سن
--سه
--سو
--سوف
--سوم
--سون
--سى
--سي
--سيا
--سيس
--سيك
--سين
--سيه
--سيو
--سچون
--ش
--شا
--شار
--شارد
--شاير
--شة
--شت
--شتى
--شر
--شك
--شكى
--شل
--شن
--شنر
--شه
--شو
--شوان
--شوك
--شى
--شي
--شيا
--شيتا
--شيتش
--شير
--شيس
--شيف
--شيك
--شيكو
--شيم
--شيما
--شين
--شيڤ
--ص
--صا
--صة
--صر
--صف
--صل
--صميم
--صه
--صوير
--ض
--ضا
--ضة
--ضح
--ضع
--ضل
--ضم
--ضه
--ضى
--ط
--طة
--طر
--طرق
--طه
--طى
--طيه
--ظ
--ظر
--ظم
--ع
--عاد
--عب
--عة
--عت
--عد
--عل
--عم
--عه
--عى
--عي
--غ
--غه
--ف
--فا
--فة
--فت
--فر
--فس
--فسكى
--فع
--فق
--فل
--فن
--فه
--فو
--فى
--فيا
--فيت
--فيتش
--فيج
--فيس
--فيل
--فيلد
--ق
--قا
--قات
--قب
--قة
--قر
--قس
--قط
--قف
--قل
--قه
--قوش
--قى
--قي
--قيه
--ك
--كا
--كار
--كال
--كة
--كر
--كس
--كسى
--كل
--كلى
--كن
--كنز
--كه
--كو
--كوت
--كوس
--كوف
--كوفا
--كوفسكى
--كوفيتش
--كويست
--كوپف
--كوڤ
--كوڤا
--كوڤيك
--كى
--كي
--كيت
--كيز
--كين
--كيه
--كڤيست
--ل
--لا
--لات
--لاح
--لار
--لاف
--لان
--لاي
--لاڤ
--لب
--لة
--لت
--لتا
--لد
--لر
--لز
--لس
--لف
--لفزيون
--لق
--لك
--لم
--لن
--لنج
--له
--لو
--لور
--لوڤ
--لى
--لي
--ليا
--لية
--ليت
--ليد
--لير
--ليس
--لين
--ليه
--م
--ما
--مان
--مبو
--مبى
--مة
--مت
--مر
--مز
--مس
--مك
--مل
--ملى
--من
--مه
--مو
--موت
--موتو
--موث
--مور
--مون
--مى
--مي
--مير
--مين
--ميه
--ن
--نا
--نار
--نال
--ناى
--نبرج
--نة
--نت
--نتس
--نتون
--نتى
--نج
--نجا
--نجر
--ند
--ندا
--ندرا
--ندو
--ندى
--ندير
--نر
--نز
--نزا
--نزو
--نس
--نسكى
--نسى
--نطيه
--نك
--نكا
--نكو
--نه
--نو
--نوت
--نوس
--نوف
--نوك
--نون
--نوڤ
--نى
--ني
--نيا
--نير
--نيس
--نيك
--نين
--نيه
--ه
--ها
--هار
--هارد
--هاردت
--هام
--هب
--هر
--هم
--هن
--هه
--هو
--هوف
--هى
--هيد
--هيم
--و
--وا
--وار
--وان
--واى
--وب
--وبا
--وبل
--وبو
--وبى
--وة
--وت
--وتا
--وتس
--وتش
--وتو
--وتى
--وث
--وج
--وجا
--وجى
--وح
--ود
--ودا
--ور
--ورا
--ورت
--ورث
--ورج
--ورس
--ورف
--ورن
--وره
--ورو
--ورى
--وريس
--وز
--وزا
--وزو
--وزى
--وس
--وسا
--وسكا
--وسكى
--وسو
--وسى
--وسيا
--وش
--وشى
--وص
--وط
--وع
--وف
--وفا
--وفر
--وفسكى
--وفو
--وفيتش
--وق
--وقه
--وك
--وكا
--وكس
--وكو
--وكى
--ول
--ولا
--ولت
--ولد
--ولو
--ولوس
--ولى
--وم
--وما
--ومب
--ومو
--ومى
--ون
--ونا
--ونت
--ونج
--وند
--وندو
--وندى
--ونس
--ونو
--ونى
--ونيا
--ونيس
--ونيل
--ونين
--وه
--وود
--وى
--وي
--ويا
--ويت
--ويتش
--ويج
--وير
--ويس
--ويك
--ويل
--وين
--ويه
--وپ
--وڤ
--وڤا
--وڤسكى
--وڤيتش
--وڤيك
--ى
--ي
--يا
--ياء
--يات
--يار
--يارد
--يارى
--ياس
--ياسى
--ياك
--يال
--يان
--يانا
--يانو
--يانى
--ياه
--ياو
--ياى
--يب
--يبا
--يبر
--يبو
--يبى
--ية
--يت
--يتا
--يتان
--يتز
--يتس
--يتسا
--يتسكى
--يتش
--يتشى
--يتو
--يتوس
--يتون
--يتى
--يتير
--يتيس
--يث
--يج
--يجا
--يجاس
--يجت
--يجر
--يجه
--يجو
--يجى
--يح
--يخ
--يد
--يدا
--يداد
--يداى
--يدج
--يدس
--يدو
--يدون
--يدى
--يديا
--يديس
--ير
--يرا
--يرت
--يرج
--يرز
--يرس
--يرك
--يرن
--يرو
--يروس
--يرى
--يريا
--يرير
--يريس
--يريك
--يرين
--يرينا
--يريو
--يز
--يزا
--يزو
--يزى
--يزيا
--يس
--يسا
--يست
--يستا
--يستر
--يستو
--يسكا
--يسكو
--يسكى
--يسلاف
--يسلاو
--يسه
--يسو
--يسون
--يسى
--يش
--يشا
--يشتى
--يشى
--يض
--يط
--يع
--يف
--يفا
--يفر
--يفو
--يفى
--يفيتش
--يق
--يقه
--يك
--يكا
--يكز
--يكس
--يكو
--يكوس
--يكوف
--يكوڤ
--يكى
--يل
--يلا
--يلد
--يلس
--يله
--يلو
--يلوس
--يلون
--يلى
--يليا
--يلير
--يليس
--يلين
--يليو
--يليوس
--يم
--يما
--يمان
--يمو
--يمى
--ين
--ينا
--ينات
--يناس
--يناو
--يناى
--ينت
--ينج
--يند
--يندا
--يندو
--ينر
--ينز
--ينس
--ينسيس
--ينك
--ينكا
--ينكو
--ينهو
--ينو
--ينوس
--ينى
--ينيا
--ينير
--ينيس
--ينيك
--ينين
--ينيه
--ينيو
--يه
--يها
--يو
--يوت
--يور
--يوس
--يوسكى
--يوك
--يوكس
--يول
--يولا
--يوم
--يون
--يوى
--يويكز
--يى
--ييت
--يير
--ييرو
--ييف
--يين
--ييه
--يپ
--يچ
--يچا
--يڤ
--يڤا
--يڤسكى
--يڤو
--يڤيتش
--يڤير
--يڤيك
--پ
--پا
--پس
--پل
--پو
--پور
--پورت
--پوس
--پون
--پى
--چ
--چا
--چارڤى
--چك
--چو
--چون
--چى
--چيك
--ڤ
--ڤا
--ڤاس
--ڤاك
--ڤر
--ڤسكى
--ڤو
--ڤى
--ڤيا
--ڤيت
--ڤيتش
--ڤيد
--ڤير
--ڤيرت
--ڤيس
--ڤيك
--ڤيل
--ڤين
--ڤينس
--ڤيڤ
--ک
--ی
--یا
--یر
--یل
--ین
--یه
--یی
