!
"
#
##0
##1
##10
##11
##12
##13
##14
##15
##16
##17
##18
##19
##2
##20
##21
##22
##23
##24
##25
##26
##27
##28
##29
##3
##30
##31
##32
##33
##34
##35
##36
##37
##38
##39
##4
##40
##41
##42
##43
##44
##45
##46
##47
##48
##49
##5
##50
##51
##52
##53
##54
##55
##56
##57
##58
##59
##6
##60
##61
##62
##63
##64
##65
##66
##67
##68
##69
##7
##70
##71
##72
##73
##74
##75
##76
##77
##78
##79
##8
##80
##81
##82
##83
##84
##85
##86
##87
##88
##89
##9
##90
##91
##92
##93
##94
##95
##96
##97
##98
##99
$
%
&
'
(
)
*
+
,
-
.
/
0
00
000
000000
01
02
0243
03
03802
04
05
06
07
08
1
10
100
1000
103
104
106
107
1075
108
109
11
110
1100
111
112
1120
113
114
1140
115
1150
1157
116
12
120
121
122
125
1259
1260
128
1288
129
13
130
1300
135
1354
14
1400
143
1440
1450
1460
1470
1471
1473
1475
1477
1479
1480
1483
1485
1490
1492
1494
1498
1499
15
150
1500
1503
1505
1506
1510
1518
1519
1520
1528
1530
1540
1542
1550
1558
1560
1570
1575
1589
16
1600
1604
1605
1620
1622
1630
1636
1640
1660
1661
1662
1666
1670
1683
17
170
1700
1708
1710
1712
1720
1728
1730
1731
1740
1746
175
1750
1751
1752
1754
1755
1756
1760
1762
1763
1767
1768
1769
1770
1771
1772
1775
1780
1785
1789
1790
1791
1793
1794
1795
1796
1797
1798
1799
18
180
1800
1802
1803
1804
1806
1807
1808
1809
1810
1812
1813
1814
1815
1816
1817
1818
1819
1820
1821
1823
1824
1825
1826
1828
1829
1830
1831
1832
1836
1837
1839
1840
1841
1844
1845
1846
1847
1848
1849
1850
1851
1852
1853
1855
1857
1858
1859
1860
1861
1862
1863
1864
1865
1866
1867
1868
1869
1870
1871
1874
1875
1876
1877
1878
1879
1880
1881
1882
1883
1884
1885
1886
1887
1888
1889
1890
1891
1892
1893
1894
1895
1896
1897
1898
1899
19
190
1900
1901
1902
1903
1904
1905
1906
1907
1908
1909
1910
1911
1912
1913
1914
1915
1916
1917
1918
1919
1920
1921
1922
1923
1924
1925
1926
1927
1928
1929
1930
1931
1932
1933
1934
1935
1936
1937
1938
1939
1940
1941
1942
1943
1944
1945
1946
1947
1948
1949
1950
1951
1952
1953
1954
1955
1956
1957
1958
1959
1960
1961
1962
1963
1964
1965
1966
1967
1968
1969
1970
1971
1972
1973
1974
1975
1976
1977
1978
1979
1980
1981
1982
1983
1984
1985
1986
1987
1988
1989
1990
1991
1992
1993
1994
1995
1996
1997
1998
1999
2
20
200
2000
2001
2002
2003
2004
2005
2006
2007
2008
2009
2010
2011
2012
2013
2014
2015
2016
2017
2018
2019
2020
2021
208
21
210
215
22
220
226
23
24
25
250
2500
252
253
255
26
261
27
270
28
280
281
2866
29
293
3
30
300
3000
301
31
310
312
313
3166
318
319
32
320
321
33
330
3313
34
340
35
350
352
36
360
365
366
37
38
380
388
39
391
392
395
4
40
400
4000
404
406
41
410
412
41919
42
420
422
43
435
44
445
45
450
4500
451
46
462
47
476
48
480
485
48514
486
49
492
5
50
500
5000
50667
51
510
516
52
524
53
530
535
54
540
542
544
55
553
555
559
56
560
562
565
57
571
573
575
58
59
599
6
60
600
6000
602
605
61
62
620
623
63
639
64
643
648
65
650
652
656
659
66
661
67
671
672
68
7
70
700
7000
71
72
73
737
74
7448
745
75
750
76
7616
77
7743
78
79
7927
8
80
800
81
814
82
83
831
84
85
850
86
861
864
87
88
89
89124
9
90
900
91
92
93
94
95
952
96
96167
97
978
98
980
99
995
:
;
<
=
>
?
[
\
]
^
_
a
aa
aach
aachen
aachener
aachte
aade
aaf
aahle
aajeklachd
aajelaad
aajenomme
aajevange
aajo
aal
aale
aam
aan
aana
aande
aanfa
aanfang
aanfange
aanfangs
aanfo
aanhu
aanjebout
aanjedonn
aanjefange
aanjenumme
aanjesinn
aanjevange
aanku
aanlaach
aanluure
aanpakke
aanschloß
aanschwenke
aanzahl
aap
aape
aar
aart
aarte
aasije
aat
aate
aatikkel
aav
aava
aavang
aavange
aavangs
aavha
aavhouwe
aavja
aavjehalde
aavjehouwe
aavjelo
aavjeordnete
aavjeresse
aavjesatze
aavjo
aavkomme
aavloufe
aavna
aavong
aavschloss
aavsta
aavstammung
aavsturz
aavzo
aazo
aaß
ab
abbott
abdef
abel
aber
abitur
abraham
abruf
abt
abtei
abteilung
abu
abydos
academy
accusam
ach
acht
acj
acken
acker
ad
adam
adams
adel
adenauer
adler
adolf
adsj
adsjer
advent
adventszick
aeonium
af
aff
affa
affjeko
affko
affrika
afghanistan
afjanistan
afrika
ag
agger
agilolf
aha
ahl
ahle
ahleberjer
ahlen
ahlhuhdu
ahlt
ahn
ahr
ahrenshoop
ahrweiler
aigner
aik
ainola
air
airbus
airline
airlines
airport
airways
aischwiele
ajaccio
ajejreffe
ajenomme
ajevange
ajo
akademie
akikkd
akikke
akikkt
akkordeon
akomme
akoom
akte
aktiejesellschaff
aktiun
aktiv
aktive
aktmolerei
aku
akzepteert
al
alaaf
alaska
alba
albanie
albanien
albert
albinus
albrecht
album
alcy
ald
alde
aldenhoven
alder
aldi
aldr
aleroth
alessandra
alexander
alexei
alexis
alexius
alfons
alfred
alfter
ali
aliaa
alice
alindao
aliquyam
alkohol
alkuin
all
alla
alld
alldaach
allder
alle
alleen
alleiirde
allein
allem
allemolde
allen
aller
allerdingens
allerdings
allerhellije
allersiele
alles
allet
alley
allgemeine
allium
alljemeen
alljemeene
alljemein
alls
allsdo
allso
allsu
allt
allß
alom
aloo
alpe
alpha
als
alsdo
alsdorf
also
alsu
alswie
alt
altar
altbier
alte
altenberger
altko
altos
altstadt
alß
am
ama
amarna
amazone
ambibulus
amen
amenophis
america
american
amerika
amerikaner
amerikanische
amerikka
amet
amis
amm
amoedo
amoklouf
amor
amp
amplisch
amplische
amptlich
amsterdam
amt
amtssproch
amtszitt
amy
an
ana
analfabetismus
anastacia
anc
and
andalusie
ande
ander
andere
anderem
anderen
andernach
anders
anderson
andes
andorra
andre
andrea
andreas
andrew
anedjib
anfa
anfang
angel
angela
angeles
anger
angere
angerem
angers
angersch
angisch
angola
anhalt
anime
anine
anjefange
anjeho
anjola
anjreff
ann
anna
annalu
annder
anndere
anne
annemarie
annemie
annett
annius
anno
anschla
anschlaach
anschlach
anstatt
anti
antike
antoine
anton
antonio
antonius
antwerpe
antwerpen
antwood
anzeiger
apartheed
appel
appo
apprell
appril
apprill
aprel
april
ar
ara
arab
arabe
arabisch
arabische
arbeeder
arbeid
arbeide
arbeitskreis
arbuckle
archa
architekt
architektur
archiv
ard
ardenne
ardra
are
arena
aristoteles
arjentinie
armee
arnhem
arno
arnold
arnoldsweiler
arnoldswiele
arriate
art
arte
arthur
article
artikel
as
aserbaidschan
aserbaidschanische
asie
aso
aspahsija
aspx
asten
asteorideju
asterix
asteroid
asteroide
asu
at
atajate
athen
atikel
atikkel
atlanta
atlantik
atoll
atome
aton
atra
atsch
att
attehn
au
auch
auckland
audrey
aue
auf
aufl
auflach
auflage
auftrag
august
augustin
augusto
aujus
aujuss
aujust
aujustus
aujuß
aujußß
aulinger
aus
auschwitz
ausdru
ausstellung
australian
australie
australije
australische
austria
auto
autobahn
autobahnbro
autonome
autor
autos
außtraalije
av
avang
aver
avjeordnete
avschloss
avstand
avv
avver
aw
award
aß
aßteroiide
aßteroiit
b
ba
baach
baad
baade
baahn
baahnhoff
baal
baan
baanhoff
baas
baaß
bab
baboo
bacchus
bach
bachem
back
backe
bacon
bad
bade
badehuuß
baden
baez
bahia
bahkauv
bahl
bahn
bahnhof
bahnhoff
bahr
bailey
bainter
bajore
bakteerije
bakterie
bakterium
baku
bal
bald
balduin
balkan
ball
ballad
band
bands
bang
bank
banke
bap
bara
barack
barbara
barbarossaho
barcelona
bareschesser
barmen
bart
barth
bartolomeo
basel
basis
basiseinheite
bass
basse
bau
baue
bauer
bay
bayere
bayern
bb
bbecke
bbelsche
bbisch
bbish
bd
be
bea
beach
beatrix
bebber
bebe
bechen
beck
becker
bedburg
bedde
bedecke
bedeene
bedeutung
bedeutunge
bedo
bedrief
bedriefsystem
bedrivve
bedro
bedu
bee
beede
beeds
beene
beere
bees
befengk
befingk
befu
begraave
bei
beide
beidste
beij
beijm
beijshpell
beijshpill
beijspill
beiker
beim
beinah
beishpell
beishpill
beispell
beispill
beitra
beitste
beitzde
bej
bejange
bejm
bejraave
bejrave
bejreff
bejreffe
bejriff
bejro
bekannd
bekannde
bekanndste
bekanngk
bekannt
bekannte
bekannteste
bekanntste
bekekke
bekleed
bekleede
bekom
bekruck
bekumme
bel
bela
beld
beldche
beldcher
belde
belder
beldhouwer
belgien
beliep
belje
beljie
beljische
bell
bellatrix
belle
bellji
belljie
belljische
bello
bem
bemm
ben
benamargosa
benannd
benannt
bende
benedikt
benediktiner
benguela
benjamin
benne
benrather
bensberg
benutz
benutze
benz
beobachte
ber
berch
berchem
berchemer
berches
berchop
berdolet
bere
bereich
berg
berge
berghausen
bergisch
bergische
bergischen
bergischer
bergisches
bergman
berje
berjesche
berjisch
berjische
berjischen
berlin
berliner
bern
bernd
berners
bernhard
bernhardt
bero
berof
berofe
beroff
berounsky
bersch
bersh
bertha
beru
bes
besa
besatze
bescha
beschlo
beschlooße
beschloss
beschlosse
bescho
beschoff
beschra
beschrevve
beschrief
beschriivd
besetz
besetzer
beshtemmpte
besiedelt
besitz
besje
besjteet
beso
besondere
besonders
besongisch
besood
besoss
bess
besse
besser
bessere
bessje
best
besta
beste
besteeht
bestehd
besteht
bestellt
bestemme
bestemmp
bestemmt
besto
bestond
bestonn
betancourt
beteijeuze
bethlehem
betra
betrieb
betriib
betroffe
bett
betty
beuel
beueler
bevo
bevoelkerungszahlen
bevu
bewa
bewejung
bewesse
bewiise
bewonner
bewunner
bezahle
bezeechnet
bezeichnung
bezirk
bezo
beß
beßje
beßß
beßßje
bhatt
bi
bibel
bibliographie
bibliothek
bich
biden
bielefeld
bielsteener
bier
bierganz
bierschem
big
biir
biit
biiß
bij
bikannt
bikannte
bikini
bikinis
bild
bilder
bill
bille
bin
binchy
binge
bingen
binh
biografie
biographie
birkejang
birkenau
birre
bis
bischo
bischoff
bismarck
bissje
bistum
bkannd
bkanndste
bkannt
bla
black
blankenheim
blatt
blau
blaue
ble
bleck
bleed
bleete
bleev
bleu
blevve
bliee
blief
bliev
blieve
bliid
bliive
blindtex
blo
blodwoosch
blond
blood
bloohß
bloos
bloose
bloot
blooß
blot
blotwoosch
bloß
blu
blues
bluß
bn
bo
boch
bochstabe
bochstabeet
bochum
bock
boddem
bodendenkmalpflege
boeing
boere
bohm
boleyn
bomb
bombe
bombei
bonaparte
bond
bonn
bonndesland
bonner
booch
boochshtaaf
boohm
book
books
boom
boomhummer
boone
boore
boot
bora
borbeck
borbecksch
bordeaux
borken
bornem
bos
bosnia
bosnie
bosnien
bosswiller
bostock
boston
botanische
botschafter
botswana
botter
bottrop
botz
bou
boude
boue
bounne
bouw
bouwd
bouwde
bouwe
boverba
bovve
bovven
bovverbejreff
bovverberjesche
bovverberjische
bovverfrangke
br
bra
braad
braade
braat
braate
brabant
brahma
bram
brand
brandeborsch
brandenburg
brandt
brasilie
brassel
brassica
brauerei
braun
braunau
bre
brecht
bree
breed
breede
breef
breefe
breenich
breenijerberch
breenijerbersch
breenijerheed
breenisch
breitach
breitachklamm
breme
bremen
bremm
brengd
brenge
brengk
brengt
brenne
brennt
brice
brings
british
bro
broadway
broch
brochstee
bronne
brooch
broode
brooder
broohr
brooks
bross
brot
brouch
brouera
brouere
brouerei
brouereije
brouwe
brouwere
brouwerei
browa
brown
bru
bruch
bruche
brud
brudd
brudde
brun
brunei
brung
brunge
brunner
bruno
brut
brutt
bruud
bu
buch
buchanan
buchstabeet
bucht
bud
budapest
bulgarije
bund
bundesdaach
bundeskanzler
bundeskanzlere
bundesla
bundesland
bundesliga
bundespra
bundesrepublik
bundesstaat
bundesstaate
bunn
bunne
buonaparte
burch
bure
buren
burg
burje
burning
bursch
burscheid
bus
busch
buscheberch
bush
busse
buster
butt
buud
buune
buur
buure
buurehoff
buursche
bußße
by
bzw
c
ca
caesar
cafe
calmont
calobra
calvin
cam
campbell
camus
can
canada
carew
carl
carlo
carmen
carneval
carolina
caroline
carolinensiel
carter
cartier
caru
castrop
catharina
cathedral
cave
cd
cdu
cent
center
centro
centrum
ceres
ch
cha
chaat
chaite
chaplin
charles
charlie
charlotte
charts
chase
chd
chde
che
cheerleader
cheeseman
chef
chemie
chen
chende
cher
chester
chi
chicago
chile
chili
china
chinese
chinesische
chlich
chlodwisch
chodorkowski
chr
chrisliche
christa
christchurch
christe
christi
christian
christine
christoph
christus
chronik
chs
chsche
chsesch
chste
cht
chte
chter
chtije
chtlijje
chtlinge
chung
chzoch
cincinnati
circa
city
ck
ckche
ckcher
ckd
ckde
cke
cken
cker
ckes
ckije
ckja
ckner
cksche
ckscher
ckschland
cksher
ckspill
ckt
ckte
cktrett
ckzedaach
ckzedaachs
ckzedach
claude
claudia
cle
clear
cleve
cleveland
clinton
clita
clovis
club
cm
co
cochem
code
codex
coesfeld
cogan
college
collins
colombo
colonia
color
columbus
com
comares
commons
commonwealth
completes
computer
concepcio
conigli
consequat
consetetur
content
coo
coolidge
copernicium
coponius
cops
corbin
corbusier
cornelia
cornelissen
cornett
corporation
costello
council
county
covington
cramer
critical
csu
ct
cu
cumanus
cup
curitiba
curran
cuspius
cuyahoga
cyrus
d
da
daach
daachs
daag
daal
daare
daat
daate
dabei
dach
dachs
dad
dadd
dafo
dafrika
dag
dagmar
dalai
dali
dallas
dalli
damalije
dame
damerika
damet
damit
damm
damolije
damols
dan
dana
danach
daniel
dank
danke
dann
dans
danz
danze
danzig
dao
dare
darf
darmstadt
daro
darref
darv
darwin
das
dasharray
dashoffset
dat
database
date
datei
daten
datt
datte
dattum
datum
daughton
daum
david
day
dayton
db
dbro
dche
dcher
dd
ddche
ddcher
dde
ddedom
ddel
ddelche
dder
ddes
ddin
ddische
ddr
de
decamp
deck
decke
deckel
decoder
dee
deed
deef
deel
deelde
deele
deeler
deen
deende
deene
deent
deep
deepde
deepe
deer
deere
dees
deet
degraa
deht
dei
deiht
deijl
deijle
deijsch
deijt
deil
deit
dejl
dejt
del
dem
demjanjuk
demm
demokrate
demokrati
demokratie
demokratische
den
dene
deng
denge
denger
dengkmool
denis
denisova
denk
denke
denkt
denn
denne
dentale
der
dere
derekt
deren
derich
dermiihtß
des
desargues
desch
deshalb
deshalef
deshalv
desmol
desmoll
destens
deswa
det
detmold
deudsh
deut
deutsch
deutsche
deutschen
deutscher
deutschland
deuvel
deza
dezember
dezemmber
dfb
dfk
dhaalvkowel
di
dia
diala
dialek
dialekk
dialekt
dialekte
dialekts
diam
diamante
diana
diane
dich
dichte
dichter
dick
die
diech
diego
dieksiejoneer
dier
dierche
diere
diese
dieser
dieter
dietrich
dii
dijala
dije
diktator
ding
dinge
dinger
dinsel
diplomat
dippeliinchen
dir
dira
direk
direkt
dis
disch
dish
displaystyle
diss
disse
dit
diva
diverse
dizze
djer
dkorea
dlemborsh
dlesch
dlich
dliche
dlijje
dlisch
dlische
dm
dna
dns
do
doa
doadurch
doamit
doavan
dobe
dobei
dobeij
doch
dochter
dodo
dodren
dodrop
dodurch
doe
dofo
dofu
dofun
doh
doha
dohen
doher
dohin
dohmohls
dohmohlß
dohmols
dohuk
doja
dojestalld
doktor
dokumentation
dokumente
dol
doll
dollar
dolmen
dolor
dolore
dolores
dom
domain
domenico
domet
domingo
dominik
domit
domohls
domols
don
dona
donald
donau
dong
donisl
donn
donnerbersch
dono
donoh
donoo
doo
doochter
doof
doohter
doohtr
doorch
doorchmesser
doot
dor
dora
doraa
doran
dorch
doren
dorf
dorfe
dormare
doro
doronger
dorop
dorophen
doropp
dorp
dorresch
dorsch
dorsh
dortmund
dorus
doruss
dorv
dos
doste
dostellung
dosten
doto
douglas
dousend
dousende
dova
dovan
dovo
dovon
dovu
dovun
dozo
dozoh
dozoo
dozu
dozwesche
dpool
dr
dra
draan
draare
drachefa
dracula
drahn
dran
dre
dream
dreck
drei
dreide
dreidjru
dreieck
dreij
dreiko
dreilengereck
dreimol
drej
dren
drenk
drenke
drenn
drenne
drenthe
drette
driihnd
driihnde
driihne
driihnt
driinde
driine
driit
drin
drinke
drinne
dritte
dro
droch
drock
drok
drom
drommer
dronger
drooch
droom
drop
dropp
dru
druck
drunger
druss
drusse
druß
drußße
ds
dsche
dschen
dscher
dspanische
dste
dsudan
dt
dtche
dte
dtje
dtsche
du
dubbel
dublin
dud
dueren
duet
duis
duisburch
duisburg
dumm
dumont
dun
dunkel
dunn
dunnt
duo
dur
durch
durde
dursch
dursj
duud
duude
duurd
duurde
duure
duurt
duvventr
dweste
dwight
e
ea
ean
ebene
eberhard
ech
echnaton
echnatons
echt
eck
ecke
eckersch
ecser
ecuador
ed
ede
edelweißpirat
edicions
ediger
edition
editore
edmund
edo
eduard
edward
ee
eefach
eefel
eeijn
eeijne
eeijnmol
eeje
eejedo
eejentlich
eejo
eemol
eemoll
een
eene
eenem
eener
eenich
eenije
eent
eenwunner
ees
eesch
eeschte
eets
eetste
eetz
eetze
eetzte
eetß
eetßte
eez
eezde
eezte
effzeh
egidio
eh
ehe
ehemaligen
ehemolige
ehne
ehr
ehre
ehrem
ehreshoven
ei
eiekroon
eier
eifel
eiff
eije
eijen
eijene
eijentlesch
eijentlich
eijentlisch
eijfel
eijn
eijne
eijner
eijnwohner
eimol
ein
eine
einem
einer
eines
einfach
einhard
einheit
einheitezeiche
einije
eins
einstein
einwohner
einzel
einzelne
eirmod
eisch
eischwiller
eisenbahn
eisenhower
eisenstein
eitorf
eiwiss
eiße
ejaal
ejal
eje
ejene
ejentlich
ejfel
ejn
ejndhoave
ejne
ejner
ek
ekersch
el
ela
elbe
elberfeld
eldere
elektron
elektrone
element
elemente
eleonora
elisa
elisabeth
elise
elitr
ella
elle
ellef
ellefte
eller
elsa
elsdorf
else
eltz
eltzer
em
embken
emi
emijrante
emil
emm
emma
emme
emmer
emmo
emol
emons
en
enander
end
endda
ende
endenesch
endlich
ene
enem
enen
ener
energie
enflo
eng
enge
engel
engelskirchen
engk
engla
england
englisch
englische
english
engorna
enid
enkel
enkele
enn
enna
enne
ennem
ennen
ennepe
enner
ennere
ennwunner
ens
ensel
ent
entda
entdeck
entdeckt
entfa
entha
enthalde
entlang
entlosse
entscheed
entscheede
entsta
entstande
entstange
entsto
entstong
entwa
entweggele
entweggelnde
entwickelt
entwicklung
entwo
enwohner
enwonne
enwonner
enz
enzije
enzwesche
enß
eos
epizentrum
er
eraan
eraf
erat
erbout
erd
erdbebe
ere
erf
erfolch
erfolg
erfolje
erfolsch
erforschung
erft
erftstadt
erfu
erfunge
erhalde
erhard
erheld
erholle
erich
erika
erin
erinn
erinnere
erinnerung
erjendwann
erjoov
erka
erkannd
erkannt
erkelenz
erkenne
erkla
erkrankde
erkrath
erla
erlich
ermo
ernannd
ernannt
ernst
erntefess
ero
erop
erotische
erreichde
erreiche
erruß
ersa
ersatz
ersatze
erscheen
erscheene
erscho
erschooße
erschoße
erstausgabe
ert
eru
erunger
erus
eruß
erußja
ervonge
erwa
erwaad
erwaade
erza
erzbistum
erzquell
es
esch
eschweiler
ese
eso
esperanto
ess
esse
essen
esser
esset
est
estera
estland
esu
esuh
esuvell
esuwie
et
etc
etliche
etnijesche
ett
ettlijje
etwa
eu
euch
eugen
euklid
eulenbroich
eulrichs
eupen
euregio
euregiobaahn
euro
eurode
eurolang
europa
europas
europe
europpa
euros
euskirchen
eva
evangelische
evenodd
ever
everts
evvel
evver
ewg
ex
exchange
exil
explosiun
express
extra
eß
eßß
eßße
f
fa
faare
faase
faastezick
faaß
fabrik
fabrike
fabrikke
fach
fadus
fahre
faithfull
falkeburch
fall
falle
falsche
fame
famelie
famelisch
familich
familie
familije
familisch
famillisch
fanny
farao
faraoh
farsta
fass
fast
fasteleer
fastelovend
fatter
fay
faß
faßteleer
faßß
fc
fdl
fdp
fe
febrowaa
februar
federal
federation
feehde
feel
feete
feld
feldhendler
felenbaum
felix
femen
fenge
fengk
fer
ferdinand
fernando
fernsehe
fers
fesch
fess
fest
feste
festung
festus
fett
fettweĳß
feuerzangenbowle
ff
ffe
ffel
ffentlich
ffentliche
ffgen
ffnet
ffnung
ffte
fier
fierda
fierdaach
fiere
fiert
fies
fiese
fiier
fijur
fijure
filemche
filius
fill
fille
fillem
fillmore
film
filme
filmjo
filter
fin
final
finale
finanzmaat
finanzmenester
fing
finge
finger
fingk
finis
fink
finne
finnische
finnland
finster
finsterau
firma
firme
first
fischer
fisematente
fistereno
fisterno
fitzgerald
fkk
fla
flach
flandere
flanndere
flash
fle
fleeje
fleesch
fleeßt
fleisch
fleuth
flevoland
flip
flo
floch
flochhave
flochhaven
florenz
florida
florus
floss
flott
floßß
flu
fluch
fluchzeuch
fluchzeuje
flupp
fluppd
fluppde
fluppe
fluss
fmd
fnla
fo
foa
foder
fofo
foha
folje
foljende
follies
folter
fom
fon
fonge
fontana
fooß
for
ford
form
forme
formel
formelzeiche
forrem
forrest
forschung
fort
fortuna
fotojraf
fotomodel
fotomodell
fotos
fott
foundation
fox
foß
foßball
fr
fra
frambach
franc
france
francisco
frank
franke
frankenhausen
frankfocht
frankfurt
frankfurter
franklin
frankreich
frankreisch
frankrich
frankrisch
frankrish
frans
franz
franzo
franzu
franzuse
franzuuse
frau
fraue
frauen
fraulu
fre
frechem
frechen
fred
frederick
free
frei
freiburg
freie
freiko
frenzel
freske
freud
frida
friddach
frieda
friedrich
friesisch
friesische
friesland
frikative
frings
fringse
fritte
fritz
fro
frodo
from
fronleichnam
front
frooch
frou
froue
froulu
fru
ft
fte
fu
fuchs
fukushima
fum
fun
fung
funge
funk
funke
funktionelle
funn
funz
fuss
g
ga
gabi
gabriel
gagarin
gaius
galgeberch
gallery
game
gangemi
ganze
garden
garfield
garland
garten
ge
geb
gegr
gehen
geij
gela
geld
gelderland
geldern
gelenkhu
gelsenkirchen
gemeinde
gemeinden
gen
genannt
genauso
gend
general
gent
geologie
georg
george
georges
georgia
ger
gerais
gerald
gerhard
german
germania
germanischen
germany
gertrud
gertrude
gesagt
geschichte
geschichtsverein
geschichtsvereins
geschrevve
gesellschaft
gesjriee
gessius
get
gewa
gewesen
geyser
geysere
gg
gge
ggel
ggelche
ggelnde
ggelsche
ggsche
ggzedaach
ghannouchi
gibson
gibt
gilani
gillard
gina
giocondo
girl
girls
gisele
gk
gla
gladbach
glaube
gleich
gleumes
gliche
glu
gmbh
gnu
go
god
gogh
gold
goldsaft
golf
gonza
good
google
gorgoroth
gott
gottfried
goudeket
gov
goya
gradientunits
graetschus
graf
grafschaft
grafschafter
grammatik
grand
grandezka
grant
gratus
great
grenzland
gressenich
gression
greta
greven
griffith
gro
grolsch
groningen
groot
groote
group
grove
grover
groß
große
großherzogtum
gru
grundschull
gruuße
gste
gte
gu
guardian
gubergren
guillaume
gumi
gusenbauer
gustav
gut
gute
gutturale
gyatso
gymnasium
h
ha
haade
haafe
haafen
haag
haan
habe
haben
habilis
had
hadd
hadde
hafen
hagelslag
hagen
hahn
hairspray
halde
hale
hall
hallde
hallef
halloween
hallv
hallve
hals
halt
halv
halve
halver
halvinsel
ham
hamacher
hamburch
hamburg
hamilton
hamm
hamme
hammer
hammerwerke
han
hand
handbuch
handel
handwerk
hange
hann
hannah
hannelore
hannes
hannover
hannt
hans
hanse
hant
happy
harding
hardy
harmonie
harold
harri
harrison
harry
hart
harte
hartes
harvey
hasch
hat
hatt
hatte
hatten
hau
haupbahnhoff
haupsa
haupstadt
hauptroll
hauptrolle
hauptstadt
hauptstr
haus
hauser
hauw
hawaii
hayes
hb
hd
hde
hder
he
hea
heavy
hebeij
hebra
hee
heechd
heeche
heecht
heed
heedless
heem
heemo
heer
heerlen
heerschaff
hees
heesch
heeschd
heesche
heescht
heesters
heeß
heeße
heeßen
heh
hei
heide
heidelberg
heidewitzka
heidi
height
heij
heijs
heijß
heijße
heim
heimat
heimatforscher
heimatforschung
heimatgeschichte
heimatmuseum
heimatpflege
heimatverein
heimbach
heimisch
heimlich
hein
heinrich
heinrichs
heinsberch
heinsberg
heintz
heinz
heis
heiß
heiße
hejm
hejß
hektar
hela
helau
held
helden
helena
helga
helije
helios
helium
hell
helle
hellendal
hellich
hellije
hellisch
helmut
helpd
helpe
helsinki
helvetic
hem
hemmel
hen
henckels
henge
hengebach
henger
henkel
hennef
hennes
henning
henny
henri
henry
her
herausgeber
herausgegeben
herbert
herbst
here
herford
hermann
herne
herr
herrjott
herrschaff
herrschaft
herrscher
herrwegen
hershey
hervo
herzegovina
herzog
herzogdom
herzogenrath
herzogtum
hesse
hessen
het
hetepsechemui
heut
heute
heutije
hewa
hex
hexe
hexejachd
hexenwahn
heß
hie
hier
hierode
high
highway
hiirod
hiirode
hiiroode
hildegard
hill
hillary
hillije
himmel
himmelfahrt
himmelsko
himmler
himp
hin
hindi
hinge
hinger
hinspill
hirring
hirte
his
hispaniola
historiker
historisch
historische
history
hit
hitler
hitlers
hje
hkste
hl
hld
hlde
hle
hlen
hler
hlich
hlste
hlt
hm
hme
hmp
hmte
hmteste
hn
hnd
hne
hner
hnije
hnlesch
hnlich
hnliche
hns
hnt
ho
hoa
hoch
hochdeutsch
hochsauerland
hod
hodd
hodde
hoddis
hoee
hoesch
hofbra
hoff
hoffde
hoffe
hoffnung
hoi
hokusai
hold
holla
holland
holle
hollendsj
hollesj
hollesje
hollywood
hollz
holocaus
holocaust
holp
holpe
holsj
holsteijn
holstein
holz
homepage
homer
homo
hond
hondo
hong
honger
honnef
honnen
hood
hoof
hoofsjtad
hoor
hoore
hoot
hoote
hoov
hoover
hope
hoppe
hor
horn
horst
horster
horumersiel
horus
horusnaam
hosch
hot
hotel
hott
hottel
houdin
houfe
houm
houmpa
houpbaanhoff
houpsa
houpsaach
houpschtadt
houpshtadt
houpstadt
house
houston
houw
houwe
hovve
how
howard
hr
hrd
hrde
hre
href
hren
hrend
hrer
hrige
hrigen
hrije
hrliche
hrsg
hrt
hrten
hrung
hs
hse
ht
hte
htisch
htm
html
http
https
hu
huang
hubert
hubschrauber
huch
huchdu
huchschu
huchzitt
huet
huf
hughes
huh
huharabisch
huhdeutsch
huhdu
huhe
hunsru
hunter
hus
huse
hutt
hutton
huue
huus
huuß
huß
hyde
hß
i
iana
iata
icao
ich
id
ida
idee
ie
iee
ieh
iehr
ier
iere
ierem
iersch
ierschte
ierschten
ieser
if
ih
ihm
ihn
ihr
ihre
ihrem
iht
ii
iier
iih
iihr
iihre
iii
iir
iirz
iirzte
iis
iisch
iise
iisebahn
iiser
iiß
ij
ijd
ijde
ijdong
ijdt
ije
ijem
ijen
ijene
ijer
ijeschaffte
ijfach
ijl
ijle
ijm
ijmol
ijn
ijnde
ijne
ijnem
ijnhe
ijnzel
ijs
ijsch
ijsche
ijsh
ijshe
ijshpell
ijt
ijte
ijß
ijße
ikb
ike
il
illineus
illinois
im
imdb
imelda
imi
imm
imme
immer
in
inc
inda
inde
indelo
inden
index
indian
indiana
indianer
indie
indije
indische
indonesie
indonesien
industrie
ine
iner
info
information
informationen
informatiun
informatiune
infrastruktur
ing
inge
ingenieur
ingernet
ingmar
ingrid
inn
inndije
inne
innet
ins
insel
insele
inseljrupp
inseln
insjesamp
inspiration
institut
institute
interesse
international
internationale
internet
invalidendom
invasiun
invidunt
inwohner
inyangani
iowa
ipa
ippedo
iprage
ipsum
ir
irak
iran
ire
ireen
irena
irische
irjends
irjendwann
irjendwi
irland
irsche
irste
irving
is
isaac
isabeli
isabella
isbn
isch
ischde
ische
ischte
ish
ishe
isidore
isildur
islam
islamische
island
isle
iso
isola
israel
iss
ist
istanbul
it
ita
italia
italie
italien
italienische
italije
italja
itil
ittner
iulius
iv
iwf
ix
iß
j
ja
jaa
jaad
jaade
jaahrhondo
jaahß
jaare
jaaß
jachd
jack
jackson
jacques
jae
jaffel
jahre
jahrhondo
jahrhundert
jahß
jaiajaad
jakob
jalaksie
jalaxie
jall
jalmei
jamaika
james
jan
jane
janeiro
janet
jang
jange
jangk
janneke
janneken
jannowaa
janns
jannz
jannze
jannß
jans
janse
januar
janz
janze
janzen
janß
japan
japaner
japanische
jar
jas
jatropha
jattung
java
jazz
jaß
jaßkammer
jaßkammere
jaßwarels
jc
je
jea
jean
jeanne
jeba
jebacke
jebaut
jebeed
jebeet
jebeld
jebiet
jebiid
jebiit
jebiite
jebildt
jebirje
jeblevve
jebo
jebohre
jebonge
jeboore
jebore
jeboud
jebout
jebouwd
jebouwde
jebra
jebraad
jebraat
jebroode
jebrout
jebrouwd
jebruch
jebrud
jebrudd
jebrutt
jebu
jebunge
jeburt
jechner
jeck
jecke
jed
jeda
jedaach
jedanke
jedau
jedd
jedde
jedder
jeddes
jede
jedeel
jedeeld
jedem
jeden
jedenfalls
jeder
jedes
jedeut
jedichte
jedo
jedonn
jedooh
jedriihnd
jedriihnde
jedriihnt
jedronke
jedru
jee
jeed
jeede
jeedem
jeedes
jeehd
jeeht
jeestinge
jeet
jefa
jefahre
jefalle
jeff
jefferson
jefiert
jefo
jefonge
jefu
jefunge
jeha
jehad
jehadd
jehalde
jehallde
jehat
jehatt
jehd
jehiirod
jeho
jehollt
jeholpe
jehood
jehoot
jehoote
jeht
jehu
jeiht
jeijt
jeil
jeit
jeja
jejange
jejch
jejen
jejend
jejesse
jejlood
jejovve
jejraave
jejro
jejru
jeka
jekallt
jekannt
jekla
jeklaud
jeko
jekoch
jekomme
jekooch
jekoovd
jekouf
jekra
jekumme
jel
jela
jelaach
jelaad
jelaat
jelche
jeld
jele
jelich
jeliche
jelicherwiiß
jelichkeet
jelichkeete
jeliehrt
jeliert
jelisch
jelld
jelle
jellt
jelonge
jelosse
jeloufe
jelt
jema
jemaad
jemaaht
jemaat
jemaht
jemat
jeme
jemeend
jemeende
jemeendens
jemeenschaf
jemeenschaff
jemeenschaftliche
jemeind
jemeinde
jemeinschaff
jemeint
jemeiße
jemeldt
jemend
jemengschaff
jemesse
jemingde
jemo
jemold
jemolt
jen
jenannd
jenanndt
jenanngk
jenannt
jenannte
jenau
jenaue
jenauer
jenauesu
jenausu
jend
jende
jendt
jene
jeneck
jeneral
jeneratiune
jeng
jenna
jenniches
jeno
jenoch
jenomme
jenooch
jenotzd
jenotzt
jenou
jens
jentlich
jenu
jenua
jenumme
jenutzt
jeo
jeorgie
jepland
jeplande
jeplant
jepra
jer
jera
jeraad
jere
jereesch
jerich
jericht
jermaansch
jermaansche
jermanesch
jermanische
jern
jero
jerreshem
jerry
jeru
jerusalem
jesa
jesaad
jesaaht
jesaat
jesang
jesat
jesatz
jesatze
jesaz
jesch
jescha
jeschaff
jeschaffe
jescheck
jescheckd
jescheckt
jeschich
jeschichte
jeschla
jeschlaare
jeschlechtsorjane
jeschlooße
jeschlosse
jeschmack
jeschmo
jeschnappt
jescho
jeschooße
jeschosse
jeschra
jeschrevve
jeschrieve
jeschrive
jeschrivve
jeschwaadt
jeschwadt
jeschwistere
jesech
jesechert
jeseeh
jeseesch
jesellschaff
jesellschaffte
jesellschaft
jesellschafte
jesenn
jesesch
jesetz
jesetze
jesetzliche
jeshpellt
jeshpillt
jeshrivve
jesinn
jesjiechte
jesjriee
jeso
jesoffe
jesond
jesondheet
jesonge
jesood
jespelld
jespellt
jesperrd
jespillt
jespra
jesproche
jesse
jestalld
jestallt
jestange
jestein
jestellt
jesto
jestoche
jestoppd
jestorve
jestu
jesunge
jesus
jet
jetra
jetrennt
jetrocke
jetroffe
jetrokke
jett
jetto
jetz
jetzt
jeva
jevalle
jevange
jevangene
jevangeschaff
jeveel
jever
jeviird
jevo
jevonge
jevu
jevve
jewa
jewalt
jeweech
jeweet
jeweihd
jeweiht
jewerkd
jewerkt
jewess
jewesse
jewinne
jewo
jewonn
jewonne
jewonnt
jewoode
jeworpe
jewudde
jewunne
jez
jeza
jezalld
jezallt
jezeechd
jezeecht
jezu
jezwonge
jh
jia
jibbet
jid
jidd
jiddet
jiesekereke
jih
jii
jilld
jilt
jimmy
jing
jinge
jingk
jip
jit
jitarr
jitt
jitta
jivv
jje
jk
jl
jla
jlaaß
jlabbach
jladbach
jlas
jlatt
jlaube
jleise
jleumes
jleumeß
jleuve
jlich
jliche
jlichzittich
jlisch
jlische
jlish
jlo
jloote
jlu
jm
jn
jnde
jne
jnha
jnschaff
jo
joa
joachim
joahr
joahrhundert
joan
joar
joare
joav
jod
joddes
jode
jodesbersch
joe
joh
johann
johanna
johannes
johdousend
john
johnson
johr
johre
johrhondert
johrhondet
johrhundert
johrhungert
joht
jold
joldene
joldschmitz
jollde
jon
jong
jonge
jongsteenzitt
jonn
joo
jooch
jood
joode
jooe
joof
jooh
joohr
joohre
joohreszitte
joohrhondo
joohrhonnert
joohundert
joohunndot
joor
joore
joorhundert
joos
joot
joov
joove
jordan
jose
josef
josefin
joseph
josephine
josephus
jot
jotik
jotische
jott
journalist
jov
jovve
jpg
jr
jra
jraad
jraaf
jraat
jraav
jraave
jrad
jraf
jrammatik
jrau
jraven
jravens
jre
jreff
jreffe
jregorijanishe
jrens
jrenz
jrenze
jrenzt
jrihscheland
jrihschelannd
jrihschesch
jriiche
jriicheland
jriife
jro
jroee
jrond
jrondschu
jrondsto
jrooß
jrooße
jropp
jroppe
jrovvo
jroß
jroße
jru
jruhße
jrund
jrundjesetz
jrupp
jruppe
jrusse
jruuß
jruuße
jruß
jrußbritannie
jruße
jsh
jt
jtsch
ju
juan
jubila
juda
judda
judy
jugoslawie
jukos
jules
juli
julia
julie
julius
jummersbach
jummi
jung
junge
juni
jupiter
jupp
juppitter
juri
jussenhoven
justizpalast
justo
juuli
juuni
juverneur
juverno
jypte
jz
jß
k
ka
kaad
kaal
kaale
kaar
kaare
kaasch
kaat
kaate
kaaßel
kabel
kafee
kaffe
kaffee
kahlo
kaiser
kaiserbrunnen
kalcheim
kald
kalde
kalender
kalifornie
kalk
kall
kalla
kalle
kallendo
kallendresser
kallisto
kallt
kalt
kam
kamal
kamelle
kamer
kamera
kamme
kammer
kammere
kampf
kampmann
kan
kanada
kanadische
kanal
kandidat
kandideerde
kandideere
kann
kannd
kannde
kanndste
kanns
kannste
kannt
kannte
kannz
kannze
kannß
kanzler
kapa
kapell
kapita
kapott
kapotte
kappa
kappes
kappott
kardashian
kardinal
karfriedaach
karibik
karl
karls
karlspriiß
karlsruhe
karneval
karnevals
karnevalsverein
karol
karoli
karolina
kasd
kashmiri
kass
katharina
kathedral
katholische
katrin
kattalooch
kattaĳ
kattolische
katz
kaufingerstrooß
kaufmann
kaukasus
kaum
kaviar
ke
keaton
kee
keeijn
keeijne
keen
keene
keern
kei
keie
keij
keijn
keijne
kein
keine
kej
kekke
kelbermann
keller
kelly
kelte
keltische
ken
kenge
kenger
kengk
kengkheed
kenn
kennd
kenne
kennedy
kennt
kent
kentucky
kepler
kerch
kerche
kerchhoff
kerkrade
kermes
kerpe
kerpen
kersch
kess
kessenech
kessenich
kesternich
ketsch
ketschebursch
kette
keu
keue
kg
kicke
kiel
kieler
kies
kiesinger
kiew
kiki
kikkd
kikke
kikkt
killomeeter
kilo
kilojramm
kilometer
kilometere
kilometr
kilt
kimchi
kind
kinder
king
kinn
kinner
kinno
kino
kinos
kirch
kirche
kirchro
kirchroa
kirmes
kirow
kirsch
kirstie
kitsche
kitt
kk
kke
kker
kkerlenisch
kkt
kla
klaaf
klaar
klamotte
klang
klapp
klappde
klass
klasse
klassische
klaus
kle
klee
kleede
kleeijne
kleen
kleene
kleener
kleenere
kleenste
kleer
kleersto
kleij
kleijne
klein
kleine
kleinwalsertal
kleng
klenge
klenger
klengk
klenkes
klerk
kleve
klima
kling
klinge
klink
klo
kloch
kloh
klomm
klooch
klooh
kloor
kloore
klotten
klu
klub
klum
kluster
klusterkerch
kluuster
km
kna
knapp
knappe
knee
kneip
kneipe
kniiß
knipp
kno
knoche
knouche
know
knox
knubbel
ko
koahm
koalitiun
koam
koblenz
koch
koche
kode
koffer
kofferoe
kohl
kohm
kohme
kokokko
kol
kolbe
koleve
kollestoff
koloni
kolonie
kolumbie
kolumbus
kom
kome
komeet
komitee
komm
kommandant
komme
kommen
kommo
kommunale
kommuniste
kommunistische
kompjuto
kompla
komplett
komponiss
kond
kondom
kondome
kongo
kongress
konnt
konnte
konrad
konsonante
konst
konstantin
konsul
kontakt
kontinent
kontroll
konzentratiunslajer
kooche
kood
koofe
koohlbu
koohle
koohm
koohme
koom
koome
koon
koor
koot
koote
koovde
kooz
kopp
koraidelstee
korea
koreanisch
koreatimes
korn
korsika
kosovo
kostu
kott
kotte
koufe
koum
kourtney
kowelenz
koxinga
kra
krach
kraff
kraft
kraftwa
krajobrazowy
krangk
krank
kranke
krankheed
krankheet
krankheete
krause
krauss
kre
krebs
kreech
krees
kreesch
kreesh
krefeld
krefelder
kreijs
kreijß
kreis
kreise
kreises
kreisfreie
kreiß
kresch
kreschsvorbra
krestos
kreuder
kreuzau
kreuzung
kridd
krie
krieevel
krieewelsch
krieger
kriel
kries
krievel
kriie
kriije
kriis
kriische
kriise
kriiß
krije
krijje
kring
krippsche
krisch
kristen
krit
kritik
kritt
krißtoß
krißtuß
krißßlijje
kro
kroazije
krohm
kroiseti
kroom
kroome
kru
kruffe
kruffer
kruschele
ks
ksche
kste
kt
kte
kts
ku
kuba
kubx
kue
kuiperju
kulle
kultur
kulture
kulturfo
kulturpflege
kumede
kumme
kummen
kunnt
kunnte
kunnß
kunst
kunt
kupferho
kupferhoff
kupfermeester
kupfermeestere
kurdistan
kurfu
kurko
kurow
kurt
kusin
kutt
kutte
kuurt
kvb
kwa
kwaasi
kwan
kyffha
kyla
kz
kßde
kßte
l
la
laach
laache
laad
laade
laans
laat
labiale
labor
labore
labrador
lachmann
lade
laden
ladenburg
laetare
laetitia
lafee
laga
lager
lajer
lajerdeel
lajere
lake
lakinsk
lall
lama
lampe
lampedusa
lamprokles
lancelot
land
landdaach
lande
landes
landeshoupshtadt
landeskunde
landfu
landkaat
landkreis
landkriis
landrut
landschaff
landschaften
landschaftspflege
landschaftsverband
landt
landweetschaff
lang
lange
langefa
langen
langenfeld
langensiepen
langerwehe
langja
langs
langsam
lank
larissa
lat
lateinisch
lateinische
lating
latte
lauf
laufe
laura
laurel
laut
laute
lawrence
lbe
ld
lde
lder
ldere
ldich
ldste
ldt
le
lea
lease
leben
lecker
ledd
leddche
leddcher
leddig
lee
leech
leed
leedche
leeder
leef
leefe
leehnde
leer
leesch
leet
leete
leeter
leev
leevde
leeve
leever
leevste
lefte
lehrer
leide
leider
leipzich
leipzig
leistunge
leite
leiter
leitzde
leitzte
leizde
lejend
lekker
lemiee
lemma
lena
lengeschdo
lenke
lenkeln
lenks
lennad
leo
leon
leonardo
leonardos
leonhard
leoparde
leopold
leopoldine
leppe
lequeu
ler
les
lesch
lesotho
lesoto
lesse
let
lett
lettland
letze
letzte
letzter
leuf
leufd
leuft
leute
level
leverkusen
levve
levverkuse
lexikon
lez
leßß
lf
li
lich
licher
lichteschtein
lick
lidd
lie
liebe
liechtenstein
lied
lieder
liee
liehre
liehrer
liere
lies
liester
liet
liev
life
ligg
ligge
light
ligk
ligke
lihre
liie
liihe
liihr
liihrde
liihrer
liije
liijende
liirde
liire
liiv
liiß
lija
lije
lijje
likt
lila
lili
lilili
lilli
lily
lima
limborjesche
limburg
limburgse
limbursch
limbursj
lina
lincoln
linder
lindlar
lindt
lineargradient
linecap
linejoin
ling
lingwand
linie
linke
links
linnich
linnije
linnisch
linus
linux
lippe
lisa
lisch
lische
lischt
lish
liss
lissabon
list
lit
litaue
literatur
litt
little
live
liverpool
livni
lix
liza
lj
lker
lkerung
ll
lla
llche
lld
llde
llder
lldere
lldt
lle
llech
llef
llefte
llekove
llem
llemer
llen
ller
llesch
llich
lliin
llije
llin
llingen
llisch
llner
llo
llong
llschaff
llsche
llt
llte
llung
llve
llver
llwa
llzitt
lləfte
lm
lmsch
ln
lner
lnische
lnischer
lo
localhost
loch
loff
loffschlang
lohmar
lohße
london
long
looch
loofe
looft
loog
loohße
loop
loor
loore
loos
loot
looß
looße
lord
lordi
lorem
lorenz
lorenzo
los
loss
losse
lot
louch
louf
loufe
louis
louise
louvre
loußba
love
loß
loße
loßß
lp
lpe
lra
ls
lsch
lsche
lscher
lse
lser
lt
ltnes
ltnis
lu
luanda
lubitsch
lublin
luca
lucceius
luciano
lucien
lucy
ludwig
luff
luffschlang
luffschlange
lufthansa
luftwaffe
lugano
lugo
luhme
luik
luise
luka
lukas
lumie
lund
luo
luther
luuhnt
luur
luure
luvv
lux
luxembuerjesch
luxemburch
luxemburg
luxemburjer
luxembursch
luxembursh
lv
lva
lvde
lve
lvr
lvs
lya
lyndon
lynen
lyon
lz
lze
lzer
lzje
lßte
m
ma
maa
maach
maache
maachen
maacher
maad
maade
maare
maas
maastricht
maat
maaß
maaßtresch
mach
macharaviaya
mache
machen
macht
machß
macintyre
macke
madagaska
made
madison
madonna
madrid
mae
magasin
magazin
magazine
magna
magni
mai
maiboom
maijlo
mail
mailand
main
mainz
maire
maja
majdanek
make
makroshprooch
makroshprooche
maktum
mal
malawi
mallorca
malta
malz
mam
mamm
man
management
manavgat
manch
manche
manchmol
mandela
manet
manfred
mangneet
mangneete
mangs
mann
manneken
mannheim
mannschaff
mansch
mansche
mansh
mantel
mao
map
mar
mara
marburg
marc
marcel
marcellus
marco
marcus
maria
marianne
marie
marieche
marienthal
marilyn
marine
marino
mario
mark
markus
marlene
marmor
maro
maroe
mars
marseille
marsh
martin
marullus
marx
mary
maschiin
maschine
mass
massachusetts
masse
material
mathematiker
mathias
mathrm
matisse
matrose
matsue
mattematik
mattes
matthias
mattrijaal
mau
maurice
max
maximilian
mazedohnije
mber
mbh
mbo
mbra
mbraad
mbrenge
mccain
mckinley
me
mebazaa
meckem
meckenheim
mecklenborsch
med
medallich
medallje
medd
medde
meddel
meddela
meddelahle
meddelalder
meddelallder
meddeleuropa
meddelmeer
medden
meddlere
meddsen
media
medica
medici
medizin
medwedew
mee
meedste
meent
meer
meerbusch
meere
meeresspeiel
meeresspeijel
meeste
meestens
meet
meeter
meetste
meetstens
meetzde
meeßd
meeßtens
meh
mehr
mehrere
meij
mein
meine
meint
meinung
meistens
meister
meisterschaff
meiße
melanie
meld
melde
melech
melechstroaß
melejer
melekeok
melissa
mellion
mem
memorial
men
menester
menesterpra
menexenos
menge
mensch
mensche
menschen
menutte
mer
mercedes
meritaton
merke
merkel
mero
merode
merrem
merrkuur
merzenich
mesch
mesche
meso
mess
messe
messepukal
messing
mestreech
mestreechs
met
metal
metall
metalle
metcalfe
meter
metgled
metjemaat
metjledder
metjlett
metjo
metmaache
mettmann
metz
metzger
mexico
mexiko
meyer
mfassd
mfasse
mfasst
mi
miami
mich
michael
michaela
michailowitsch
michel
michelangelo
michele
micheline
mickey
microsoft
midde
middel
middelalter
mie
miee
mieh
miehste
mier
mieste
miestendeels
miestens
mietste
mieß
mießte
mih
mii
miih
miihtß
miihßte
miistens
miißte
mijj
mijo
mildred
milesch
miley
milita
millard
milliarde
million
millione
millionen
milliun
milliune
millowitsch
milo
milton
mim
min
minas
minden
ming
minge
minh
ministerpra
minniti
minnsche
minsch
minsche
minsk
minu
minute
minutte
mio
mir
misch
mische
mish
miss
missionare
mit
miter
miterlimit
mithilfs
mja
mjebraad
mjebraat
mjesatze
mjewandelt
mjo
mlaufbaan
mlich
mlisch
mlish
mloufe
mm
mmber
mmbo
mmche
mmd
mmde
mme
mmel
mmele
mmende
mmer
mmerde
mmere
mmernde
mmert
mmich
mmlesch
mmo
mmt
mmung
mnasium
mo
moal
moch
moda
modderjoddes
mode
model
modele
modelle
moderatorin
modern
moderne
moers
mohamed
mohammed
mohl
mohlde
moht
mol
mold
moldahvije
molde
mole
moler
molerei
moll
molleku
mollie
momang
moment
mona
monaco
mond
monde
monica
monika
monjolei
monnem
monroe
monschau
mont
montana
monte
montenejro
montpellier
mood
moohnd
moohnde
moohße
mool
moolde
moole
mooler
moond
moonde
moont
moor
moot
moote
mooten
mooß
mor
mord
moresby
moresnet
moritz
morje
morjens
morris
morrison
morton
mosambik
moschee
mosel
moselfra
moselsiij
moskau
moslems
moss
mosse
mot
mote
motive
moto
motor
motte
motter
motto
moulin
mount
movie
mozart
moß
moßß
mp
mpf
mpfd
mpfde
mpfe
mpfte
mpla
mr
mrd
mro
msche
msta
mt
mter
mu
much
mugabe
mulartsho
mull
mullartsho
mulle
mullt
multiplikatore
mundaat
mundart
mundartdokumentation
mundarten
mundartwo
munitiun
munson
muse
musejum
museum
museums
music
musical
musick
musik
musikk
musikker
musiko
muss
mussik
mussolini
mutandis
mutatis
mutter
muuch
muucherveld
muul
muur
muure
muusbo
muuze
muuß
muß
mveld
mwa
my
mysora
mythologie
mytholojie
mzo
n
na
naach
naahd
naahl
naaht
naahß
naam
naame
naamensliiß
naas
naat
naaß
nach
nachfoljer
nacht
nachvoljer
nacional
nackde
nackte
nacktheed
nadja
naftalan
nag
nahe
nahme
nahtija
nakß
nakße
nam
name
namen
namens
namibia
namibie
namur
nang
nannd
nannde
nannt
nannte
naomi
napole
napoleon
nasale
nask
naslang
nassau
nasti
nation
national
nationale
nationalpark
natiune
nato
natto
nattu
natu
natur
natural
naturschotzjebiit
naturschutz
natuur
nau
nazaire
nazi
nazis
nbi
nch
nche
nchejlapbach
nchen
nchener
nchengladbach
nchez
nchmol
ncia
nd
ndchen
nde
nden
nder
ndere
ndern
ndernde
nderonge
nders
ndert
ndesch
ndesche
ndet
ndete
ndez
ndich
ndije
ndin
ndisch
ndische
ndler
ndlich
ndnes
ndnis
ndo
ndong
ndonnersdaach
ndr
nds
ndt
ndung
ne
neandertaler
nebeld
nebst
ned
nedaahl
neddela
nedderfra
nedderla
nederla
nederland
nederlands
nederlandse
nedersaksisch
nee
neederla
needersachse
neef
neer
neet
nef
neglect
nehren
nelson
nem
nemark
nemarkstrooß
nemm
nemme
nemmieh
nemmp
nen
nenne
nennt
neo
nepptuun
ner
nere
nesch
net
nett
network
netz
neu
neue
neuen
neuer
neuguinea
neuje
neumond
neuseeland
neuss
neutral
neutrone
nevada
neven
nevve
nevven
new
news
newton
nf
nftich
nftisch
ng
nga
ngd
ngde
nge
ngel
ngen
ngende
nger
ngere
ngerher
ngerin
ngersdo
ngerung
ngich
ngichkeet
ngije
ngisch
ngischte
ngk
ngke
ngkerchen
ngkesche
ngkte
ngla
ngland
nglandt
ngle
nglesch
nglesche
nglesh
ngli
nglich
nglisch
nglische
nglish
ngnes
ngnis
ngo
ngs
ngsch
ngsche
ngste
ngt
ngte
ngß
ngßde
nha
nhat
ni
niblo
nic
nich
nicht
nicola
nid
nidd
nidder
nidderfra
nidderkassel
nidderrhing
nideggen
nie
niederaußem
niederfra
niederla
niederlande
niederrhein
niederrheinische
niederrhing
niedersachsen
niederzier
nieuwvliet
nig
night
nigra
nigrich
nigswinter
nije
nijin
nijmegen
nikolaus
nimmie
nimmp
nina
ning
ninge
nippes
nisch
nische
nit
nitt
nix
nixon
njeva
nju
nk
nkd
nke
nkesch
nkesche
nkisch
nkische
nklichkeet
nksche
nl
nland
nle
nlesch
nlesh
nlich
nlijje
nlisch
nlish
nm
nmaile
nmi
nn
nna
nnche
nnd
nnde
nndere
nndo
nndt
nne
nnef
nnefte
nnen
nner
nnerschdorf
nnes
nnesch
nnesche
nnesje
nnheet
nnig
nnigrich
nnigrisch
nnije
nnijin
nning
nninge
nningshoff
nnkerrsche
nno
nnsch
nnsche
nnsches
nnste
nnt
nnte
nnung
nnz
no
noa
noah
noam
nobber
nobbere
nobberschaff
nobberstaate
nobelpriiß
noch
nocht
noda
noe
nofretete
nog
noh
nohber
nohda
nohdem
nohkixel
nohm
nokixel
nolde
nom
nomaal
nomm
nommaal
nommaale
nomme
nommer
none
nonne
nonumy
noo
noodrhing
nooh
noohm
noom
noord
noorde
noordrhing
noppere
nor
norbert
nord
nordamerika
norde
norderney
nordirland
nordkorea
nordo
nordoste
nordrhein
nordrhing
nordsee
nordweste
norm
norma
normal
normale
normalerwiiß
norme
norr
norrde
norrem
norren
norrens
norris
northern
norweje
not
notzde
notze
notzt
nova
november
novemmber
now
np
nr
nrw
ns
nsberch
nsberg
nsberjer
nsch
nsche
nsdap
nse
nsler
nste
nster
nsterau
nsterbaach
nsterbo
nstereefel
nsterland
nstler
nstlere
nt
ntda
nte
nter
nther
ntlich
ntsta
nu
nubbel
nuenen
nui
null
nulla
nullet
nummer
nun
nur
nuthberch
nuur
nver
nwa
nwald
nz
nze
nzerin
nß
nßler
o
ob
obama
obb
oberhausen
oberscharvu
oberstdorf
oblast
obres
obwohl
och
oche
ocht
ochtsdeel
oda
odde
odder
oddo
oddor
ode
odenthal
oder
odin
odo
oe
oecher
oee
oes
of
off
offe
offiziell
offizielle
offizier
offizja
offizzja
offset
ofizja
oft
ohio
ohne
ois
ojinaal
ok
oktober
oktoberfess
oktoober
old
oldebursh
oldenbursch
oliejarchie
olive
oliveira
oliver
ologie
olpe
olympische
om
omegawiki
omm
omo
on
onaavha
onafha
onavha
onbekleede
onder
one
onge
onger
ongerbroche
ongerdeeld
ongere
ongerha
ongerhalde
ongerlaare
ongerna
ongerneehme
ongernehme
ongersche
ongerscheed
ongerscheede
ongerscheedlich
ongerscheedliche
ongerscheedlijje
ongerschiidliche
ongerso
ongersood
ongersta
ongersto
ongerstolbersch
ongerwa
ongerzeechnede
ongerzeechnet
ongescheede
onjefa
onjeva
onjlo
onjo
onkel
online
onmo
onrouhe
ons
onva
onvall
onß
ooch
ooche
oohne
oohr
oohre
oone
oore
oos
oot
oovens
op
opa
opacity
opbouw
opbouwe
opdra
opdrach
opel
open
oper
opera
opfer
opfere
ophalde
ophood
ophu
opja
opjaav
opjaave
opjeboud
opjebout
opjebouwd
opjedeelt
opjehange
opjejovve
opjelo
opjemaad
opjemaat
opjemaht
opjenomme
opjenumme
opjeschra
opjeschrevve
opjestalld
opjestallt
opjesteje
opjevange
opjevu
opjo
opjrond
opkla
opkoom
oplo
opmaache
opmerksam
opnahme
opp
oppaaße
oppeln
oppositiun
opsta
opstand
optra
optredde
optrett
optrette
optroon
opva
opvallend
opvu
opzo
opß
or
orde
orden
ordnung
org
orijinal
orion
orionis
orjan
orjanisatiun
orjanisatiune
orjaniseerde
orr
orrejejch
orsay
orspro
orsprong
ort
orthodoxe
ortodoxe
ortsdeel
os
osama
oscar
oschi
oslo
oss
osse
ossetie
ossheim
ossheimer
ossi
osste
ost
oste
osten
ostere
ostermann
ostersonndaach
ostfriesland
ostsee
oswalda
ot
other
otto
ou
ouch
ouldtaimer
oure
ous
outobahn
outobahne
ov
ovend
ovends
over
overath
overhuse
overijssel
ovid
ovve
ovver
ovverhouse
ovverja
ovverkerch
ovveroodt
ovverrhing
ovverstolbersch
ozean
oß
oßte
oßß
p
pa
paa
paar
paaßd
paaßde
paaße
paaßende
packde
packe
padberg
paderborn
pai
paimpont
pakistan
pala
palau
palemsondaach
pali
pallz
palz
pann
pano
panz
panzer
panzere
panzerkreuzer
paoli
paolo
papier
papiir
papp
paps
papst
papua
papß
parade
paraguay
parat
pardon
paris
pariser
park
parlament
partei
parteie
parteij
partisane
party
pascal
pass
passeerd
passeerde
passeere
passerd
pastur
pastuur
patent
path
patrik
paul
pauline
paulo
paulus
pavarotti
paveier
pavement
pazifik
pazifische
paß
paßße
pdf
pe
pedro
peel
peffer
peitsch
peking
pel
pelagische
pelagius
pemberton
pen
penn
pennsylvania
people
per
perikles
periodesu
pernilla
perso
persun
persune
peru
peshawar
peta
peter
peters
petersburch
petr
petri
petrus
petscherski
pfa
pfaffemo
pfalz
pfeiffer
phaedo
phage
pharao
philadelphia
philipp
philips
philosophie
phong
php
physik
pi
picasso
pickford
pief
piefe
pier
pierce
piero
pierre
pijin
pil
pilatus
pilot
pilote
pils
pimel
pin
pindakaaß
ping
pingste
pis
pisin
pitter
pitterma
pittersbersh
pkk
pl
pla
plaat
plaate
plaatsch
plaatsj
plaatsjlieje
plaaz
plahto
plan
plande
planeet
planet
planete
planneet
planneete
planz
planze
plastik
plat
plato
platsch
platsche
platt
plattdeutsch
plattdeutsches
plattdu
platte
platz
plaz
plei
plo
plosive
pluto
pluuto
pnv
po
pochtujal
podolsk
pohl
pokal
pokalsiejer
pole
polen
polisse
politieker
politik
politiker
politikerin
politisch
politische
polk
pollitiker
polnesch
polnische
pomp
pompe
pona
ponzius
poole
pooschte
pooz
pooze
pop
popp
poppe
poppelsdo
poppert
popula
porcius
port
porta
portal
porten
portrait
portugiese
portugiesische
portujal
positiun
poss
post
poste
potemkin
pott
potter
powiat
poßß
pp
ppche
ppe
ppel
pper
ppers
ppisch
pps
ppsche
ppt
pra
pradesh
prag
praktisch
pre
preem
preetz
preis
prelk
premiemenester
prenz
press
presse
preusse
preuße
preußen
preußische
preußischen
preußße
prevat
prevate
pries
priise
priiß
prima
primera
prince
princess
printe
prinz
prinzen
prinzessin
prinzip
pro
problem
probleme
produktiun
produzeerd
produzeerde
produzent
prof
profa
professor
profinnze
profinß
proiße
proja
projamme
project
projekt
projekte
projramm
projramme
prosa
proserpina
protokoll
protone
provins
provinz
provinze
provinzhauptstadt
provinß
prozent
prozess
prozesse
pru
ps
pta
pte
pu
pucu
puddelnakß
pukal
pullem
pungk
punk
punkt
punkte
puri
purity
putativnutstand
putin
puttes
puute
puławski
px
q
qin
qing
qu
qua
quallmann
quang
quasi
quatre
quatsch
queen
quell
quelle
quincy
quintanilla
r
ra
raab
raav
rad
radar
radio
raeren
rafael
rahme
ralf
ralph
ramolino
rampling
rand
rang
ranh
rantum
ratte
rau
rauh
raum
raumsond
rauxel
ray
rb
rbe
rbeede
rbelche
rbeld
rch
rchbroch
rche
rchen
rcher
rchop
rd
rdba
rdbebe
rde
rden
rdener
rderung
rdlich
rdlisch
rdraach
re
reagan
reaktiun
reaktore
rebelle
rebum
rechne
recklinghausen
records
recovery
rect
red
redaktion
rede
redensarten
ree
reed
reef
regie
regierungsbezirk
regijon
regime
regina
regiolek
region
regional
regionale
regisseur
regiun
regjierongßbezo
reich
reichde
reichleitner
reichsdaach
reichshof
reichsmark
reih
rein
reinhard
reinhardt
reis
reisch
reisde
reise
reissdorf
reiste
reiter
rejel
rejele
rejelma
rejentschaff
rejierung
rejierungsbezirk
rejii
rejiim
rejiirde
rejiirt
rejiirung
rejion
rejisseur
rejiun
reklame
rektor
relativ
relativita
religiun
relijiun
relu
rembrandt
remscheed
remscheid
ren
renaissance
rene
rener
renfro
reng
renn
renne
rensing
repra
republek
republik
republikaner
rer
res
resch
ress
resse
rest
reste
ret
rethel
rette
reuisch
reusrath
revolutiun
rez
rf
rfc
rfe
rfje
rfolsch
rft
rg
rgen
rger
rha
rhei
rhein
rheinbach
rheinbrohl
rheinisch
rheinische
rheinischen
rheinischer
rheinisches
rheinland
rhen
rhenania
rhenbach
rher
rhing
rhingla
rhingland
rhinglandt
rhingsch
rho
ri
ria
riccardi
rich
richard
richd
richmodis
richroth
richterskala
richtich
richtig
richtije
richtisch
richtung
rida
rie
riedewald
rieseradd
rievkooche
rihanna
rije
rijel
rijje
rin
ring
ringe
rio
rip
ripoare
ripoaresch
ripoaresche
ripoarisch
ripoarische
ripuaresch
ripuarisch
ripuarische
risch
rische
rischka
rischste
rischtije
rischtisch
rishtish
ritter
river
rja
rje
rjebirsch
rjer
rjerkresch
rjerliche
rjermeester
rjermeesterei
rjermeijster
rjermeister
rjestalld
rjeworpe
rjische
rjo
rjoov
rk
rke
rkei
rker
rkische
rkischer
rkla
rkomme
rkraftwerk
rkstatt
rku
rkumme
rla
rlesch
rlich
rlisch
rm
rmaane
rme
rmelßkirrshe
rmer
rn
rnberg
rnt
ro
roa
road
roat
robert
roche
rochus
rock
rockmusick
roda
rode
rodolfo
roebling
roee
roermond
roff
roger
roj
rolduc
roll
rolle
rom
roma
roman
romanik
romanische
rome
romeo
romilian
romina
ron
ronald
roncalli
rond
roosevelt
root
roothuus
rop
ros
rothuus
rotinge
rott
rottleben
roubaix
rouen
rouge
rouh
roum
route
roxelane
roy
royal
rp
rpche
rpe
rper
rperkultur
rpommere
rr
rrbe
rre
rrek
rrem
rrep
rreskaarerenne
rrika
rrische
rrje
rrjische
rrme
rro
rrse
rrve
rrəm
rs
rsch
rschten
rse
rsetz
rsetzende
rsh
rst
rsta
rstand
rste
rstedom
rstelle
rstellung
rstentum
rt
rtche
rte
rten
rter
rterboch
rterbuch
rtes
rtgenwald
rth
rtl
ru
rude
rudka
rudolf
rufus
ruh
ruhe
ruhr
ruhrgebiet
ruhrjebiet
ruhrpott
ruin
ruine
rule
ruma
run
rund
runde
rung
runge
ruppichteroth
rur
rus
russ
russe
russisch
russische
russjejovve
russland
rut
rutherford
rutsch
ruud
ruude
ruuh
ruuse
ruusedahl
ruusemoondaachszoch
ruut
ruß
rußland
rv
rva
rvd
rvde
rve
rvenich
rvk
rvo
rwaahle
rwe
rz
rzbischoff
rzd
rzde
rze
s
sa
saach
saache
saad
saahre
saakaschwili
saal
saare
saaren
saarland
saat
saate
sache
sachse
sachsen
sack
sadipscing
sage
sagen
sahir
sahre
saht
saint
saison
sallz
salomone
salon
salt
salvador
salz
salzwasser
sam
sambia
samme
sammele
sammlong
sammlung
samuel
san
sanctus
sand
sang
sank
sankt
sant
santa
santiago
santo
sapiens
sara
sarah
sardinie
sare
saren
sarre
sat
saturn
saturnio
satz
satze
saubaach
saudi
sauerstoff
sauron
saxe
saz
saß
sbijer
sbisch
scene
sch
scha
schaat
schabau
schablon
schade
schaff
schaffd
schaffde
schaffe
schaffrath
schaffte
schah
schalldtjoohr
schalltjoohr
schamhaftichkeet
schamhoore
schang
schangß
schauspelle
schauspeller
schauspellerei
schauspellerin
schde
sche
scheckde
schecke
scheed
scheede
scheeff
scheeffe
scheevho
scheff
scheffe
schei
scheiterhoof
schele
schelvis
scher
scherei
schermettwoch
schess
schief
schiev
schiff
schina
sching
schingd
schinge
schingk
schje
schjoohr
schla
schlaach
schlaachzeuch
schlaare
schlach
schlacht
schlang
schlangeberch
schlangebersch
schle
schleed
schleede
schleicher
schleichers
schlemm
schlemmer
schlesch
schleswij
schlich
schlisch
schlo
schloch
schlooße
schloss
schlosse
schloß
schluff
schluss
schma
schmeck
schmecke
schmidt
schmieße
schmitt
schmitz
schmo
schmolz
schmu
schna
schnappde
schnappe
schne
schnee
schnei
schneider
schnell
schnellstrooß
schnett
schnigge
schnu
scho
schoh
schohn
schold
scholde
scholl
scholle
scholohre
schon
school
schoon
schorsch
schoss
schosse
schosste
schotte
schottland
schotz
schotzjebiite
schotzstaffel
schpa
schpanije
schprohch
schprooch
schprooche
schra
schreev
schreff
schreffte
schrefte
schreiner
schrett
schriev
schrieve
schrievwies
schriewe
schrihve
schriif
schriivd
schriive
schriiver
schriiverin
schro
scht
schta
schtadt
schtatt
schte
schto
schu
schuhmacher
schuld
schule
schull
schumacher
schun
schunn
schuster
schwa
schwaade
schwaadt
schwade
schwan
schwartzenburch
schwarz
schwarzer
schwatz
schwatzbaart
schwatze
schwaz
schwazz
schwazze
schwede
schweer
schwehde
schweiz
schweizer
schwemme
schwengel
schwer
schwerkraff
schwester
schwestere
schwierichkeete
schwirichkeete
schwo
schwoch
schwomme
se
sea
search
sech
seche
secher
secherheed
secherheet
sechs
secke
sed
see
seee
seefeoper
seeg
seeh
seehofer
seejele
seeland
seelschet
seesch
seewer
sehe
sehen
sehr
sei
seid
seij
seijd
seijt
sein
seine
seiner
seit
seite
seiten
sej
sejj
sekunde
selbe
selbstverlag
selde
sele
selefs
selena
seleve
seleves
selevs
seligen
sellde
sellevs
sellschaff
sellve
sellver
selve
selver
selvs
semerchet
sen
senat
senator
send
sendai
sendler
sendung
seng
senge
senk
senke
senn
seo
seppta
september
sequoia
ser
serbie
serbien
sergei
serie
serisch
service
sesch
sesche
sescher
sesh
session
sester
setz
setze
setzt
setzung
sevilla
sex
sez
sezz
sh
shakira
shanghai
shbare
she
sher
shi
shla
shlesh
sho
show
shpa
shpell
shpelle
shpill
shpillt
shprish
shprooch
shprooche
shta
shtaad
shtaat
shtaate
shtadt
shtamm
shtammp
shtatthalldere
shte
shtell
shtil
shto
shtonn
shtrohß
shtroohß
shtrooß
shtrooße
shtu
shtund
shßte
si
sibbe
sibbejebirje
sibbejebirsch
sibbente
sibelius
sich
sick
side
sident
sidente
sidentschaft
sie
sieburch
siebursch
siech
siede
siedler
siedlung
sieg
siegburg
siegen
siegfried
siegtal
siehr
sieht
sieje
siel
siemons
sien
siesch
siesh
sieshloor
siet
sig
sigck
sigg
sigge
sigk
sihr
sii
siiborsh
siihr
siij
siije
sij
sije
sijj
sik
silke
simbabwe
simon
simone
simpson
simpsons
sin
sina
sind
sing
singe
singem
singen
singer
singk
single
sinn
sinne
sint
sinti
sinus
sisch
sische
sischen
sish
sit
siteit
sitt
situation
situatiun
situatiune
sitz
sitze
sitzung
sixtinische
sizilie
sj
sje
sjoee
sjpelling
sjpiee
sjproach
sjriever
sjtad
sjtee
skandal
skandinavie
skerche
ski
sklave
sklavehandel
sklavin
skol
sky
skyline
slowakei
slowehnije
slut
small
smolensk
so
sobibo
sobibor
sobiborski
soch
soest
software
sohn
sokrates
solche
sold
soldat
soldate
solinge
solingen
soll
solld
sollde
solle
sollen
sollt
sollte
somme
sommer
sommerspelle
son
sondern
song
songisch
sonn
sonndaach
sonndach
sons
sonst
sonß
sooch
sood
soohm
soohn
soore
soot
sooß
sooße
sophie
sophroniskos
sorch
sorchd
sorchde
sorcht
sorchte
sorje
soundtrack
south
sowie
sowjetuniun
sozial
soziale
spa
spanie
spanier
spanisch
spanische
spass
spaß
spd
speck
speijel
spektakel
speld
spell
spelld
spellde
spelle
speller
spellt
spellte
spelte
spencer
spetz
spetznaam
spich
spiegel
spieler
spiidere
spiidr
spiir
spill
spille
spiller
spillt
spillte
spingxe
spital
spo
sport
spra
sprache
sprachgeschichte
sprachproben
sprachschatz
sprech
sprechd
spreche
sprechen
sprecht
sprich
spricht
springfield
spro
sproch
sproche
sprong
sprooch
sprooche
spru
spure
srath
srod
sroth
ss
ssd
sse
ssel
sseldo
sseldorf
sseldorfer
sseldorp
sseldorwer
sser
ssich
sside
ssije
ssje
sslich
ssner
sst
sste
st
sta
staat
staate
staatliche
stachus
stad
stadion
stadium
stadt
stadtbezirk
stadtbezo
stadtdeel
stadtdeele
stadtjebiet
stadtmuur
stald
stalinjrad
stalld
stallt
stallte
stamm
stammd
stammde
stamme
stammende
stammt
stan
stand
standort
stang
stange
stangl
star
stark
start
station
statistik
statiun
statt
stattva
stattvong
statue
status
ste
stech
stecke
stee
steebro
steebroch
steech
steecht
steehd
steeht
steen
steenzitt
steern
steerne
steet
stefan
stehd
stehen
steht
steiff
steiht
steil
stein
steinfurt
steinmeier
stell
stelld
stelle
stellt
stellung
stem
stemm
stemme
stephan
stephen
ster
stere
stern
sterreich
sterrich
stervd
sterve
stet
stez
stich
stichting
stickstoff
stiftung
stiir
stije
stil
still
stille
stimmhafte
stimmlose
stirvd
stisch
stlich
stliche
stlisch
sto
stoche
stock
stockholm
stoff
stoffe
stoh
stoker
stolberch
stolberg
stolberger
stolberjer
stolbersch
stolle
stolz
stommfilm
stommfilme
stommfilmzitt
stond
stonn
stooh
stop
storm
storv
storve
story
stoss
stout
stowasser
stra
straelen
strand
stratmann
straße
streck
strecke
street
striptease
stritt
stro
stroke
strom
stroof
strooß
strooße
stroß
stroße
stru
stu
stuben
studeerde
studeere
studeert
studeet
studente
studie
studiirde
studiire
studio
studium
stuf
stund
stundt
stung
sturm
stuttgart
style
su
suchen
sudan
sudat
suffe
suh
suja
sujaa
sujaar
sujar
sujenannde
sujenannte
sujet
sulang
sull
sulle
sullt
sultan
summer
sun
sundern
sung
sunn
sunndaach
sunne
sunnefinsternees
sunnesystem
superjeilezick
suppermaat
sur
susana
suu
suure
suvo
suwi
suwie
suwisu
sven
svg
swa
swadesh
swasiland
swb
swetlana
swisttal
sydney
sylt
sylvester
symbol
syphilis
system
szaul
t
ta
taalunie
tabell
tabori
tadic
taft
tag
taiwan
takimata
tal
talsperr
tan
tar
tareboch
tat
tata
tatsa
tau
tauchd
tauchde
taucht
taylor
tche
te
teatr
tebersch
technik
tee
teema
teil
teisch
teje
telejramm
tellefon
teller
tempel
tempele
temperatur
temperature
templ
tempo
tempor
ten
tennessee
tenzin
ter
terbooch
tere
terrae
terroriste
tersloh
terwinsele
tes
tesch
tess
testament
teti
tex
texas
text
texte
th
thailand
that
the
theater
theatr
theatre
thek
thema
themen
theo
theodor
theodore
theorie
thiater
thomas
thor
thu
thuy
ti
tianu
tiater
tiberius
tibet
tije
time
times
timor
timothy
tira
tireck
tirek
tirektemang
tiresias
tisch
tit
titan
titel
tittel
titz
tiwaz
tlich
tnam
to
tod
toendra
tok
toki
tokio
tomburch
tommy
ton
toni
tonnar
tonne
top
tor
tore
toronto
torpedos
torrem
tossenstee
totala
toulouse
tourismus
tours
tower
toyone
tra
tradition
trainer
trak
trang
transform
transformation
translate
transporteere
transportwa
trapp
traude
trawniki
tre
treblinka
trecke
treffe
trefft
trekke
trennde
trenne
trennt
tres
trick
trier
triest
triff
triir
tring
tripper
tritt
tro
trock
trocke
troff
troffe
troisdorf
trok
troon
troone
trooßdoorf
trooßdoorfer
trooßdorfer
trotz
trotzda
trotzdem
truman
trump
truppe
trutzeltz
ts
tsch
tscha
tsche
tschechei
tschechoslowakei
tscher
tschewald
tschkopp
tschland
tschlands
tse
tsiet
tsje
tsjland
tsna
tste
tstheorie
tsvordriiner
tswai
tt
ttche
tte
ttemang
tten
tter
ttich
ttin
ttingen
ttish
ttlijje
ttsche
ttwa
tu
tucker
tun
tunesie
tunfilm
tunick
tupolew
turbine
turiste
turm
turner
turpin
tussje
tut
tuur
tuvalu
tv
twa
ty
tyler
typ
type
typisch
tyr
tz
tzau
tzd
tzde
tze
tzer
tzje
tzlich
tzliche
tzt
tzte
tzung
tß
u
uber
uch
udde
udder
ude
udssr
ue
uefa
uel
uer
uf
ufd
ufer
uff
ufischste
uft
uhr
uhuus
ukraine
ulrich
ulysses
um
ume
umgebung
umliche
ummer
un
unavha
unbedingk
und
underground
une
unesco
unge
ungen
unger
ungere
ungereneen
ungerscheed
ungerso
ungerstu
ungerwa
ungescheed
ungescheedlijje
uni
unicode
union
unita
united
univa
universidade
universita
university
unjarn
unjefa
unjeva
unn
unna
unnjan
uns
unse
unsem
unser
unsere
unserem
unserer
unter
unteren
unß
up
upp
ur
ural
urdeel
urdu
urkers
urkund
url
urranuß
urspru
ursprung
ursula
us
usa
usbeldung
usbroch
usch
usdrock
usem
user
userkreis
userspaceonuse
usjelo
usjesood
usjesproche
usjestorve
usjo
uslo
uss
ussaare
ussbeldung
ussbroch
ussdrock
usse
usseda
ussem
ussemenester
ussemenestr
ussenander
ussepolitik
usser
usserda
usserdem
ussere
usseree
usserhalb
ussjang
ussjelo
ussjesproche
ussjestalld
ussjo
ussla
ussland
usso
usszeechnunge
usterka
usw
ut
utc
utf
utrecht
uuhre
uur
uus
uvd
uve
uvver
uß
ußdro
ußdrock
ußer
ußerda
ußerhallef
ußjedaach
ußmaache
ußß
ußßer
ußßerda
v
va
vaahre
vaahrer
vaals
vaan
vaare
vahre
vale
valencia
valerius
vall
valle
valley
valloni
vallotton
valsche
vam
vamm
van
vanaaf
vanaan
vande
vanessa
vange
vangene
vanne
vannozza
var
vass
vassjenomme
vassjestalld
vassjo
vassstelle
vaste
vatikan
vatter
vd
vde
ve
veedel
veedelle
veehl
veel
veele
veenuß
veerd
veet
veete
vel
velau
velbert
veld
veldeke
velit
vell
velle
vels
ven
vende
venedich
venera
venezuela
vengere
venlo
venn
vennhuse
venslang
vensmeddele
vensraum
venster
ventidius
venus
venß
ver
vera
verall
verbindung
verbodde
verbonge
verbunge
verdeene
vere
vereenichde
vereenichte
vereijn
verein
vereine
vereinigte
vereinigung
verfu
vergil
verha
verjliche
verka
verkehrsverbund
verko
verku
verla
verlaach
verlag
verlagsgesellschaft
verloor
verloore
verlor
verlore
vernichtungslager
vero
versailles
verschiddene
verschiedene
version
versiune
verso
versta
versteht
verstonn
verwa
verwandt
verwandte
verza
verzallt
veschvang
vespucci
veur
vewese
vi
via
vicht
vichtbaach
vichtbach
victor
vie
viee
viel
viele
vier
vierse
viersen
vietjet
vietnam
vii
viii
viir
viird
viirde
viire
vija
vill
villa
ville
vincent
vinci
vings
vinxbach
vinzenz
viola
virginia
vita
vith
vivian
vize
vizemeister
vizepokalsiejer
vizepra
vla
vleech
vleeje
vleesch
vloch
vlu
vluchhafe
vluchjesellschaff
vluchjesellschaffte
vluchzeuch
vluchzeuje
vo
vokale
volchde
volek
volk
volkskunde
volkssprache
volkstrauertag
volkstsello
voll
vollmond
vols
voluptua
vom
von
vong
vonge
voohr
voor
voore
vor
vora
voranstaltung
vorantwortlich
vorba
vorband
vorbei
vorbeij
vorbessere
vorbindung
vorbla
vorbone
vorbong
vorbonge
vorboone
vorbra
vorbraad
vorbrannd
vorbrannde
vorbrannt
vordeele
vordeend
vordeende
vordeene
vordeent
vordra
vordrach
voreenijung
vorein
vorfassung
vorha
vorhalde
vorhiirod
vorhindere
vorho
vorholp
vorja
vorjaßd
vorjeiße
vorkammesoole
vorkoofe
vorkooft
vorkoovd
vorkoovde
vorku
vorla
vorlaad
vorletzt
vorlinnt
vorloohr
vorloor
vorloore
vorlosse
vorlu
vormeddeld
vornichtungslajer
vorno
vorroone
vorsa
vorsatze
vorschiedene
vorschiidene
vorschla
vorsitzender
vorso
vorsood
vorsooht
vorsoot
vorsoote
vorsproch
vorsproche
vorsta
vorstand
vorstange
vorsteehd
vorstehd
vorsto
vorstoche
vorstooh
vortrach
vortroon
vortroone
vorurdeeld
vorurdeelt
vorvalle
vorwa
vorwaltung
vorwandt
vorza
vorzalld
voss
vossem
vott
vouwelsang
vowelsa
vra
vrassele
vrau
vraue
vreede
vrei
vreij
vreijesproche
vreischem
vresch
vreud
vreue
vreuer
vreuere
vreund
vro
vroch
vrommisch
vrood
vru
vruier
vruuh
vt
vu
vught
vulkahn
vulkahne
vulkan
vulkane
vum
vumm
vun
vung
vunn
vuur
vv
vve
vvebeij
vvel
vven
vvenomme
vver
vverall
vverd
vverdraare
vverdrare
vvere
vverhaup
vverhaupt
vverhoup
vverich
vverisch
vverish
vverja
vverjang
vverla
vvermeddelt
vverna
vvernomm
vvernomme
vverolle
vversa
vversatze
vversaz
vverschte
vverstange
vvichde
vvichte
vvischde
vvo
vvung
w
wa
waach
waade
waahl
waahle
waahr
waahße
waal
waare
waaßd
waaße
wachtbersh
wad
wadd
wade
wadji
waechter
waffe
wagner
wahl
wahle
wahn
wahrscheinlich
wald
waldbro
wales
walk
wall
wallhegge
wallingford
wallonie
wallonish
walter
wam
wammer
wan
wand
wandere
wanderer
wandernde
wann
wappe
war
ward
ware
waren
warendorf
warren
warschau
was
washington
wasse
wasser
wasserburch
wasserstoff
wasserva
wat
water
waterstone
watt
wau
waßer
waßo
waßßer
wdr
we
weat
web
weber
websigg
websigge
websigk
websiij
website
wech
wed
wedde
wedder
weddero
wede
wee
weech
weed
weede
weedt
weelen
weer
weerkde
weerstand
wees
weet
weeth
weetschaf
weetschaff
weetschaft
weetschafte
weeß
weffer
weg
weh
wei
weihnachte
weijl
weijß
weil
weiler
weimar
wein
weiss
weisweiler
weiß
weje
wejen
wejl
wel
wela
welche
weld
well
welle
wellem
wells
welsch
welt
weltall
weltkreech
weltkreesch
weltkresch
weltkrisch
wem
wemmer
wen
wenau
wengk
wengkter
wenijer
wenkel
wenker
wenn
went
wer
werbung
werde
werden
werk
werkd
werkde
werke
werklich
werklichkeet
werkte
werkzu
werm
wermelskirchen
werner
werpd
werpe
werth
weschtijje
wesel
wess
wesse
wesseling
wesseschaff
wesseschaft
wesseschafte
wesseschaftler
wessfa
wessfale
wesste
west
westdeutscher
weste
westen
westerwald
westfale
westfalen
westliche
westlische
wet
weß
weße
weßeschaff
weßeschaffte
weßße
weßßenschaftler
weßßfaale
wgl
whitley
who
wi
wibbel
wichtich
wichtichste
wichtige
wichtije
wichtisch
wick
wid
widd
widde
widder
widderhollde
widdo
wider
width
wie
wied
wieder
wiee
wieh
wiel
wien
wiener
wienges
wierd
wies
wiesbaden
wieverfastelovend
wieß
wieße
wiffjer
wifillte
wigg
wigge
wigger
wiggere
wigk
wih
wii
wiir
wiise
wiiv
wiiß
wiißd
wiiße
wiißrussland
wij
wiki
wikimedia
wikipedia
wikki
wikkipedija
wild
wilhelm
wilhelmus
will
wille
willem
willi
william
williams
willy
wilson
wim
wind
windeck
windows
wing
wingberch
winich
winnich
winnichstens
winnije
winnijer
winnisch
winnish
winte
winter
winters
winzer
wipperfu
wir
wird
wirklich
wischtije
wiss
wissbade
wisse
wissrussland
wisswiller
wisu
with
witt
wittgenstein
wivo
wiwa
wm
wo
woa
woar
woare
woaren
wobei
wobeij
woch
woche
wochedaare
wod
wodd
wodde
wode
wodka
wodo
woe
woee
woer
woh
wohd
wohl
wohne
wohner
wohr
wohre
wolf
wolfgang
wolfjang
wolfram
woll
wolle
wollt
wollte
woman
womet
wonn
wonnde
wonne
wonner
wonnhuus
wonnhuuß
wonno
wonnt
wonnunge
woo
wooch
wood
woode
woodrow
woodt
woodte
wooh
woohd
woohl
woohle
woohr
woohre
wool
woor
woord
woore
wooren
woosch
woot
woote
wor
wora
word
worde
wore
woren
world
woro
worp
worpe
worringe
wort
wortschatz
woss
wostoksee
wovan
wozo
wrede
wu
wudd
wudde
wuerd
wuerdt
wuhan
wulff
wulle
wullt
wullte
wunder
wunne
wupper
wuppertal
wurd
wurde
wurm
wutt
wutten
wuurd
wuurden
wwa
wwe
wwer
www
x
xde
xe
xeente
xena
xenophon
xer
xianfan
xlink
xte
xter
xvi
xxiii
y
ya
yad
yale
year
yehuda
yerkish
yigu
yolanda
york
you
youku
your
youtube
ypsilanti
yu
yua
yun
yvelines
z
za
zaahl
zaahle
zachary
zack
zahl
zahle
zahlen
zaire
zalld
zanders
zantipp
zar
zauß
zchinwali
zde
zdf
ze
zech
zeck
zedong
zeechd
zeechde
zeeche
zeechne
zeechned
zeechnede
zeechnet
zeechnunge
zeecht
zeechte
zeeje
zeeland
zeen
zehn
zehnte
zeije
zeirsch
zeit
zeiten
zeitung
zelda
zell
zelnik
zem
zemm
zemmer
zenk
zenkho
zensus
zentimeter
zentralbank
zentrale
zentrom
zentrum
zentrumspartei
zer
zero
zerro
zesamme
zeuch
zeusch
zeush
zezupp
zheng
zich
zick
zie
ziech
ziee
ziegfeld
zielinski
ziemlich
zieng
ziesj
ziet
zig
zigg
zigge
zigk
ziidung
ziidunge
ziihl
ziil
ziile
ziin
ziine
zik
zimmlish
zing
zint
zinte
zirk
zirka
zitt
zitte
zje
zm
zo
zoademm
zoch
zoee
zoh
zohshta
zoja
zojang
zojesproche
zojo
zoko
zom
zona
zone
zong
zoo
zoot
zoote
zor
zorerooth
zoro
zosa
zosamme
zosammehang
zosammejelaat
zoshta
zosta
zostand
zr
zro
zsamme
zsammebroch
zte
zu
zucke
zucker
zuckerro
zuid
zuje
zum
zunft
zung
zunge
zunt
zupp
zur
zusammen
zuud
zvanzishßte
zve
zvo
zwa
zwaij
zwangsarbeeder
zwangsarbeederlajer
zwar
zwe
zweesche
zweete
zwei
zweide
zweij
zweijte
zweimol
zweimoll
zweitakter
zweite
zweiter
zweitjru
zwej
zwejde
zwerchplaneet
zwesche
zweschen
zweschero
zwiivo
zwische
zwischen
zwivo
zwo
zwong
zwor
zypere
zz
zze
zzschlach
{
|
}
~
£
§
¨
«
°
²
³
´
µ
·
»
¼
½
¾
×
ß
ßd
ßde
ße
ßel
ßeld
ßelde
ßeldt
ßele
ßelle
ßelnde
ßelt
ßer
ßere
ßesch
ßfa
ßfaale
ßichde
ßisch
ßje
ßlijje
ßmoß
ßo
ßoffwa
ßroodt
ßt
ßte
ßteem
ßteeme
ßtrisch
ßß
ßße
ßßeldorf
ßßeldorrəf
ßßer
ßßfaale
ßßfale
ßßte
æ
ĳ
ĳdt
ĳl
ĳn
ĳne
ĳnische
ĳnunzvanzishßte
ĳsh
ĳte
ĳß
łobez
łomazy
ɕ
ə
ɹ
ʁ
ʃ
ʰ
ʲ
ˈ
ˌ
ː
̀
́
̂
̃
̄
̆
̇
̈
̉
̊
̋
̌
̓
̔
̛
̣
̧
̨
̩
͂
͡
α
β
ι
ο
π
ς
ϖ
н
ٔ
च
ट
र
ा
ी
्
་
ན
‎
–
—
‘
’
‚
“
”
„
†
•
…
″
€
→
↔
↷
−
③
④
⑦
⺀
⺄
⺆
⺈
⺊
⺌
⺕
⺝
⺸
⺼
⿰
⿱
⿲
⿳
⿴
⿵
⿶
⿷
⿸
⿹
⿺
⿻
〢
け
コ
ユ
㇁
㇂
㇄
㇇
㇈
㇉
㇓
㐁
㐄
㐅
㐌
㐫
㐬
㐭
㐮
㐱
㑒
㒵
㒸
㒼
㓁
㓞
㔾
㕛
㕣
㖾
㘝
㚅
㚇
㚔
㚘
㝉
㝡
㝴
㝵
㞋
㞢
㞷
㠩
㠭
㠯
㡀
㡭
㡿
㢲
㢴
㣇
㣺
㥯
㪅
㫄
㫐
㫒
㫺
㬅
㬎
㬥
㬰
㲋
㳄
㷠
㸒
㸚
㸦
㼌
㼲
㽞
㿟
䀠
䂞
䍃
䏍
䒑
䖍
䖒
䖝
䖵
䙴
䚻
䜌
䝿
䡛
䧹
䪞
一
丁
丂
七
丄
丅
丆
万
丈
三
上
下
丌
不
与
丏
丐
丑
专
且
丕
世
丘
丙
业
东
丞
丢
丣
两
严
並
丨
丩
个
丫
丬
中
丮
丰
丱
串
丵
丶
丷
丸
丹
为
主
丽
丿
乀
乂
乃
久
乆
乇
么
义
之
乌
乍
乎
乏
乐
乑
乔
乖
乗
乘
乙
乚
乛
乜
九
乞
也
习
乡
乳
乾
亀
亅
了
亇
予
争
事
二
亍
于
亏
亐
云
互
亓
五
井
亘
亚
亜
亞
亟
亠
亡
亢
交
亥
亦
产
亨
亩
享
京
亭
亮
亯
亰
亲
亳
亶
亷
人
亻
亼
亾
仁
今
介
仌
从
仐
仑
仒
仓
仕
他
付
仝
代
令
以
任
企
伊
伏
伐
休
会
伯
但
位
何
佘
余
作
佥
使
來
侈
侌
侖
侯
侵
便
保
俞
信
修
倉
倍
候
倠
備
僉
僕
儿
兀
允
兂
元
兄
充
兆
兇
先
光
兊
克
兌
免
兑
兒
兓
兔
党
兜
兟
入
全
兩
兪
八
公
六
兮
兰
共
关
兵
其
具
典
兹
兼
冀
冂
冃
冄
内
冈
冉
冊
冋
册
再
冎
冏
冐
冒
冓
冖
冗
冘
军
农
冝
冡
冥
冫
冬
冷
几
凡
凢
凵
凶
凷
凸
凹
出
函
凾
刀
刁
刂
刃
刄
刅
分
切
刍
刑
刕
刖
列
刘
则
初
別
利
别
到
制
刺
則
削
剌
前
剡
剽
劉
力
功
加
劦
助
劫
劳
劵
勃
勇
勉
勒
動
務
勞
勤
勹
勺
勻
勾
勿
匀
匂
包
匆
匈
匊
匋
匍
匕
化
北
匚
匝
匡
匪
匱
匸
匹
区
医
匽
匿
區
十
卂
千
卄
卅
卆
升
午
卉
半
卌
华
卑
卒
卓
单
卖
南
卜
卝
卞
占
卡
卢
卣
卤
卦
卩
卪
卬
卯
印
危
即
却
卵
卷
卸
卻
厂
厃
厄
历
厈
厉
厌
厓
厘
厚
原
厤
厥
厨
厭
厲
厶
厷
厸
去
厼
厽
叀
参
參
叅
又
叉
及
友
双
反
叐
发
叒
叔
叕
取
受
叚
叜
叟
口
古
句
另
叩
只
召
可
台
叱
史
右
叵
号
司
叹
吂
各
吅
合
吉
吊
吋
同
名
后
吏
向
吕
君
吝
吞
否
含
启
吳
吴
吹
吾
呂
呆
呈
告
员
呙
周
命
咅
和
咎
咠
咢
咨
咸
咼
哀
品
哉
員
哥
哲
唐
商
啇
問
啚
啬
啻
善
喜
喬
單
喿
嗇
噩
嚴
囊
囗
囘
囙
囚
四
回
囟
因
囧
囬
困
囱
囷
固
国
圂
圅
國
圍
圓
土
圡
圣
圥
在
圭
地
圶
圼
坐
坒
坚
坴
垂
垔
垚
埀
埋
埶
執
基
堂
堅
堆
堇
堯
塞
墨
壘
士
壬
壯
声
壳
壴
壹
壺
壽
夂
处
夅
夆
备
夊
夋
夌
复
夏
夒
夕
外
夗
夘
多
夜
夢
大
夨
天
太
夫
夬
夭
央
失
夲
头
夷
夸
夹
夻
夾
奂
奄
奇
奈
奉
奎
奏
奐
契
奓
奔
奚
奞
奠
奢
奥
奭
女
奴
奻
好
如
妄
妙
妟
妥
妻
妾
姑
委
姜
威
娄
婁
婴
嬰
嬴
子
孑
孔
孕
孖
字
存
孚
孛
孝
孟
季
孤
学
孫
孱
學
宀
宁
宂
它
宅
宇
守
安
宋
完
宏
宓
宗
官
定
宛
宜
宝
客
宣
室
宮
宰
害
家
容
宾
宿
寄
寅
密
富
寒
察
寧
審
寫
寬
寮
寸
对
寺
寻
寽
対
寿
封
尃
射
将
將
專
尉
尊
尋
尌
對
小
少
尒
尓
尔
尖
尗
尚
尞
尢
尣
尤
尧
尨
尭
就
尸
尹
尺
尻
尼
尽
尾
尿
局
居
屈
屋
屎
屏
屑
展
屖
屚
属
屠
屡
屬
屮
屯
屰
山
屵
屾
岁
岂
岑
岡
岩
岳
岸
峯
島
崇
崑
崔
崖
崙
崩
嵬
嶲
巂
巛
川
州
巟
巠
巢
巤
工
左
巧
巨
巩
巫
差
己
已
巳
巴
巷
巸
巽
巾
巿
帀
市
布
希
帚
帛
帝
带
師
席
帶
常
干
平
年
幵
并
幷
幸
幺
幻
幼
幽
幾
广
広
庄
床
底
店
庚
府
度
庫
庭
庶
康
庸
廉
廌
廛
廣
廩
廴
延
廷
建
廾
廿
开
弁
弃
弄
弇
弋
式
弓
弔
引
弗
弘
弜
弟
弥
弦
弱
張
強
强
彊
彌
彎
彐
彑
当
彔
录
彖
彗
彡
形
彥
彦
彧
彭
彳
役
彼
往
待
律
徒
得
徙
從
復
微
徵
心
忄
必
忌
忍
志
忝
忠
忩
快
念
忽
忿
思
怠
急
怱
恆
恒
恩
恭
息
悉
患
悤
悲
悶
惠
惡
惢
愁
愈
意
愛
感
慈
慧
慮
憂
憲
應
戀
戈
戉
戊
戋
戌
戍
戎
成
我
戒
戔
或
戚
戠
戢
截
戲
戶
户
戹
戼
戾
房
所
扁
扇
手
扌
才
打
托
执
承
折
拉
拜
拿
掌
推
提
摩
支
攴
攵
收
攸
改
放
政
敄
敏
敕
敖
敗
敝
敞
敢
散
敦
敫
敬
数
敷
數
斂
文
斉
斊
斗
斤
斥
斩
斬
斯
新
方
於
施
斿
旁
旋
族
无
旡
既
旣
日
旦
旧
旨
早
旬
旱
旲
时
旾
昆
昇
昌
昍
明
昏
易
昔
昗
昜
星
春
昬
是
昱
昴
昷
時
晃
晋
晏
普
景
晶
智
暑
暴
曇
曩
曰
曲
曳
更
曷
書
曹
曼
曾
替
最
朁
會
月
有
朋
服
朔
朕
朗
望
朝
木
朩
未
末
本
札
朮
术
朱
朵
朶
朿
杀
杏
杜
束
条
来
東
杲
杳
松
析
林
枚
果
枝
枲
枼
某
柔
查
柬
柰
柴
栗
桀
桑
桼
梁
條
梟
梨
棘
棠
棥
森
楚
業
楽
榮
樂
樊
欠
次
欣
欮
欲
欶
欽
款
歆
歇
歛
止
正
此
步
武
歨
歪
歮
歯
歰
歲
歴
歷
歸
歹
歺
死
殳
段
殷
殸
殹
殺
殻
殿
毋
毌
母
每
毒
比
毕
毚
毛
毳
氏
氐
民
气
氣
水
氵
氶
氷
永
氺
氾
求
汝
汞
江
沃
沓
沙
沝
泉
法
波
泣
泥
泰
洛
洪
活
派
流
浦
浪
浮
淡
淮
清
渚
渠
湯
滿
漸
火
灬
灭
灰
灵
灷
炅
炎
炏
炗
炙
炭
為
烈
烏
烝
焉
無
焦
焱
然
煞
熊
熏
燕
營
燮
爪
爫
爭
爯
爰
爱
爲
爵
父
爻
爽
爾
爿
片
牙
牚
牛
牜
牟
牢
牧
牪
牽
犀
犬
犭
犮
狂
狄
狊
独
狺
猋
猒
猪
献
獻
玄
率
玉
王
玟
玨
珎
班
琴
瑟
瑩
瓜
瓦
甘
甚
生
産
用
甫
甬
田
由
甲
申
电
甶
男
甸
甹
画
甾
畀
界
畏
畐
留
畜
畟
畢
畧
畨
番
畫
異
畱
當
畺
畾
疊
疋
疌
疑
疒
疾
癶
癸
癹
登
發
白
百
皀
皃
的
皆
皇
皋
皐
皕
皮
皷
皿
盃
盆
盇
盈
益
盍
盎
监
盒
盖
盛
盡
監
盤
盧
目
直
相
盾
省
眇
眉
看
眔
眞
真
眷
眼
眾
着
睘
睪
睿
瞏
瞢
瞿
矍
矛
矞
矢
矣
知
矦
短
石
破
碎
磊
磨
示
礻
礼
祟
票
祭
禀
禁
禸
禹
禺
离
禽
禾
禿
秀
秃
秉
秋
科
秝
秦
移
稟
穀
穌
穴
究
穹
空
穿
突
窄
窒
立
竒
竜
竝
竟
章
童
竹
笑
笠
筆
等
答
箕
算
箴
節
篤
篭
米
粉
粛
粟
粤
粦
粲
糞
糸
糹
系
約
納
素
索
紫
累
細
絜
絫
絲
維
綿
縣
繇
纍
纟
缶
网
罒
罔
罕
罗
罙
罡
罢
罪
署
罷
羅
羊
羌
羍
美
羔
羕
羗
羞
羡
羣
群
義
羲
羸
羽
翁
翏
習
翕
翟
翠
翼
老
耂
考
者
耆
而
耎
耑
耒
耳
耴
耶
耷
聂
聊
聖
聚
聶
聿
肀
肃
肅
肉
肖
肙
肥
肩
肯
育
肴
胃
背
胡
胥
能
脊
脩
膚
臣
臤
臧
自
臬
臭
臯
臱
至
致
臺
臼
臽
臾
臿
舀
舂
舄
與
興
舉
舌
舍
舛
舜
舞
舟
般
艮
良
色
艸
艹
艾
芒
芔
芬
芮
花
芳
芺
芻
苔
苗
苟
若
苦
英
茶
茸
荅
草
荒
荣
荼
莆
莧
莫
莽
菆
菊
菐
華
萬
落
葉
著
葛
董
葵
蒙
蒦
蒼
蓋
蓬
蓺
蔑
蔡
蕉
蕭
薄
薛
薦
薰
藍
藏
藥
蘭
虍
虎
虐
虒
虔
處
虖
虗
虘
虚
虛
虜
虞
虫
虽
蚤
蚩
蜀
蜜
蟲
蠡
血
行
衍
衛
衣
衤
表
衮
衰
袁
袞
褭
褱
襄
襾
西
覀
要
覃
見
規
覓
覧
親
覽
见
角
解
言
訁
訇
計
詹
誩
諸
讠
谷
豆
豈
豊
豐
豕
豖
豙
象
豦
豩
豪
豸
貇
貝
貞
貟
負
貢
貧
貪
貫
責
貳
貴
買
費
賁
資
賈
賏
賓
賔
賛
賞
賢
賣
質
賴
贊
贝
贡
责
贯
贲
贵
赖
赞
赤
赦
走
越
足
路
蹇
身
躬
車
軍
軎
軟
輦
车
辛
辜
辟
辥
辰
辱
農
辵
辶
边
达
过
近
连
迷
追
退
送
逆
逐
通
速
造
逢
連
逮
進
遀
遂
過
道
達
遣
適
遷
遺
邊
邑
邕
那
邦
邪
郎
部
郭
都
鄉
酉
酋
配
酓
釆
采
里
重
野
量
金
釒
錢
钅
長
镸
长
門
閃
閉
開
閏
閑
閒
間
閔
閵
閻
闌
门
间
闷
阑
阜
阝
阿
降
陳
隆
隊
隋
隡
隨
隱
隶
隹
隺
隻
隼
隽
难
雀
雁
集
雈
雋
雍
雐
雔
雙
雚
雜
雝
離
難
雨
雩
雪
雲
零
雷
需
霍
霜
霝
霞
霸
靈
靑
青
非
靡
面
靣
革
韋
韦
韭
韯
韱
音
頁
頃
項
須
頗
頡
頻
顛
页
風
风
飛
飞
食
飠
養
饣
首
香
馬
馮
駦
马
骨
高
髟
鬥
鬯
鬲
鬼
魚
魯
鮮
鱼
鲁
鳥
鳳
鸟
鹵
鹿
麃
麗
麥
麦
麻
黃
黄
黍
黎
黑
黒
黨
黹
黽
黾
鼎
鼓
鼠
鼻
齊
齋
齐
齒
齿
龍
龙
龜
龟
龠
龰
龱
龴
龵
龶
龷
龸
龹
者
艹
？
￼
𠀁
𠀃
𠀆
𠀉
𠀎
𠀐
𠁁
𠁣
𠂆
𠂇
𠂈
𠂉
𠂊
𠂋
𠂎
𠂒
𠂔
𠂛
𠂡
𠂢
𠂤
𠂬
𠂭
𠂹
𠃊
𠃋
𠃌
𠃍
𠃎
𠃑
𠃓
𠃔
𠃜
𠄌
𠄎
𠄠
𠄢
𠆢
𠆥
𠇍
𠈌
𠌵
𠓜
𠔉
𠔥
𠔼
𠔽
𠔿
𠕀
𠕁
𠕋
𠘧
𠘨
𠙻
𠙼
𠚏
𠚒
𠚤
𠚪
𠣏
𠤎
𠤕
𠥓
𠦄
𠦑
𠦝
𠧒
𠧗
𠧪
𠩺
𠪚
𠫓
𠫔
𠫤
𠬛
𠬝
𠬞
𠬢
𠬤
𠬶
𠮛
𠮦
𠮷
𠯑
𠱠
𠳮
𠷎
𡈼
𡉀
𡉵
𡌥
𡍮
𡏳
𡕒
𡕩
𡕰
𡖅
𡗗
𡗜
𡘆
𡘤
𡧱
𡨄
𡩧
𡬠
𡭽
𡰣
𡰥
𡰪
𡰯
𡰱
𡷈
𡸁
𡿨
𡿩
𡿪
𡿺
𢀖
𢀛
𢀩
𢁙
𢆉
𢆰
𢆶
𢇁
𢇇
𢉖
𢌬
𢌿
𢏚
𢑑
𢑚
𢖻
𢙣
𢛳
𢦏
𢦒
𢧵
𢼄
𢾕
𣁋
𣄼
𣅀
𣅽
𣍘
𣎳
𣎵
𣏋
𣏼
𣗥
𣥂
𣥖
𣦵
𣦼
𣧄
𣪊
𣪠
𣬉
𣳾
𣶒
𤇾
𤊽
𤐫
𤓰
𤔔
𤕨
𤣩
𤰇
𤰔
𤰞
𤴓
𤴔
𤽄
𥁑
𥁕
𥃦
𥃩
𥃭
𥇡
𥑟
𥘅
𥘈
𥝢
𥫗
𥱡
𦈢
𦉪
𦉬
𦉼
𦍌
𦍒
𦎧
𦐇
𦓔
𦔮
𦘒
𦙃
𦚏
𦣝
𦣞
𦣻
𦥑
𦥔
𦥯
𦨉
𦭝
𦰩
𧆞
𧈧
𧘇
𧰨
𧴪
𧴮
𧵩
𧾷
𨸏
𨾴
𩙿
𩠐
𩫏
𩵋
𪉷
𪜀
𪟽
𪠲
𪩲
𫇦
𫔭
𫜸
𫝀
𫠣
𫠩
𫢉
𫥞
𫩏
𫩠
𫪡
𫲽
𫶧
𬀷
𬐘
𬗌
𬙙
𬛸
𬜯
𬟩
𬯁
𬴘
𬺻
𬼉
𬼖
𭀰
𭁈
𭁨
𭅰
𭑈
𭕄
𭗼
𭤨
𭥫
𭻾
𮅕
𮊿
𮍌
𮍏
𮓗
𮥼
𮧮
廾
𰀁
𰀄
𰀈
𰀉
𰀕
𰀠
𰀡
𰀢
𰀪
𰁜
𰃮
𰆊
𰆘
𰋙
𰕎
𰢴
𰧭
𰯲
01--
04--
06--
10--
11--
12--
13--
14--
15--
16--
17--
18--
20--
26--
28--
29--
30--
36--
6--
87--
88--
89--
92--
93--
a--
aa--
aan--
aape--
aav--
ab--
ad--
ado--
af--
aff--
ag--
ahl--
aje--
akt--
akzepte--
al--
alba--
ald--
alex--
alkali--
all--
am--
amp--
an--
ar--
araab--
art--
as--
at--
atom--
au--
auf--
aujustinus--
aus--
auto--
av--
b--
ba--
be--
bea--
behau--
bei--
bej--
bel--
belg--
bell--
ber--
berar--
berjr--
bern--
bes--
beso--
beze--
beziehu--
bi--
biel--
bill--
bis--
bla--
blanken--
bli--
bo--
boch--
boden--
bos--
bou--
bouw--
br--
bra--
bre--
bree--
bro--
bu--
bundes--
bus--
c--
ca--
carpe--
ch--
cha--
che--
chr--
christ--
cht--
chtni--
ck--
ckt--
cla--
co--
corn--
cre--
cu--
d--
da--
daus--
dd--
de--
deck--
dee--
deel--
dees--
dei--
der--
des--
deut--
di--
dia--
die--
dija--
dis--
do--
doa--
doh--
dom--
doo--
dor--
dou--
dr--
dra--
dre--
driih--
drißß--
dro--
dru--
ds--
dt--
dte--
du--
duis--
dun--
e--
ea--
ed--
ee--
een--
ehe--
ei--
ein--
einz--
ejn--
el--
ele--
em--
en--
end--
eng--
enn--
ens--
ent--
er--
erd--
ere--
ero--
erus--
erve--
erwei--
erz--
es--
ess--
esu--
et--
eu--
eup--
ex--
expe--
f--
fa--
fame--
fami--
fammil--
fastelovenz--
faß--
faßß--
fe--
fel--
feld--
fer--
fess--
ff--
ffent--
fil--
film--
fin--
fir--
fla--
flaaß--
fle--
floch--
fluch--
fo--
fol--
fooß--
for--
fr--
fra--
frangk--
frau--
fre--
frei--
frie--
fro--
fts--
fu--
fuff--
fun--
g--
ga--
gau--
ge--
gebra--
ger--
gesch--
gi--
gil--
go--
gou--
gra--
gu--
h--
ha--
haas--
hachen--
halv--
hand--
har--
hart--
haup--
haupt--
he--
hem--
hen--
her--
herr--
hil--
hin--
hinden--
hl--
hm--
hn--
hnd--
hne--
ho--
hoff--
holz--
houp--
hr--
hs--
ht--
hu--
huh--
hus--
hypothe--
hß--
i--
ie--
ier--
ii--
iise--
ij--
ijn--
il--
im--
in--
indo--
indu--
ins--
inter--
ir--
is--
iso--
it--
iwi--
j--
ja--
jaa--
jaaß--
jan--
jar--
jas--
jaß--
je--
jea--
jebli--
jed--
jedra--
jel--
jeme--
jen--
jeo--
jer--
jesa--
jesamt--
jesch--
jez--
jje--
jl--
jn--
jo--
jod--
joor--
jr--
jraav--
jrieche--
jro--
jrund--
jruß--
jsh--
ju--
jugend--
julijan--
k--
ka--
kaba--
kan--
kapitu--
kara--
kash--
katho--
katto--
kay--
ke--
kee--
ki--
killo--
kir--
kla--
kle--
klo--
klu--
kno--
ko--
koel--
kol--
kom--
komißß--
kongru--
konse--
koof--
kra--
kre--
kri--
kro--
ks--
kt--
ku--
kult--
kultur--
kup--
kurz--
kwa--
l--
la--
land--
landes--
lat--
lde--
le--
ler--
let--
lf--
li--
lie--
lim--
limbu--
lit--
ll--
lle--
ln--
lo--
loo--
ls--
lt--
lu--
lud--
luxem--
ly--
lz--
m--
ma--
maat--
mag--
magda--
mai--
mal--
mar--
mauth--
may--
maze--
me--
med--
meh--
mel--
men--
mer--
met--
mett--
mi--
mie--
miesmu--
mil--
mill--
min--
mir--
mit--
mlu--
mm--
mo--
mon--
moo--
mor--
motter--
mp--
mu--
mulle--
mundart--
mus--
musik--
my--
mze--
n--
na--
nach--
nd--
nder--
nds--
ne--
ned--
nee--
ner--
neu--
nf--
ng--
nge--
nger--
ni--
nie--
nieder--
nk--
nn--
nnd--
no--
noa--
noard--
noh--
nom--
nor--
nord--
ns--
nt--
nu--
nß--
o--
ob--
ober--
om--
on--
onger--
ons--
oo--
oots--
op--
opje--
opp--
or--
orts--
os--
oss--
ost--
ot--
ov--
p--
pa--
pai--
part--
pass--
pe--
per--
pfa--
pfarr--
ph--
phil--
pi--
pikarde--
pl--
pla--
po--
pompe--
pont--
poppe--
portujie--
pou--
pp--
pra--
pre--
premier--
pri--
pro--
protestan--
pu--
pub--
puga--
q--
qua--
quet--
r--
ra--
rad--
radio--
ram--
raum--
ray--
rbe--
rch--
rd--
re--
rea--
rec--
rej--
resch--
revo--
rhein--
ri--
rie--
riis--
rje--
rk--
rko--
rm--
rn--
ro--
rod--
rosen--
rp--
rr--
rre--
rrman--
rs--
rt--
rtes--
ru--
rund--
russ--
ruuse--
rv--
rz--
s--
sa--
salz--
samme--
sch--
scha--
sche--
schine--
schmetter--
schrei--
schri--
schrift--
schwed--
se--
sec--
see--
selb--
sen--
sentante--
ser--
sh--
sht--
si--
sie--
sii--
sj--
slo--
so--
soc--
soo--
sou--
sow--
sp--
spa--
spe--
spez--
spi--
spo--
spre--
ss--
sse--
st--
sta--
stadt--
statt--
ste--
sto--
stra--
stu--
su--
sudet--
super--
suurbro--
sy--
t--
ta--
tan--
te--
tech--
tele--
telefon--
th--
the--
ti--
to--
tos--
tour--
tra--
trans--
trau--
tre--
tri--
tro--
tru--
ts--
tt--
tte--
tu--
turn--
tz--
u--
ue--
uer--
uf--
un--
unger--
ungerschie--
uni--
up--
ur--
us--
uss--
usse--
usste--
uß--
v--
va--
van--
vass--
ve--
ven--
ver--
vermu--
vi--
vle--
vo--
volks--
voll--
vor--
vossball--
vott--
vre--
vreij--
vri--
vu--
vv--
vve--
vver--
w--
wa--
wach--
wand--
war--
wasser--
we--
web--
wech--
weg--
wei--
wel--
welt--
wen--
wer--
wess--
west--
wet--
wi--
wies--
wiki--
wing--
wischt--
wish--
wo--
woa--
woiwod--
wol--
wort--
wu--
x--
xan--
y--
ya--
z--
za--
ze--
zeem--
zem--
zemm--
zentra--
zer--
zil--
zimm--
zo--
zoh--
zoo--
zu--
zumpel--
zwa--
zwe--
zwei--
zz--
ß--
ßt--
ßße--
đ--
ĳ--
ĳn--
ĳsh--
--0
--09
--1
--13
--2
--3
--4
--5
--6
--7
--8
--9
--a
--aa
--ach
--achte
--ad
--ade
--aer
--af
--aff
--ahr
--ahre
--aht
--ain
--ak
--al
--ale
--am
--amt
--an
--and
--ane
--anische
--ant
--ar
--arbeed
--ard
--are
--aria
--art
--ary
--as
--at
--ate
--ath
--atiun
--atz
--au
--ax
--ay
--az
--aße
--b
--ba
--bach
--bahn
--bank
--bare
--bau
--be
--ber
--berg
--bo
--bra
--bro
--bt
--bu
--burg
--c
--ca
--ce
--ch
--chd
--che
--chnet
--cht
--chte
--ci
--ck
--cks
--co
--cy
--d
--da
--daach
--dd
--dde
--de
--del
--der
--do
--dom
--dorf
--ds
--dt
--du
--dung
--dy
--e
--ech
--ed
--ee
--eech
--eerd
--eere
--eet
--ef
--eg
--ei
--ek
--el
--eld
--ele
--ell
--elli
--em
--en
--enk
--ent
--ente
--er
--erd
--erde
--ere
--ers
--ert
--erung
--erunge
--es
--esch
--esche
--ese
--et
--ette
--ev
--eve
--ey
--eße
--f
--fa
--fe
--feld
--ff
--ffd
--ffe
--fia
--fla
--fo
--fra
--freunde
--ft
--fte
--fu
--g
--ga
--ge
--gel
--ger
--gie
--gk
--gke
--gs
--gt
--h
--ha
--halv
--hausen
--hd
--he
--heed
--heet
--heit
--her
--hi
--hl
--hlt
--hn
--ho
--hr
--hs
--ht
--hte
--hu
--huus
--huuß
--hß
--i
--ia
--ian
--ias
--ic
--ich
--ick
--id
--ide
--ider
--idt
--ie
--ied
--iel
--ien
--ient
--ies
--if
--ig
--iht
--ii
--iire
--ije
--ijje
--ijon
--ijt
--ijung
--ik
--il
--in
--ina
--ing
--ino
--inus
--io
--ion
--ionismus
--ip
--ira
--is
--isch
--ische
--ise
--iseet
--ist
--iste
--it
--ita
--its
--ity
--ium
--iun
--iune
--ius
--iv
--ive
--ix
--j
--ja
--jang
--jd
--jde
--je
--jeku
--jer
--ji
--jj
--jl
--jn
--jo
--johr
--joor
--jru
--ju
--k
--ka
--kde
--ke
--keed
--keet
--keete
--kehr
--keite
--ker
--kk
--ko
--kon
--ks
--ksta
--kt
--ktiun
--ku
--l
--la
--land
--lang
--lb
--ld
--le
--len
--ler
--lesch
--lich
--liche
--lijje
--lk
--ll
--lld
--lle
--llt
--lm
--lo
--lt
--lte
--lten
--lu
--ly
--lz
--m
--ma
--man
--mann
--mba
--mbia
--me
--miker
--mm
--mmd
--mme
--mmp
--mo
--mol
--mp
--ms
--mt
--mte
--mu
--n
--na
--nal
--nam
--nce
--nd
--nde
--ndele
--ndlunge
--ne
--nel
--nen
--ner
--nes
--ney
--nft
--ng
--nge
--nh
--nis
--nk
--nke
--nn
--nnd
--nnt
--no
--non
--ns
--nt
--nu
--nung
--ny
--nz
--nze
--nß
--o
--och
--od
--of
--ofe
--oft
--og
--oh
--ohd
--ohße
--ol
--old
--olt
--om
--on
--one
--ong
--ool
--oot
--ope
--or
--ore
--orf
--os
--ot
--ote
--ov
--ow
--owa
--oß
--oße
--p
--pa
--park
--pe
--ph
--pill
--po
--pp
--ppd
--ps
--r
--ra
--ral
--rath
--rbe
--rch
--rd
--rde
--re
--ref
--rei
--rek
--rf
--rhing
--ri
--rin
--rn
--ro
--rr
--rra
--rre
--rs
--rt
--rvu
--ry
--s
--sa
--sas
--sch
--sche
--sde
--sdo
--se
--see
--sel
--sen
--sh
--shoff
--si
--sie
--sion
--sj
--sje
--sjtroas
--sk
--ska
--slu
--son
--ss
--sse
--st
--sta
--stadt
--ste
--sto
--stu
--su
--such
--szitt
--t
--ta
--tal
--te
--tein
--tek
--tell
--ten
--ter
--tet
--th
--thal
--tik
--tin
--tion
--tis
--tiun
--to
--ts
--tt
--tte
--tum
--tur
--tus
--ty
--tz
--u
--ud
--ue
--uer
--uf
--ufe
--ui
--ul
--um
--un
--ung
--unikation
--ur
--us
--use
--usz
--ut
--utbo
--ute
--utt
--uw
--ux
--uß
--v
--va
--vd
--ve
--ver
--verkehr
--vo
--vs
--vu
--vv
--w
--wa
--we
--werk
--wo
--ws
--x
--y
--ya
--yer
--yn
--z
--zd
--ze
--zen
--zick
--zitt
--zja
--zo
--zu
--ß
--ße
--ßt
--ßte
