!
"
#
##0
##1
##10
##11
##12
##13
##14
##15
##16
##17
##18
##19
##2
##20
##21
##22
##23
##24
##25
##26
##27
##28
##29
##3
##30
##31
##32
##33
##34
##35
##36
##37
##38
##39
##4
##40
##41
##42
##43
##44
##45
##46
##47
##48
##49
##5
##50
##51
##52
##53
##54
##55
##56
##57
##58
##59
##6
##60
##61
##62
##63
##64
##65
##66
##67
##68
##69
##7
##70
##71
##72
##73
##74
##75
##76
##77
##78
##79
##8
##80
##81
##82
##83
##84
##85
##86
##87
##88
##89
##9
##90
##91
##92
##93
##94
##95
##96
##97
##98
##99
$
%
&
'
(
)
*
+
,
-
.
/
0
00
000
0000
000000
001
003060530002812
006
01
018
019
02
03
033
04
05
06
07
08
09
1
10
100
1000
10000
101
1011194
10150208384704078
1017
102
103
104
105
106
108
109
11
110
111
112
113
114
116
117
118
119
12
120
122
124
125
126556
13
132
13255025
133018954
134
1345443
135
1370466
138
139
14
140
141
142
1424869
143
144
146
15
150
1500
151
152
157
16
160
1600
164
167
16844
169
17
170
1700
176
177
178
18
180
184
1856
186
1884
1888
1889
1890
1892
1894
1897
1898
1899
19
190
1900
1902
1907
1908
1910
1914
1915
1917
1920
1922
1924
1925
1926
1927
1928
1929
193
1930
1932
1933
1934
1935
1937
1939
1940
1942
1943
1944
1945
1946
1947
1948
1949
1950
1951
1952
1953
1954
1955
1956
1957
1958
1959
196
1960
1961
1962
1963
1964
1965
1966
1967
1968
1969
197
1970
1971
1972
1973
1974
1975
1976
1977
1978
1979
1980
1981
1982
1983
1984
1985
1986
1987
1988
1989
1990
1991
1992
1993
1994
1995
1996
1997
1998
1999
2
20
200
2000
2001
2002
2003
2004
2005
2006
2007
20070702053829
2008
2009
201
2010
2011
2012
2013
2014
20140211135431
20140221213556
20141129075538
20141211112501
20141218163446
2015
20150809022259
201511
2016
20160527141255
201606140086
2017
2018
2019
2020
2021
2022
2023
2025
2026
2030
206
207
208
21
210
211
212
214
218
22
220
2238728
224
23
230
232
239
24
240
241
242
246
2466686
249
25
250
251
2527
255
2558
256
256752076796
256787846995
26
263
2639388
27
274
28
280
282
287
289
29
293
3
30
300
3000
301
31
314964607
32
320
3235304
325
327
33
34
345
348
35
350
356
35690
357
36
360
365
37
38
386
39
4
40
400
41
410
42
43
434746
44
445
446
45
450
459
46
47
48
49
5
50
500
5000
501695
503
51
52
525
529
53
534
5386130
54
55
550
553
56
57
58
59
6
60
600
61
62
63
64
65
650
66
67
68
688334
688342
689364
689842
689844
69
690266
691230
691232
69238
698
7
70
700
71
72
720
73
74
75
751
755941
759
76
768
77
78
785
79
8
80
800
805430
81
812796
82
83
84
85
86
87
88
89
9
90
900
909
91
92
93
94
95
956667
96
97
978
98
99
:
;
<
=
>
?
@
[
\
]
^
_
`
a
aa
aamito
aana
aanya
ab
aba
abaafa
abaagala
abaagalana
abaagalwa
abaagwa
abaakola
abaali
abaalina
abaaliwo
abaalondebwa
abaami
abaamu
abaana
abaasooka
abaatandikawo
abaavu
ababa
ababadde
ababaka
ababalanguzi
ababbi
ababeera
ababi
ababinywera
ababiri
ababisi
ababundabunda
abacholi
abacus
abadde
abaddeko
abaddu
abaddugavu
abaddukanya
abaddusi
abadukanya
abaduumizi
abafa
abafere
abaffe
abafirika
abafirosoofa
abafu
abafumbo
abafuna
abafuzi
abagagga
abagamba
abaganda
abagenda
abagenyi
abagereeki
abagezigezi
abagisu
abagoberezi
abagwere
abagwira
abajaasi
abajja
abajulizi
abakadde
abakapitoola
abakatoliki
abakatuliki
abakazi
abakiise
abako
abakola
abakolera
abakoze
abakozesa
abakozi
abakristaayo
abakugu
abakulembeze
abakulembezze
abakulu
abakungu
abakunukkiriza
abakuumi
abakuza
abakwatibwako
abakwatiddwa
abakyaala
abakyala
abakyali
abala
abalabe
abalabi
abalala
abalambuzi
abalamu
abalamuzi
abalangira
abalangirizi
abalembawaza
abalembewaza
abalenzi
abali
abaliko
abalimi
abalina
abaliwo
abalondebwa
abalongo
abalonzi
abaloodi
abalooma
abalowooza
abalukawo
abalumbiddwa
abalungi
abalunzi
abalwadde
abalwanirizi
abalwanyi
abamaasita
abamanyi
abamataka
abambejja
abaminsane
abamu
abana
abanayuganda
abaneetaba
abanene
abangereza
abangi
abanji
abannamateeka
abannayuganda
abannyonnyofu
abanonooza
abanoonya
abanoonyereza
abanoonyi
abantu
abanyoro
abanywi
abapya
abarooma
abaruumi
abasaabaze
abasajja
abasambi
abasamize
abasangibwa
abasatu
abasawo
abaserafu
abasibe
abasing
abasinga
abasinze
abasiraamu
abasirikale
abasiyazi
abasoba
abasobola
abasoga
abasoma
abasomesa
abasomi
abasooka
abasubuzi
abasukka
abasumba
abasuubuzi
abataano
abataka
abatali
abatalina
abateeberezebwa
abateesa
abateeso
abatemu
abatendeke
abatendesi
abatiini
abato
abatono
abatujju
abatunuulizi
abatutumufu
abatuutsi
abatuuze
abava
abavubi
abavubuka
abavuganya
abawa
abawagizi
abawakanya
abawala
abawandiisi
abawanguzi
abaweereza
abaweesa
abaweesi
abawera
abawerako
abawozi
abawuliriza
abayeekera
abayekera
abayiiya
abayimba
abayimbi
abayimbira
abayindi
abayinza
abayise
abayitibwa
abayivu
abayivuwavu
abayizi
abayizzi
abazaalibwa
abazaalisa
abazadde
abazannyi
abazanyi
abazi
abaziba
abazimbi
abazukulu
abazungu
abazze
abazzi
abazzukulu
abbreviated
abbreviation
abbreviations
abc
abdu
abdul
abe
abedda
abeenyigira
abeera
abeerako
abeeramu
abeerera
abeesa
abeetaba
abegayirizi
abemikwano
abenjawulo
abenju
abensangi
aber
aberdeen
abidjan
ability
abim
abiri
abisoboka
able
abo
aboluganda
abonna
aboogera
aboogezi
about
above
abraham
abryanz
absolute
abstract
abstraction
abu
abuli
abulijjo
abulina
abuntu
abuse
abuuza
abwe
ac
academic
academy
accelerate
acceleration
access
accessed
accident
accord
according
accounting
accounts
accra
acen
aceng
achieng
achievements
achiro
acholi
achon
achy
acid
acidity
acids
acronym
acronyms
across
act
acting
action
activation
active
activist
activities
activity
acts
actually
acute
ad
ada
adam
adda
addako
addamu
addayo
adding
addirira
addis
addition
adduka
addukidde
adduse
adeke
adjacent
adjumani
administration
administrative
adome
adong
adopted
adrian
adrisi
aduka
adukidde
aduku
advanced
adventist
adverbial
advisory
advocacy
advocates
adyebo
aeronautics
af
afa
afc
afcon
affairs
affix
affixes
afirika
afr
afri
africa
african
africana
africanews
africans
africas
afrigo
afrika
afrima
afro
afrobeat
afroman
aft
after
aftonbladet
afuba
afubutuka
afudde
afuga
afuluma
afulumiza
afulumizibwa
afulumizza
afulumya
afuna
afune
afunye
afuuka
afuula
afuulibwa
ag
aga
agaakolebwa
agaakula
agaali
agaba
agabala
agabeera
agafuga
agago
again
against
agakola
agakozesebwa
agakugira
agakulukuta
agakwata
agakyakula
agalaga
agali
agalimu
agalina
agamala
agamba
agambibwa
agamu
aganywebwa
agasangibwa
agasinga
agasitula
agasobola
agasoboza
agasobozesa
agasooka
agasukkulumye
agasukuma
agatali
agatambulira
agatawona
agava
agavaamu
agawaggulu
agayinza
agayitibwa
age
ageetagibwa
agegonyola
agency
agenda
agende
agenderera
agenze
agereesa
agetaagisa
agezaako
aggrey
aggya
agirikakya
agnes
ago
agoba
agobeddwa
agoberera
agookya
agricultural
agriculture
agrippinah
agudde
agwa
agya
agyenda
ahead
aheebwa
ahmed
aid
aidoh
aids
aik
aim
aims
air
airport
airtel
aisha
aizawl
ajambo
ajee
ajja
ajjawo
ak
aka
akaaki
akaali
akaaliwo
akaba
akabaga
akabala
akabanga
akabbiro
akabenje
akabi
akabinja
akabondo
akabonero
akabubi
akabuga
akadde
akademi
akadongo
akafuba
akafubo
akafubutuko
akafumito
akafunza
akafuzi
akagaali
akagambo
akagere
akagwa
akajjuluzi
akakadde
akakalaayi
akakalu
akakasa
akakiiko
akakisa
akakodyo
akakola
akakono
akakontanyo
akakulu
akakumirizi
akakunizo
akakuubagano
akakwasaganya
akakwate
akakyo
akalaga
akalala
akalamu
akalazi
akaleeta
akali
akalimu
akalina
akaliwo
akalombolombo
akalulu
akalulwe
akaluubililwa
akamalirizo
akambe
akamu
akamwa
akantu
akanyego
akanyigirizi
akapiira
akapya
akasaana
akasana
akasannyalazo
akaseera
akasekese
akaserengeto
akasirikitu
akaso
akasoboka
akasolya
akasookeso
akasozi
akasunsula
akatabo
akataffaali
akatale
akatambi
akatasattululwa
akati
akatimba
akatini
akatinniinya
akatoffaali
akatoffaalikazimbakintu
akatoffaalo
akatonniinya
akatonnyeze
akatono
akatundu
akatunniinya
akatyabaga
akavannyuma
akavunaanyizibwa
akawaayiro
akawago
akawakatirwa
akawanga
akawango
akawoowo
akawuka
akawumbi
akawungeezi
akayiika
akayimba
akayingo
akayinja
akayitibwa
akaziba
akaziizi
akazimba
akazito
akazitoya
akello
akena
akendo
aketaagisa
akeyeeyo
akii
akiikiridde
akiikirira
akikola
akimanyi
akirabye
akitegeererawo
akizuula
akkikirira
akkiriza
akkirizibwa
ako
akola
akolagana
akolamu
akolebwa
akolera
akolola
akoma
akomawo
akomekkereza
akomyewo
akoze
akozeeko
akozesa
akozesebwa
akozesezza
akuba
akubiddwa
akubiri
akubuuza
akugamba
akula
akulabyeko
akulembedde
akulembera
akulengeza
akulira
akusomooza
akutte
akuuma
akuyambe
akuze
akuzibwa
akwasaganya
akwata
akwatagana
akwatayo
akwatibwa
akwatiddwa
akwatira
akyali
akyasinze
akyekenneenya
akyo
akyuka
akyusa
akyusibwa
al
alaba
alabe
alabibwa
alabika
alabikira
alabirira
alabye
alaga
alagibwa
alagira
alambika
alambulula
alangirira
alaso
alayira
albania
albanian
albert
albion
album
alebtong
aleetera
aleka
aleme
alemu
alemwa
alex
alexander
alfonse
alfred
algebra
algeria
ali
alice
aligebbula
aligebula
alike
aliko
alima
alimu
alina
alinamu
alinga
alinnya
alipoota
alive
aliwa
aliwo
alizaati
aljazeera
all
allafrica
allan
allen
allergy
alliance
allimadi
allium
allsvenskan
almost
alondebwa
alondeddwa
alone
alowooza
alowozaako
aloysius
alpha
also
altitude
alubaamu
alufa
alumba
aluminiyaamu
aluminiyamu
alumizibwa
alupo
alwadde
alwana
alwanyisa
alya
alyoka
alyoke
alyooka
am
ama
amaanyi
amaanyikasoboza
amaanyimusikira
amaanyo
amaaso
amaato
amaavu
amabala
amabanga
amabeere
amabibiro
amabidde
amabwa
amadaala
amadiini
amadinda
amadirisa
amaduuka
amafumu
amafuta
amagate
amagatte
amageege
amagezi
amaggi
amaggye
amagi
amagiraasi
amagoba
amagombe
amagombolola
amagugubiro
amagulu
amagumba
amagumu
amagunjufu
amaguzi
amagye
amajaani
amaka
amakadde
amakajja
amakanda
amakata
amakerenda
amakkati
amakolero
amakomera
amakoola
amakubo
amakula
amakulu
amakumi
amakungula
amakusike
amakuumiro
amakyusabuziba
amala
amalagala
amalala
amaliba
amalimiro
amalira
amaliri
amaliriza
amalobo
amaloboozi
amalungi
amalusu
amalwaliro
amama
amambuka
amambulugga
amanda
amanene
amangi
amangu
amani
amannya
amannyi
amannyikiddwa
amannyo
amanya
amanye
amanyi
amanyiddwa
amanyidwa
amanyikiddwa
amanywefu
amapeesa
amasa
amasanda
amasannyalaze
amasannyalze
amasanyalaze
amasasi
amasavu
amasaza
amasekkati
amaserengeta
amasiga
amasimu
amasinzizo
amasitukiro
amasitula
amasoboza
amasobozeso
amasomero
amasomo
amasukuma
amata
amataala
amataba
amatabi
amataffaali
amatale
amateeka
amatendekero
amatereke
amati
amatondo
amatono
amatooke
amatu
amatuufu
amatwale
amavuunike
amawanga
amaweto
amawuggwe
amawulire
amayembe
amayengo
amayingo
amayinja
amayitirivu
amayonjo
amayumba
amayuuni
amazaale
amazaalibwa
amaze
amazi
amaziga
amazike
amazima
amazina
amazon
amazze
amazzi
amb
ambasada
ambassador
ambition
ameebafu
ameefuga
amefuga
ameka
amekusifu
amelia
amendment
amereka
america
american
amerika
amesimbu
amin
aminasidi
amini
amino
amizannyo
amnesty
amolatar
among
amongi
amooti
amount
amp
ampaire
ampaya
amu
amubuuza
amudat
amugamba
amuria
amuriat
amuru
amusikira
amuwa
amwanga
amya
amyaka
amyuka
an
ana
anaemia
anaka
anakwatira
analysis
ancient
and
anda
andersen
andre
andrew
anga
angela
angeles
angelina
angella
angels
angle
angled
angles
anglican
angola
anguse
ani
animal
animals
animate
anion
anita
anite
anjagala
ankole
anna
anne
annet
annette
anniversary
announced
annual
annyonnyola
anokoolayo
anoonya
anoonyereza
another
ansa
ansi
answers
antagonistic
antakitiika
anthology
anthony
anthrax
anthropology
anti
antibiotics
anwa
any
anya
anyo
anything
anyumirwa
anyumya
anywa
anywe
apac
apart
apea
apollo
apolo
apostolic
appeal
apple
apply
appointed
appointment
appointments
appoints
approximation
apr
april
ar
arab
arabic
arc
archaeology
archbishop
archive
archived
archives
are
area
areas
arena
argentina
argon
argus
arina
aristotle
arithmetic
armando
army
arnold
around
arrange
arrangement
arranging
arrest
arrested
arsenal
art
arthritis
article
articledetails
articles
artificial
artisans
artist
artiste
artistes
artists
arts
artsculture
arua
arusha
aruu
arvs
as
asaana
asaanidde
asaanye
asaba
asalawo
asamba
asanga
asangibwa
asatu
asazeewo
asegedde
asegeera
aseka
asembayo
asengeka
asexual
ashton
asia
asian
asibuka
asidi
asigadde
asigala
asiimibwa
asiimwe
asikira
asima
asimba
asindika
asinga
asingayo
asinze
asinziira
asobola
asobole
asobozesa
asoma
asomera
asomesa
asomesebwa
asooka
asoose
asp
aspirant
aspx
assa
assembly
assistant
associate
associated
association
associations
astronomy
asukkulumye
asuman
asuubira
asuubirwa
at
ataano
atakaluubililwa
atalemererwa
atali
atalina
atamanyi
atambula
atambulira
atandika
atandikawo
atandikira
atandise
atasalako
atasobola
ate
ateeba
ateebera
ateeberezebwa
ateebye
ateeka
ateekawo
ateekebwa
ateekwa
ateesa
ategeera
ategeeza
ategeka
ategekebwa
atekawo
atema
atendeka
atendekebwa
atera
athens
athlete
athletes
athletic
athletics
ati
atikkirwa
atim
atlantic
atm
atmosphere
atmospheres
atmospheric
atom
atomic
atoms
atomu
atondeka
atondekawo
atongoza
attaka
atte
attract
attraction
atudde
atukwasa
atulugunyizibwa
atunda
atunula
atunuulira
atuuka
atuula
atuumibwa
atuuse
atwala
atwalibwa
atwine
atwoma
atya
atyo
au
aucho
audio
aug
august
auma
aumas
aunt
aurum
australia
austria
austrian
author
authorised
authority
authorized
auto
automatic
autotrophic
ava
avaamu
avenue
average
aviirako
avudde
avuganya
avunaanibwa
avunaanyizibwa
avunanyizibwa
aw
awa
awaadi
awaba
awagamba
awagira
awaka
awakanya
awalala
awali
awamu
awandiika
awandiise
awangudde
awanguddwa
awangula
awangulwa
awansi
awantu
award
awarded
awards
awasa
awataali
awatali
awatuufu
awava
away
awe
aweebwa
aweereza
aweerezza
aweerezzaako
aweesa
awereza
aweza
awezezza
awo
awori
awulira
awuliriza
axis
axle
ay
ayagadde
ayagala
ayali
ayamba
ayambako
ayambibwako
ayani
ayawula
ayesa
ayi
ayidologiya
ayidologyeni
ayiekoh
ayiga
ayimba
ayimbibwa
ayimbidde
ayimbira
ayimbye
ayingira
ayinza
ayise
ayisi
ayita
ayitamu
ayiti
ayitibwa
ayo
ayodiini
ayogera
ayogerako
ayogerwako
ayogeza
ayongera
ayoo
ayoola
azaala
azaalibwa
azaaliddwa
azadde
azadirachta
azam
azannya
azannye
azannyidde
azannyira
azawi
aziikibwa
azimba
azimbibwa
azion
azira
aziz
azze
b
ba
baabanga
baabwe
baafa
baafulumya
baafuna
baagaana
baagala
baagamba
baagenda
baako
baakola
baakolanga
baakuba
baakwatibwa
baakyo
baala
baalaba
baalaga
baali
baalina
baalinga
baalondebwa
baalowoozanga
baalukuba
baami
baana
baanka
baasaba
baasala
baasalawo
baasobola
baasooka
baatambula
baatandika
baatandikawo
baategeeza
baatuuka
baatwala
baava
baavu
baawangula
baawe
baayawukana
baayimba
baayita
baayo
baayongera
baazaala
baazuula
baba
babadde
babaka
babantu
babayita
babeera
babeeranga
babiiha
babinywera
babiri
babirye
babulijjo
babungi
babwe
baby
bachelor
back
bacteria
bad
badda
baddamu
baddayo
baddu
baddugavu
badilisha
bafa
baffe
bafu
bafulumya
bafuna
bafunye
bafuuka
baga
bagabana
bagagga
bagala
bagamba
bagambe
bagambibwa
baganda
bagenda
bagende
bagenyi
bagenze
bagezaako
bagiyita
bagoberera
bags
bagunjufu
bagwa
bahati
bajeti
bajja
bajjajja
bajjajjaffe
bajjira
bakabaka
bakadde
bakagezimunyu
bakakensa
bakazannyirizi
bakazi
bakikola
bakimanyi
bakitiilia
bakitiiria
bakitiiriya
bakitilia
bakitiria
bakitiriya
bakiyita
bakkiririza
bakkiriza
bakola
bakole
bakolera
bakoma
bakoze
bakozesa
bakozi
bakuba
bakubwa
bakugu
bakula
bakulemberwa
bakulembeze
bakulira
bakulu
bakwata
bakwatibwa
bakwatiddwa
bakyala
bakyali
bakyalina
balaba
balaga
balala
balamu
balance
balanced
balancing
balanguza
baleme
balemererwa
balemwa
balenzi
bali
balibu
balima
balimi
balimu
balina
baliteeka
ball
balonda
balondeddwa
balowooza
baltic
balubaale
balujuuju
balunda
balungi
baluyita
balwadde
balya
bamaama
bamala
bamalayika
bamanyi
bamaze
bambala
bambi
bameka
bamemba
baminisita
bammemba
bamu
bamulekwa
bamunanika
bamuwa
bamuyita
bamuzalira
ban
bana
banabyabufuzi
banana
banange
banantamegwa
banayuganda
band
banda
bandi
bane
bang
banga
bange
bangi
banguyirwa
banji
bank
banka
banna
bannaabwe
bannabwe
bannabwengula
bannabyabufuzi
bannaffe
bannakalowooleza
bannakibiina
bannamagye
bannamakolero
bannamataka
bannamateeka
bannamawulire
bannange
bannannyini
bannansi
bannantameggwa
bannanyini
bannasayansi
bannayuganda
banne
banno
bannyina
bannyonnyola
bano
banonooza
banoonya
banoonyereza
bantebya
banton
bantu
bantuma
banywa
baptism
baptist
bar
barbara
barcelona
baroka
bart
baryomunsi
basaaya
basaba
basajja
basajjassubi
basalawo
basale
basalirwa
basanga
basangibwa
basanze
basatu
basawo
base
based
basekalowooleza
bases
basibe
basic
basiga
basigala
basikirize
basil
basinga
basinza
basinziira
basis
basitakange
basketball
baskin
basobola
basobole
basoma
basomesa
basomye
basooka
bass
bassa
bassekabaka
bassekalowooleza
bassitakange
basudde
bat
bataano
bataka
batambula
batandika
batandikawo
batandise
bataringaya
bateeka
bategeeza
batendekebwa
batendesi
batera
bato
batono
batta
battery
battibwa
battle
battunka
batuuka
batuula
batuuse
batya
batyo
bava
baviirako
bavubuka
bavuganya
bawa
bawagira
bawagizi
bawakanya
bawala
bawamba
bawandiika
bawandiisi
bawangula
bawangulwa
bawe
baweebwa
bawona
bawulira
bawuliriza
bay
bayamba
bayambibwako
bayeekera
bayekera
bayibuli
bayiga
bayigga
bayigirize
bayigirizibwanga
bayimba
bayimbi
bayimbira
bayingira
bayinza
bayita
bayitibwa
bayizi
bayo
bayuda
baza
bazaala
bazaalibwa
bazadde
bazannya
bazannyi
bazimba
bazira
bazungu
bazze
bazzukulu
bb
bba
bbaala
bbaasi
bbaatule
bbaawe
bbago
bbakitiiriya
bbakitiria
bbakitiriya
bbali
bbaluuni
bbandi
bbanga
bbanguliro
bbanja
bbanka
bbata
bbc
bbe
bbebi
bbeeyi
bbi
bbiri
bbirokisayidi
bbo
bbogoya
bbomu
bbongo
bboodi
bbosa
bbowa
bbugumu
bbula
bbulangiti
bbulooka
bbululu
bbwa
bbwo
bbyo
bc
bd
be
bearing
bearings
beast
beat
beatrice
beats
beauty
bebe
bebona
became
because
become
becomes
becquerel
bed
beebuuza
beegatta
been
beene
beenie
beera
beesa
beetaaga
beeyambisa
beeyongera
bef
before
begumisa
behavior
behaviour
behind
beijing
being
belarus
belgium
belgrade
believe
bell
bella
bellagambi
below
bemba
ben
benda
bendera
beneath
benedicto
bengal
benjamin
bennyini
benon
berlin
bernard
besigye
best
bet
beta
betaaga
bethlehem
beti
better
betty
between
beyambisa
beyond
bi
biba
bibaamu
bibaawo
bibajje
bibala
bibbiri
bibeera
bibeerawo
bibiina
bibinja
bibira
bibiri
bibisi
bible
bibuga
bibulungulo
bibumbe
bibuuka
bibuuzo
bicycle
bidandi
bidduka
bidvest
bifa
bifaanagana
bifaanagavu
bifaananyi
bifo
bifulumizibwa
bifulumya
bifuna
bifuuka
bifuula
bifuulibwa
big
bigambibwa
bigambo
bigambululo
bigenda
bigendana
bigende
bigendererwa
bigeraageranye
bigere
bigeye
bigezo
biggest
bigoberero
bigombe
bigwa
bijaguzo
bijja
bijjibwa
bika
bikalimagezi
bikendeera
biki
bikira
bikka
bikkako
bikola
bikolamu
bikole
bikolebwa
bikolebwamu
bikolrwa
bikolwa
bikontana
bikoola
bikozesa
bikozesebwa
bikujjuko
bikujuko
bikula
bikulu
bikulukusi
bikumi
bikunizo
bikwata
bikwatagana
bikyuka
bilamu
bili
bill
billboard
billion
bimala
bimeka
bimera
bimu
bina
binaabiro
binaisa
binary
binding
binene
bingi
binji
binnalinnya
binno
binnyonnyozo
bino
binomial
bintu
binyonyi
binywa
bio
biodiversity
biography
biological
biology
biomass
biome
biomes
biosphere
bipango
bipimo
bipooli
birabika
biraga
biragiro
birala
biramu
birandizo
bird
birds
bire
bireeta
bireetamaanyi
bireetera
bireme
biri
biriiriddwa
biriisa
birimba
birime
birimu
birina
birmingham
biro
birowoozo
birth
birthday
birungi
birungo
biruubirirwa
birwadde
birya
bisaakaate
bisale
bisangibwa
bisanja
bisatu
biseera
bisenge
bishop
bisigala
bisigalira
bisinga
bisinziira
bisobola
bisobole
bisolo
bisonjozo
bissau
bitaano
bitabo
bitalaze
bitali
bitambula
bitanda
bitandika
bitandise
biteeka
biteekebwa
bitegeeza
bitera
biti
bitiibwa
bitomeggero
bitonde
bitondekamaanyi
bitongole
bitono
bitooke
bits
bitundu
bitungotungo
bituufu
bituuka
bituuse
bitwalibwa
bitya
bityo
biva
bivaako
bivaamu
biviirako
bivudde
bivuga
bivulu
bivunda
bivvulu
biwa
biwandiiko
biwangaalira
biwangaaliro
biwayi
biwuka
biyamba
biyingiza
biyinza
biyita
biyite
biyitibwa
biyitirivu
biyumba
biz
bizadde
bizibu
bizimbamubiri
bizimbe
bizineensi
bizineesi
bizinensi
bizinga
bizingiramu
bizze
bk
black
blackstarnews
blafrican
blankets
blantyre
blaq
blend
blended
blending
blends
blendword
blight
blizz
blob
block
blocks
blog
blogs
blogspot
blood
blooded
bloomberg
blu
blue
bn
bo
board
boarding
bob
boban
bobby
bobi
boda
bodaboda
bodies
body
bogere
bokka
bomb
bombi
bombo
bond
bonded
bonding
bonds
bongera
boniface
bonna
bonoona
booda
boogera
boogezi
book
books
booksources
boona
born
borrow
borrowed
borussia
bosco
bose
boss
boston
botanical
botany
both
botswana
boundaries
bow
bowel
box
boy
boys
brain
branch
brand
brasil
brazil
bread
break
breakfast
breaking
breaks
breeding
brenda
brian
bride
brief
bright
brighton
bring
brings
britannica
british
bro
broadcast
broadcasting
broja
broken
brother
brothers
brown
brussels
bryan
bs
bsc
bu
bua
buba
bubaamu
bubaka
bubba
bubeera
bubenje
bubi
bubiri
bubirigi
bubondo
bubonero
bubulo
bubwe
budaaki
budadiri
budaka
budde
buddo
buddu
budget
budo
bududa
bufalansa
bufaransa
bufulumya
bufumbo
bufuna
bufunye
bufunze
bufuuka
bufuzi
bugagga
bugala
bugalamivu
bugambibwa
buganda
bugazi
bugema
bugembe
bugenda
bugendana
bugenyi
buggumivu
buggwanjuba
buggya
bugingo
bugiri
bugirimaani
bugisu
bugoloobi
bugumu
bugunjufu
bugwa
bugwanjuba
bugweri
buhweju
buikwe
build
buildcon
building
bujama
bujanjabi
bujja
bujjanjabi
bujjuvu
bujulizi
bukadde
bukakafu
bukedde
bukedea
bukenya
bukiika
bukiikaddyo
bukiikakkono
bukiiko
bukka
bukkakkamu
bukodyo
bukola
bukolebwa
bukoma
bukomansimbi
bukomera
bukontanyo
bukosa
bukoto
bukozesa
bukozesebwa
bukuba
bukugu
bukula
bukulaga
bukulembeze
bukulu
bukunizo
bukunya
bukutte
bukuumi
bukuumibwa
bukwata
bukwo
bukya
bukyaalina
bukyala
bukyali
bukyamu
bukyusa
bul
bulaaya
bulabe
bulabika
bulabirizi
bulaga
bulagibwa
bulago
bulala
bulambuli
bulambulukufu
bulamu
bulbs
buleeta
buleetebwa
buleetera
bulema
bulemeezi
bulemu
buli
buliisa
bulijjo
buliko
bulimi
bulimu
bulina
bulinga
buliri
buliwo
bulls
bulojje
bulombolombo
bulowooza
bulu
buluda
bululu
bulumbaganyi
bulumi
bulungi
bulungibwansi
bulunji
bulwadde
bumala
bumanyirivu
bumaze
bumpimpi
bumu
buna
bunamwaya
bundesliga
bundibugyo
bunene
bungereza
bungi
bungiko
bunji
bunnambiro
bunno
bunnyogovu
buno
buntu
bunyolo
bunyoro
buoyancy
bupaketi
bupoolo
bureau
buried
burkina
burning
burrn
burundi
bus
busa
busajja
busangibwa
busannyalazo
busatu
busawo
busengeke
busengekeddwa
bush
bushenyi
busia
busiiro
busimba
busimu
business
businga
businge
businziira
busiriivu
busirikitu
busiro
busobola
busobozesa
busobozi
busoga
busomesa
busozi
busungu
bususu
busuubuzi
buswavu
buswedi
but
butaano
butabalika
butabo
butaffaali
butagira
butaka
butale
butaleja
butali
butamanya
butambala
butambi
butambula
butandika
butanwa
butebenkevu
butegeevu
butera
butereevu
buti
butida
butini
butinniinya
butiribiri
buto
butoffaali
butonde
butongole
butonniinya
butono
butter
butto
buttonde
buttoned
butuluuki
butundutundu
buturo
butuufu
butwala
butwalibwa
butya
butynski
butyo
buva
buvaamu
buvanjuba
buvuddeko
buvuma
buvunaanyizibwa
buvune
buwandiike
buwang
buwanga
buwangaaliro
buwanganguse
buwanguzi
buwangwa
buwanvo
buwanvu
buwaze
buwaŋŋanguse
buweereza
buwuka
buwule
buwumbi
buyamba
buyambi
buyende
buyindi
buyinza
buyita
buyitibwa
buyitiro
buyonaani
buyonjo
buyungo
buzaale
buziba
buzibu
buzibye
buziizi
buzimba
buzimbe
buzimbibwa
buzingiramu
buzito
buzz
buzze
bw
bwa
bwaali
bwaba
bwabwe
bwabwo
bwabyo
bwaffe
bwagaagavu
bwagazi
bwago
bwaguuga
bwagwo
bwakabaka
bwakalimagezi
bwakatonda
bwako
bwakyo
bwalemala
bwali
bwalyo
bwaminisita
bwammwe
bwanamunigina
bwanda
bwangu
bwanika
bwannamunigina
bwansi
bwapulezidenti
bwasooka
bwatandikira
bwati
bwatuukira
bwatyo
bwavu
bwayo
bwazo
bwe
bweba
bwebaali
bwebulungulule
bwegasse
bwegatta
bwekiba
bwekiri
bwekirina
bwekityo
bwekwasawaza
bwengula
bwenkanya
bwennyini
bwensi
bwenyi
bwenyibungi
bweranyangi
bwereere
bweri
bweru
bwesigwa
bwesonjodde
bwetaaga
bwetaagisa
bwetaavu
bwetengerevu
bweti
bwetoloole
bwetwaze
bweyafa
bweyafuna
bweyali
bweyalina
bweyateeba
bweyava
bweyawangula
bweyazike
bweyogerere
bweyolekera
bweyongera
bwindi
bwino
bwo
bwoba
bwobuggwanjuba
bwoki
bwokka
bwolekero
bwomala
bwombi
bwongo
bwonna
bwoti
by
bya
byaali
byaalo
byabufuzi
byabwe
byabyo
byafaayo
byaffe
byagala
byagenda
byago
byagwo
byagyo
byakolebwanga
byakyo
byali
byalina
byalo
byamalimiro
byamateeka
byanfuna
byange
byangu
byanyima
byawukana
byayo
byazo
bye
byebaali
byebimu
byebulungulo
byegatta
byekuusiza
byemizannyo
byenda
byenfuna
byenjigiriza
byennyanja
byennyini
byensi
byetaaga
byetaagisa
byetaago
byeyali
byeyambisa
byeyambisibwa
byeyolekera
byeyongedde
byeyongera
byo
byobufuna
byobufuzi
byobulamu
byobulimi
byobusuubuzi
byobuwangwa
byogerwa
byokka
byombi
byona
byongedde
byonna
byonsatule
byuma
c
ca
cabinet
caesar
caf
cafe
cake
calcium
calculate
calculation
calculations
california
call
called
calliandra
calories
calothysus
cambridge
came
cameroon
campaign
campaigns
campus
campusbee
campustimesug
can
canada
canary
cancer
candidate
candidates
canvas
capacity
cape
capital
captain
car
carbohydrates
carbon
carbondioxide
card
cardinal
care
career
carlow
carnival
carol
case
cash
cat
catalyst
category
categoryid
cathedral
catherine
catholic
catid
cation
caucus
cause
cayina
cb
cbs
cc
ccr
cd
cdc
ce
cecafa
celeb
celebrations
celebrities
celebrity
celestial
cell
celled
cells
celsius
celtic
center
centered
centers
central
centre
centrifugal
centripetal
century
ceo
cerebrum
ceremony
ceres
cerls
certificate
certification
certified
cfm
ch
cha
chagga
chain
chair
chairperson
chaka
chales
challenge
challenges
chamber
chameleon
chameleone
champion
champions
championship
championships
chan
chance
chandiru
changachirere
change
changes
changing
channel
channelo
chano
chapter
character
characteristic
characteristics
charcoal
charge
charged
charges
charity
charles
charleston
chartered
charts
charz
check
cheese
cheesi
chelangat
chelsea
chemelil
chemical
chemically
chemicals
chemistry
chemonges
chepkirwok
cheptegei
cheptoris
chesang
chess
chicago
chief
chiefs
child
childhood
children
chile
chimpreports
china
chinese
chloroplast
choice
cholera
chris
christ
christian
christiano
christine
christmas
christopher
chromosome
chromosomes
chronic
chtm
chua
church
churches
churchill
chwa
cidy
cinderella
cindy
circa
circle
circles
circuit
circular
circulatory
circumference
cissy
citation
cite
citizen
city
civil
ciyitibwa
cl
claim
claims
clan
clans
class
clause
climate
clinical
clipped
clipping
close
closed
cloud
clouds
club
clubs
cluster
clusters
cm
cn
cnn
co
coach
coal
coalition
coast
coca
cocaine
code
coefficient
coefficients
coffee
cohen
coin
coke
col
cola
cold
coli
collabo
collection
college
colombia
colonel
colonial
colonialism
color
colorado
colour
colours
column
columns
com
combination
combined
combining
combustion
come
comedian
comedy
comes
coming
commander
commentary
comments
commerce
commercial
commission
commissioner
commissions
committee
committees
commodities
common
commons
commonwealth
communications
communion
communities
community
comoros
companies
company
compare
comparisons
compass
competition
competitions
complete
complex
complicated
compliment
component
composite
compound
compounded
compounding
compounds
compression
compute
computer
con
conc
concentration
concept
concepts
concerned
concert
concerts
concrete
condensation
condition
conditions
conductors
cone
confederation
conference
configuration
confirmed
conflict
confuse
congo
congress
connect
connecting
consciousness
conservation
conservative
const
constant
constants
constituency
constituent
constitution
constitutional
construction
consultative
consumption
contact
container
contemporary
content
contenttranslation
contest
continental
continued
continuous
contract
contraction
contradict
contradiction
contradictions
control
convention
conversion
cook
cooking
cool
coordinate
coordinates
coordination
cop
copenhagen
copper
copyright
cord
core
corner
coronation
coronavirus
corporate
corporation
correspond
corresponding
corruption
cosine
cosmas
cosmic
cough
could
coulomb
council
counseling
count
counting
countries
country
county
coup
course
court
covalent
covid
cows
cp
cranes
crankshaft
cream
create
created
creating
creation
creative
credit
crew
cricket
crime
crimes
criminal
criminology
crisis
critical
criticism
crop
crops
cross
crown
crude
crust
cry
crystal
cs
cu
cube
cubic
cultural
culture
cup
current
curve
cut
cutlery
cutting
cwa
cyclones
cylinder
cypher
cyprus
cytoplasm
czech
d
da
daala
daamita
dagala
daily
dakiika
dala
dam
damali
damilola
dan
dance
dancehall
dancing
daniel
danish
dar
dardanelspor
dark
darwin
data
database
date
dates
daudi
daughter
david
davido
davis
dawn
day
dayati
dayilekita
dayirekita
days
db
dbb
dbc
dc
dd
dda
ddaala
ddagala
ddakiika
ddala
ddamu
ddamulira
ddembe
ddene
ddi
ddiguli
ddiini
ddiiro
ddira
ddisitulikiti
ddizero
ddoboozi
ddogo
ddoola
ddunda
ddundiro
ddungi
ddungu
dduyiro
ddwaliro
ddyo
de
dead
deal
death
debate
deborah
debut
dec
decade
decagon
decay
deceased
deceleration
decemba
december
decimal
decimals
declared
decomposition
deductive
dee
deed
deejay
deejays
default
defence
defender
defenders
defense
define
defined
definition
degree
degrees
dem
demand
dembe
democracy
democratic
demokulasiya
demonstration
denimaaka
denis
denmark
dennis
denominator
denotes
dense
density
dental
departed
department
deputy
der
derby
derivation
derivations
derive
derived
derrick
des
desaati
desecration
desemba
design
desire
det
detail
details
developing
development
developmental
diagnosis
diagram
dialectic
dialectical
dialectician
dialectics
diameter
diamond
diana
dictatorship
dictionary
did
die
died
dies
difference
different
difficult
digestion
digestive
digi
digiri
digit
digital
digito
digits
diguli
diini
dijk
dilution
dimension
dimensional
dimensions
dioceses
dioxide
diploma
diplomacy
dipuloma
dipulooma
dir
direct
direction
directions
directly
director
directors
directory
discipline
disciplines
discography
discount
discourse
discussion
disease
diseases
disitansi
disitulikit
disitulikiti
dismissal
disorders
displacement
dist
distance
distancecalculator
distant
distname
distribution
district
distulikiti
diva
dividend
divinity
division
divizoni
divorce
dizero
dj
djs
dk
dna
do
doadoa
doc
docs
doctor
doctors
document
documents
does
doha
doi
doing
dokita
dokolo
dollo
domanovic
domestic
domino
don
done
dont
doodo
doola
dorcus
doreen
dorothy
double
douglas
dove
down
download
dp
dpaper
dpp
dq
dr
draft
drag
drama
drawing
drc
dream
dreamachine
drive
driver
drop
drops
drug
drugs
drum
ds
dstv
dt
du
duality
dubai
dubbed
dudu
due
duet
dundee
dunia
duo
during
dw
dynamics
dynamos
dz
e
ea
eacccp
each
eachamps
eagle
eagles
eagt
eala
early
earn
earth
earthquake
east
eastafrica
eastern
easy
eating
eb
eba
ebaako
ebaali
ebaamu
ebaawo
ebadde
ebaddewo
ebala
ebanga
ebbaggo
ebbago
ebbali
ebbaluwa
ebbanga
ebbango
ebbanguliro
ebbanja
ebbanyi
ebbeeyi
ebbiri
ebbombo
ebbugga
ebbugumu
ebbujje
ebbujjebi
ebbujjenyi
ebbula
ebbulwa
ebbumba
ebeera
ebeeramu
ebeerawo
ebeerera
ebiba
ebibaawo
ebibaddewo
ebibajje
ebibajjo
ebibala
ebibalo
ebibanja
ebibbo
ebibeera
ebibeerawo
ebibi
ebibiina
ebibinja
ebibira
ebibiri
ebibuga
ebibulungulo
ebibumbe
ebibuuka
ebibuuzo
ebibuzo
ebibya
ebibye
ebibyo
ebiddako
ebidduka
ebidomola
ebidukanya
ebifa
ebifaanagana
ebifaanagavu
ebifaananyi
ebifananyi
ebifo
ebifu
ebifundiwazo
ebigambibwa
ebigambo
ebigambululo
ebigazi
ebigenda
ebigendererwa
ebigenge
ebigerageranyo
ebigere
ebigerekere
ebigezo
ebiggwa
ebigimusa
ebigirimu
ebigoberero
ebigobererwa
ebigwa
ebigwawo
ebiibira
ebijanjaalo
ebijiiko
ebijimusa
ebijja
ebijjulo
ebika
ebikadde
ebikajjo
ebikalu
ebikamulo
ebikata
ebikekkereza
ebikemuluzi
ebikko
ebikoba
ebikoggo
ebikola
ebikole
ebikolebwa
ebikoleddwa
ebikoleka
ebikolwa
ebikonde
ebikontana
ebikoola
ebikopo
ebikozesa
ebikozesebwa
ebikozeseddwa
ebikozsebwa
ebikuba
ebikula
ebikulu
ebikulukusi
ebikumi
ebikumito
ebikunizo
ebikusiike
ebikusike
ebikuta
ebikwata
ebikwatagana
ebikwataganyo
ebikwate
ebikwatibwako
ebikyamu
ebikyusaganyo
ebilala
ebilamu
ebili
ebimala
ebimanyiddwa
ebimaze
ebimera
ebimeruko
ebimu
ebimukwatako
ebimuli
ebimwetoolodde
ebina
ebinaddako
ebinene
ebingi
ebinnyonnyozo
ebinogeddwako
ebintu
ebinukuto
ebinyebwa
ebinyeebwa
ebinyonyi
ebinywa
ebipango
ebipapula
ebipimo
ebipooli
ebipya
ebirabika
ebirabo
ebiraga
ebiragala
ebiragalalagala
ebiragiro
ebirala
ebiralala
ebirambulukufu
ebiramu
ebirara
ebirawuli
ebire
ebireeta
ebireetamaanyi
ebireetawo
ebireetendwadde
ebiri
ebiriisa
ebirimba
ebirime
ebirimu
ebirina
ebiringa
ebiriwo
ebirooto
ebirowooza
ebirowoozo
ebirubirirwa
ebiruma
ebirundibwa
ebirungi
ebirungo
ebiruubiriro
ebiruubirirwa
ebirwadde
ebisaakate
ebisaanidde
ebisaaniiko
ebisaanyi
ebisaanyizo
ebisaawe
ebisagazi
ebisago
ebisajja
ebisale
ebisangibwa
ebisangibwamu
ebisanja
ebisannyalazo
ebisanyusa
ebisatu
ebisawo
ebise
ebiseela
ebiseera
ebisenge
ebisengeke
ebisigadde
ebisigalira
ebisigo
ebisinde
ebisinga
ebisingawo
ebisingayo
ebisinziiro
ebisitukiro
ebisiyaga
ebiso
ebisoba
ebisoboka
ebisoboko
ebisobola
ebisobozesa
ebisobyo
ebisoko
ebisolo
ebisonjozo
ebisoobola
ebisooka
ebisookerwako
ebisoro
ebissi
ebisubi
ebisukaali
ebisukka
ebisulo
ebisumuluzo
ebiswa
ebitaano
ebitabo
ebitafaanagana
ebitakwatagana
ebitali
ebitalina
ebitambula
ebitanda
ebitangattiso
ebitasobola
ebiteeka
ebiteeketeeke
ebiteeso
ebitendero
ebitengejjeso
ebitera
ebitereke
ebiti
ebitiibwa
ebito
ebitole
ebitomeggero
ebitonde
ebitondekamaanyi
ebitondekero
ebitondekeso
ebitondeko
ebitone
ebitongole
ebitono
ebitonotono
ebitontome
ebitoogo
ebitooke
ebitukuvu
ebitulazi
ebituli
ebitundibwa
ebitundu
ebitundutundu
ebituufu
ebituukiriro
ebitwalibwa
ebitwetoolodde
ebiva
ebivaamu
ebivu
ebivudde
ebivuga
ebivulu
ebivvulu
ebiwandiike
ebiwandiiko
ebiwangaaliro
ebiwangagano
ebiwawaatiro
ebiwayi
ebiwempe
ebiwera
ebiwerako
ebiwojjolo
ebiwonvu
ebiwuka
ebiwundu
ebiwuzi
ebiyamba
ebiyigiriza
ebiyiiye
ebiyinza
ebiyiriro
ebiyita
ebiyitibwa
ebiyonsa
ebizadde
ebizannyisibwa
ebizibu
ebizigo
ebiziizite
ebizimba
ebizimbamubiri
ebizimbe
ebizimbibwa
ebizinga
ebizito
ebiziziite
ebizungirizi
ebola
ebonies
ebugaana
ebuguma
ebugwanjuba
ebula
ebulaaya
ebuvanjuba
ebuvuma
ebuziba
ebweeru
ebweru
eby
ebya
ebyaali
ebyabwe
ebyafaayo
ebyaffuta
ebyagi
ebyakiragala
ebyakolebwa
ebyakozesebwanga
ebyali
ebyaliwo
ebyalo
ebyamaanyi
ebyamagezi
ebyamaguzi
ebyamalimiro
ebyamasanyu
ebyamateeka
ebyamawulire
ebyambalo
ebyanda
ebyanfuna
ebyangu
ebyasooka
ebyassava
ebyava
ebyawandiikibwa
ebyawukana
ebyayi
ebyayita
ebye
ebyebibira
ebyebulungulo
ebyedda
ebyefuna
ebyekuusa
ebyekuusiza
ebyemala
ebyembi
ebyemikono
ebyemizannyo
ebyempimo
ebyempuliziganya
ebyenda
ebyenfuna
ebyenjawulo
ebyenjigiriza
ebyenkanankana
ebyenkulaakulana
ebyenkulakulana
ebyennyanja
ebyensimbi
ebyenyanja
ebyeru
ebyeso
ebyetaagibwa
ebyetaagisa
ebyetaago
ebyetagisa
ebyetoloola
ebyetoolodde
ebyettaka
ebyettunzi
ebyewole
ebyewunyisa
ebyeyambisibwa
ebyo
ebyobufuna
ebyobufuzi
ebyobugagga
ebyobulambuzi
ebyobulamu
ebyobulimi
ebyobunyukufu
ebyobusuubuzi
ebyobutonde
ebyobuwangwa
ebyobuyonjo
ebyobuziba
ebyobuzimbe
ebyogerwa
ebyokukola
ebyokulabirako
ebyokulonda
ebyokulwanyisa
ebyokulya
ebyokunywa
ebyokuyimba
ebyokwerinda
ebyokya
ebyolesezo
ebyolubogwe
ebyongera
ebyoto
ebyoya
ebyuma
ec
ecikulu
eco
ecological
ecology
economic
economics
economist
economy
ecoplastile
ecosystems
ecweru
ed
edagala
edakiika
edda
eddaala
eddagala
eddakiika
eddako
eddala
eddalu
eddamu
eddamuzi
eddembe
eddene
eddiba
eddiini
eddiiro
eddimiro
eddini
eddirira
eddobo
eddoboozi
eddogo
eddongooserezo
edduka
eddundiro
eddungi
eddungu
edduuka
eddwaliro
eddy
edge
edith
edition
editor
editorial
eds
edu
education
educational
edward
edwin
ee
eese
ef
efaanana
effect
effort
efforts
effujjo
effumbe
effutwa
efl
efuga
efugibwa
efulumya
efuna
efunye
efuuka
efuulibwa
efuuse
eg
egamba
egambibwa
egatta
egattibwako
egenda
egendana
egenze
egezaako
eggaali
eggabo
eggandaalo
eggereeso
eggi
eggimu
eggobansonga
eggolokofu
eggombolola
eggonjebwa
eggulire
eggulu
eggumba
eggwanga
eggwanvu
eggye
egiba
egigenda
egigendana
egijja
egikola
egikolebwa
egikozesebwa
egimu
egiri
egirina
egisembyeyo
egisinga
egisoba
egisooka
egisookerwako
egisukka
egisukkulumye
egitali
egitasanyawo
egiva
egiwera
egiwerako
egiyinza
egiyise
egiyitibwa
egoberera
eguzannyira
egwa
egwanga
egy
egya
egyaddako
egyaddirira
egyali
egyasembayo
egyasooka
egye
egyekuusiza
egyenjawulo
egyenkanankana
egyetaagisa
egyo
eh
ehi
eight
einstein
ejawulo
ejazzug
ejja
ejjambiya
ejjawo
ejje
ejjengerero
ejjengo
ejjiiko
ejjinja
ejjirikiti
ejjobyo
ejulirwamu
ek
eka
ekendeeza
eki
ekiba
ekibaawo
ekibadde
ekibaddewo
ekibala
ekibalangalo
ekibalangulo
ekibalanguzo
ekibalirizo
ekibalo
ekibanduso
ekibangirizi
ekibangirizo
ekibanja
ekibaririzo
ekibazamukisa
ekibazo
ekibbina
ekibeera
ekibeerawo
ekibi
ekibiina
ekibiinja
ekibina
ekibinja
ekibira
ekibogwe
ekibonerezo
ekibuga
ekibulimu
ekibulukusi
ekibulungulo
ekibumba
ekibumbe
ekibumbulukuko
ekibuno
ekibuuzo
ekidaandali
ekidandali
ekidda
ekiddako
ekiddamaaso
ekiddamunda
ekiddannyuma
ekiddirira
ekidduka
ekiddukano
ekiddukanya
ekidomola
ekidukanya
ekifaanaganyo
ekifaananyi
ekifaananyo
ekiffo
ekifi
ekifirosoofa
ekifo
ekifu
ekifuba
ekifuga
ekifulumya
ekifulumyakazambi
ekifulumyalubugumu
ekifumba
ekifumbekerayidologyeni
ekifumbekero
ekifumufumu
ekifundikwa
ekifundiwazo
ekifunza
ekifuuka
ekifuula
ekifuulannenge
ekigaali
ekigabanyo
ekigaji
ekigamba
ekigambo
ekigambululo
ekiganda
ekigata
ekigatta
ekigenda
ekigenderera
ekigendererwa
ekigendo
ekigerageranya
ekigerageranyo
ekigeranyo
ekigere
ekigereese
ekigereeso
ekigerekere
ekigerere
ekigero
ekigewukano
ekiggwa
ekiggwayo
ekigimusa
ekigivaamu
ekigo
ekigobansonga
ekigobensonga
ekigoberero
ekigugubiro
ekigulumiro
ekigumu
ekiibina
ekiikirira
ekijiiko
ekijja
ekijjukizo
ekijjulo
ekijjulungayidologyeni
ekijjulungo
ekika
ekikaawa
ekikaayi
ekikaba
ekikalu
ekikamulabiriisa
ekikazi
ekikeerezi
ekikemiko
ekikisikiriza
ekikisitimula
ekikkatiro
ekikkiriibwa
ekikola
ekikolebwa
ekikolebwako
ekikoleddwa
ekikolimo
ekikolo
ekikoloboze
ekikolwa
ekikomo
ekikono
ekikontana
ekikoola
ekikopo
ekikozesabwongo
ekikozesebwa
ekikuba
ekikube
ekikugu
ekikula
ekikulembero
ekikulemberwa
ekikulira
ekikulu
ekikulukusakazambi
ekikulukusi
ekikulungirivu
ekikulungo
ekikumi
ekikungo
ekikunizo
ekikuta
ekikutuko
ekikuubagano
ekikuuma
ekikuumira
ekikwanaganya
ekikwasaganya
ekikwata
ekikwataganya
ekikwataganyo
ekikyaamu
ekikyamu
ekikyasinze
ekikye
ekikyusa
ekikyusabuziba
ekikyusabuziizi
ekikyusatomu
ekilwadde
ekimala
ekimanyiddwa
ekimanyidwa
ekimeeza
ekimela
ekimera
ekimette
ekimpi
ekimpowooze
ekimu
ekimuli
ekimyansuko
ekimyufu
ekinaana
ekinajja
ekinene
ekingi
ekinnansi
ekinnawansi
ekinnya
ekinnyonnyola
ekinnyonnyolo
ekinnyonnyozo
ekinonoozo
ekinoonyereza
ekintabuli
ekintu
ekinu
ekinya
ekinyaga
ekinyigirizo
ekinyonyi
ekinyukuto
ekinywa
ekipangiso
ekipimabwoki
ekipimampeto
ekipimiso
ekipimo
ekipooli
ekipuluko
ekipya
ekirabampewo
ekirabika
ekirabo
ekiraga
ekiragibwa
ekiragiro
ekirala
ekirambulula
ekiramu
ekirawuli
ekire
ekireekana
ekireeta
ekireetawo
ekireetebwa
ekireetera
ekirembewazi
ekirembewazo
ekiremesandwadde
ekiri
ekiriisa
ekiriko
ekirimba
ekirime
ekirimu
ekirina
ekiripuso
ekiriwo
ekiriza
ekiro
ekiroobe
ekirooma
ekirooto
ekirowoozo
ekirubirirwa
ekirungi
ekirungo
ekiruubiriro
ekiruubirirwa
ekirwadde
ekirwanirira
ekisa
ekisaaganda
ekisaanidde
ekisaawe
ekisajja
ekisalaganya
ekisalaganyo
ekisangibwa
ekisanja
ekisannyalazo
ekisasulo
ekisawo
ekiseela
ekiseera
ekiseetuko
ekiseetulo
ekisembayo
ekisenge
ekisengekakalonda
ekisengeko
ekisiikirize
ekisiisi
ekisikiriza
ekisikirize
ekisinde
ekisinga
ekisingaanibwa
ekisingayo
ekisinze
ekisinziiro
ekisitimula
ekisittale
ekisittalo
ekisobola
ekisobozesa
ekisobyo
ekisoko
ekisolo
ekisonjozo
ekisooka
ekisookerwako
ekisukkulumo
ekisukkulumye
ekisukuma
ekisulo
ekisumuluzo
ekisusse
ekisuubo
ekiswa
ekitaba
ekitabo
ekitali
ekitaliiwo
ekitalo
ekitambo
ekitambula
ekitambulira
ekitambuza
ekitambuzamusaayi
ekitambuzo
ekitandika
ekitangaala
ekitangala
ekitangalijjo
ekitangattisa
ekitasobola
ekitebe
ekiteekeddwako
ekiteeso
ekitegabbugumu
ekitegeeza
ekitegeza
ekitembe
ekitendero
ekitengejjeso
ekitengejjo
ekitera
ekitereke
ekiterekero
ekiteroyiro
ekiti
ekitibwa
ekitiibwa
ekito
ekitole
ekitonde
ekitondeka
ekitondekabirungi
ekitondekamaanyi
ekitondekebwawo
ekitondeko
ekitondowalo
ekitone
ekitongole
ekitono
ekitonto
ekitontome
ekitooke
ekitooli
ekituli
ekitundu
ekituufu
ekituuka
ekitwala
ekiva
ekivaako
ekivaamu
ekivaatiso
ekiviirako
ekivuga
ekivulu
ekivululo
ekivunaanyizibwa
ekivvulu
ekivvuunula
ekivvuunulwa
ekiwakanirwa
ekiwakanya
ekiwandiiko
ekiwanga
ekiwangaaliro
ekiwanvu
ekiwayi
ekiwoomerera
ekiwujjo
ekiwuka
ekiwummulo
ekiwundu
ekiyamba
ekiyayaano
ekiyeekera
ekiyingiza
ekiyingo
ekiyinza
ekiyitibwa
ekiyitiridde
ekiyondo
ekiyumba
ekizaalaggumba
ekizaalibwo
ekizaazi
ekizadde
ekizibu
ekizibuwavu
ekiziiyiza
ekizikiza
ekizimba
ekizimbe
ekizimbulukusa
ekizito
ekiziyisa
ekizungirizi
ekizungu
ekizze
ekka
ekkamiso
ekkamuso
ekkanisa
ekkolero
ekkomera
ekkomo
ekkubo
ekkula
ekkulu
ekkumi
ekkumineemu
ekkuminoolumu
ekkuumiro
ekkyo
eklezia
ekola
ekolamu
ekolebwa
ekoleddwa
ekolera
ekoma
ekomekkereza
ekozesa
ekozesebwa
ekuba
ekubibwa
ekubirizza
ekugamba
ekugira
ekuleetera
ekulemberwa
ekumi
ekuminebiri
ekumineebiri
ekuminoogumu
ekunuukiriza
ekusobozesa
ekuuma
ekuumira
ekuusiza
ekuyamba
ekwaata
ekwasaganya
ekwata
ekwatagana
ekwataganya
ekwetoolodde
eky
ekya
ekyaali
ekyabuluzabuziizi
ekyabwe
ekyaddako
ekyaddirira
ekyafulumizibwa
ekyagaanya
ekyagigerekerwa
ekyakolebwa
ekyaleeta
ekyaleetawo
ekyaleetera
ekyaletera
ekyali
ekyalimu
ekyalina
ekyaliwo
ekyalo
ekyama
ekyambalo
ekyamufuula
ekyamuleetera
ekyamuviirako
ekyamuyamba
ekyangu
ekyanguyirizi
ekyasa
ekyasinga
ekyasooka
ekyatandikibwawo
ekyavaamu
ekyaviirako
ekyavirako
ekyawamu
ekyayitibwa
ekyebongolo
ekyebongozo
ekyebulungulo
ekyeeru
ekyefaananyirizaako
ekyenda
ekyenkana
ekyenkanankana
ekyenkanyi
ekyennyanja
ekyenyanja
ekyerongooserezo
ekyeru
ekyeso
ekyetaagisa
ekyetabwamu
ekyetoloolo
ekyetoloovu
ekyetoloozo
ekyetongodde
ekyettunzi
ekyewolo
ekyewunzifu
ekyewuunyisa
ekyewuunyo
ekyeya
ekyo
ekyobugagga
ekyobulabe
ekyobuwangwa
ekyogerwako
ekyok
ekyokubiri
ekyokulabilako
ekyokulabirako
ekyokulya
ekyokuna
ekyokusatu
ekyomukaaga
ekyomusanvu
ekyongera
ekyoto
ekyuka
ekyuma
ekyusa
ekyusibwa
ekyuuma
el
ela
eleanor
elected
election
elections
electoral
electric
electrical
electricity
electromagnetic
electron
electronic
electrons
element
elementary
elements
eli
elina
elinnya
eliud
eliyitibwa
elizabeth
elle
ellipse
elly
elvis
elwelu
ely
elya
elyo
emabega
emabegako
emagombe
emala
emannyikiddwa
emanyiddwa
emanyikiddwa
emasaka
emaze
embaata
embaawo
embaga
embagirawo
embala
embalaasi
embalama
embalirira
embarara
embassy
embavu
embawo
embaziso
embazzi
embeela
embeera
embeerabantu
embera
embi
embira
embiriizi
embiro
embizi
embizzi
emboga
embogo
embonero
emboozi
embu
embuga
embugaano
embugo
embuto
embuyaga
embuzi
embwa
emeeme
emeka
emenya
emere
emerges
emi
emibalanguzo
emibi
emibiri
emicungwa
emiddo
emifaanagavu
emifumbi
emifunza
emifunze
emifunzo
emigaati
emigabo
emigalamiro
emiganyulo
emigaramiro
emigaso
emigattabantu
emigattiko
emigendaganyo
emigendano
emigendanyo
emigendo
emigerageranyo
emigereko
emigga
emigogo
emigumu
emijja
emikadde
emikeeka
emikisa
emikka
emiko
emikolo
emikono
emikulu
emikutu
emikutule
emikwanaganyo
emikwano
emikwataganyo
emikyungwa
emilimu
emilundi
emimiro
emimwa
eminafu
eminene
emingi
eminwe
eminyira
emipiira
emipya
emiraatira
emirala
emiramnwa
emiramwa
emirandila
emirandira
emirembe
emirimo
emirimu
emiriraano
emiruka
emirundi
emisaala
emisambwa
emisana
emisango
emisengeke
emisengeko
emisimba
emisimbalaala
emisinde
emisingi
emisittale
emisolo
emisomo
emisono
emisoso
emisota
emission
emisumaali
emisuwa
emit
emitala
emitendera
emiti
emitima
emitindo
emito
emitongole
emitonnyeze
emitono
emitonotono
emituba
emituufu
emitwalo
emitwe
emivuyo
emiwendo
emiwuula
emiyembe
emiyitiro
emizannyo
emizanyo
emizigo
emizimu
emiziziko
emizizo
emma
emmamba
emmanduso
emmanuel
emmeeme
emmeeri
emmeeza
emmele
emmere
emmese
emmotoka
emmuli
emmundu
emmunyeenye
emmunyenye
emmwanyi
emmyufu
emmyuufu
emotion
emotional
emotions
emotoka
emp
empaanyi
empagi
empaka
empakiso
empaliririzo
empalirirzo
empaliriza
empalirizo
empande
empandiika
empanguzi
empanvu
empapula
emparirizo
empawa
empeekera
empeera
empeerere
empeerezi
empeewo
empeke
empenda
emperor
empetero
empeto
empewo
empiiga
empiki
empima
empimo
empindi
empire
empisa
empiso
empola
empologoma
empowerment
empty
empugiso
empujjo
empuliziganya
empumumpu
emputtu
empuyi
empya
emu
emundu
emunyenye
emwanyi
emwenkutule
emyaaka
emyaka
emyala
emyeezi
emyeso
emyezi
emyoyo
emyufu
emyuufu
en
ena
enables
enajwulo
enaku
enamba
enambuluzo
encrypts
encyclopedia
end
enda
endaba
endabika
endabiko
endabirira
endabirwamu
endaga
endagaano
endagabiragiro
endagabungi
endagabusangiro
endagabutonde
endagabuzaale
endagabuzimbe
endagabwolekero
endagakifo
endagakintu
endagala
endagaludda
endagamuwendo
endaggu
endagiriro
endala
enddwadde
endegeya
enderema
endiga
endiirwa
endiisa
endingidi
endo
endocrine
endokwa
endongo
endoongo
endowooza
enduli
enduulu
endwadde
endya
enene
energy
enfaanana
enfikkizo
enfikko
enfissi
enfuga
enfulumya
enfumbe
enfuna
enfunda
enfundiwazo
enfunzo
enfuufu
enfuumo
eng
engabi
engabo
engalo
enganda
engato
engattiso
engatto
enge
engeli
engenda
engendo
engere
engerekera
engerekere
engeri
engerikuva
engero
engezeso
engine
engineer
engineering
engineers
engines
england
english
engo
engoberezi
engolokofu
engoma
engoye
engozo
engule
engulu
engumu
enguudo
enguzi
engwira
eniimu
enimiro
enjaga
enjala
enjatula
enjatuza
enjawukana
enjawulo
enjawuzo
enjazi
enjeru
enjigiriza
enjiri
enjobe
enjogera
enjogeza
enjola
enjovu
enju
enjuba
enjuki
enjulu
enjuyi
enjuziso
enkaaga
enkaalamufu
enkadde
enkaka
enkakaso
enkalakkalira
enkalu
enkalubo
enkambi
enkanankana
enkanya
enkazi
enkejje
enketteso
enkiiko
enkiise
enkima
enkinu
enkizi
enkizo
enkoko
enkokoto
enkola
enkolagana
enkoloboze
enkomera
enkomeredde
enkomerero
enkoona
enkota
enkozesa
enkozi
enku
enkuba
enkubisa
enkubise
enkubiso
enkula
enkulaakulana
enkulaakulanya
enkulakulana
enkulu
enkulukuku
enkulukusi
enkulungo
enkuluze
enkumbi
enkumi
enkumu
enkungaana
enkunu
enkusiko
enkutule
enkutulemu
enkuuma
enkuumakifo
enkuumi
enkuyege
enkuza
enkwa
enkwanaganya
enkwanso
enkwaso
enkwasowazo
enkwata
enkwatagana
enkwe
enkya
enkyankalamu
enkyuka
enkyukakyuka
enkyukakyuuka
enkyukwe
enkyusa
enkyusabuziba
enkyusibwo
enkyuso
enna
ennabuzaale
ennabuzimbe
ennaku
ennamba
ennambiso
ennambulukufu
ennambuluzo
ennamu
ennanda
ennanga
ennansi
enneeyisa
ennekulungirivu
ennemu
ennene
ennesimbu
ennetoloovu
enneyisa
ennima
ennimi
ennimilo
ennimiro
ennkulakulana
ennkulakulanna
enno
ennongoosereza
ennono
ennukuta
ennume
ennungi
ennya
ennyaanya
ennyama
ennyambala
ennyangu
ennyanguyirizi
ennyanja
ennyanya
ennyiba
ennyiike
ennyimba
ennyimbe
ennyimpi
ennyindo
ennyingi
ennyingiza
ennyingo
ennyini
ennyinyonnyola
ennyiriri
ennyo
ennyogoga
ennyondo
ennyonnyi
ennyonnyola
ennyonta
ennyonyi
ennyukuta
ennyumba
ennyunyunsi
eno
ensa
ensaalu
ensaalwa
ensaano
ensaasaana
ensaasaanya
ensajja
ensala
ensalo
ensalosalo
ensambaggere
ensangi
ensanjabavu
ensansa
ensanvu
ensasi
ensawo
ensaziso
ensegekera
enseke
ensekkati
ensengeka
ensengekela
ensengekera
ensenke
ensenserwo
ensero
ensi
ensibiriro
ensibo
ensibuko
ensibukula
ensibukuva
ensigo
ensiimbi
ensiisira
ensika
ensikirano
ensikirizo
ensikiso
ensiko
ensikrizo
ensilifu
ensimba
ensimbi
ensimbu
ensindiikirizo
ensindikano
ensindikirizo
ensinga
ensingo
ensiri
ensirifu
ensiringanyi
ensittalo
ensobi
ensoboza
ensobozeso
ensoggo
ensolo
ensoma
ensonda
ensonga
ensonjola
ensooko
ensozi
ensugga
ensujju
ensukkulumu
ensuku
ensukulumu
ensukuma
ensulike
ensulo
ensumbi
ensusu
ensusuuba
ensuubo
ensuusuuba
ensuwa
enswa
ent
enta
entababimera
entababiramu
entababutonde
entababuvo
entababuvobwawamu
entabaganya
entabaganyabantu
entabaganyi
entabaganyo
entabamuliro
entabiro
entabwe
entagenda
entakoma
entakyuka
entakyuuka
entalo
entamanyika
entambi
entambula
entambuza
entandikwa
entangawuzi
entaseesa
ente
entebbe
entebe
entebenta
entebentuka
enteekateeka
enteeketeeke
enteeseganya
entegeka
entegere
entekateeka
entengejjeso
entereka
entertainment
entiisa
entikko
entiko
entire
ento
entobazi
entobo
entolontoka
entoloovu
entomology
entondeka
entondo
entongole
entongooli
entono
entonotono
entrepreneurs
entry
entula
entunduwaze
entunnunsi
entuufu
entuumo
entuuyo
enungi
enva
envannyuma
enviiri
environment
environmental
envunza
enyanja
enyanjula
enyimba
enyindo
enyingi
enyingo
enyo
enyonyi
enyukuta
enyumba
enz
enzaalilanwa
enzaaliranwa
enzaalwa
enzannya
enzayimu
enzibu
enzibuwavu
enzigi
enzigumivu
enzijanjaba
enziji
enzijjanjaba
enzijuvu
enzikiriza
enzikiza
enziku
enzimba
enzimbulukusa
enziring
enziringana
enziringanya
enzirugavu
enzirukanya
enzito
enzitoya
enzitoyo
enzizi
enzungu
ep
epeto
epidemiology
epimibwa
epistemology
epl
eponyms
eppaapaali
eppetero
eppeto
eppya
equal
equality
equation
equations
equator
equatorial
equity
equivalent
er
era
erabika
eraga
eragibwa
erakitomagineeti
erakitooni
erambululwa
erected
ereeta
ereetawo
ereetebwa
ereetebwawo
ereetera
erementi
eri
erias
eriba
eribuuza
eric
eriddugavu
erifuga
erigamba
erigema
erigoba
eriiso
erijjanjaba
erik
eriko
erikozesebwa
erikwata
erimanyiddwa
erimu
erina
erinayo
eringa
erinnya
erinya
eripuso
eriri
eririmu
eririna
erisangibwa
erisinga
erisingaanibwa
erisobola
erisoma
erisooka
erisukkulumye
eritali
eritamanyiddwa
eritera
eritta
eriva
eriwagala
eriweweza
eriwo
eriya
eriyamba
eriyinza
eriyitibwa
eriyo
ernest
eron
erosion
error
eruubirira
erwanyisa
ery
erya
eryali
eryanyi
eryato
erycom
eryesimbu
eryetaagisa
eryetongodde
eryetongovu
eryewole
eryeyambisibwa
eryo
es
esaawa
esangibwa
esanjabavu
esatu
esemba
esembayo
esengeka
esi
esibuka
esigala
esika
esikira
esikiriza
esimba
esindika
esindikibwa
esinga
esingaanibwa
esingako
esingamu
esingayo
esinze
esinziira
esira
esobola
esobole
esobozesa
esomanjazi
esomero
esooka
esookerwako
essa
essaawa
essande
essanyu
essasi
essatu
essaza
essengekakalonda
essential
essiga
essikirizo
essikrizo
essimu
essinzizo
essira
essoma
essomabibala
essomabibuuka
essomabibuuzo
essomabidduka
essomabigoberero
essomabikuyege
essomabimera
essomabinyunyunsi
essomabiragala
essomabiramu
essomabirowoozo
essomabirungi
essomabirwadde
essomabisigalira
essomabisolo
essomabisonjozo
essomabitendero
essomabiti
essomabiwuka
essomabiwundu
essomabubonero
essomabudde
essomabujjanjabi
essomabulamu
essomabulamubugwira
essomabulwadde
essomabusangiro
essomabusawo
essomabutaffaali
essomabutonde
essomabutonzi
essomabuyambi
essomabuzaale
essomabuziba
essomabuziizi
essomabuzimba
essomabuzimbe
essomabwengula
essomabyabufuzi
essomaddagala
essomakalonda
essomakifulumyakazambi
essomakikulukusakazambi
essomakitamuuluzo
essomakizaalibwo
essomakkulukuta
essomakubaawo
essomakubala
essomakulongoosa
essomakumanya
essomakyekebejjampuku
essomamakulu
essomamalagala
essomamaloboozi
essomamiddo
essomamigendogyakitangaala
essomamisango
essomampetosatu
essomampima
essomampimo
essomampisa
essomampuyisatu
essomamusisiwazansi
essomamwezi
essomandwadde
essomandya
essomankatoni
essomankula
essomankulunjuba
essomannimi
essomansengeka
essomansi
essomansolo
essomansolomuntu
essomansozi
essomantabaganyi
essomapuyisatu
essomasekaloopera
essomasitukamunviiri
essomatulo
essomero
essomesezo
essomeso
essomo
essowaani
essubi
essununa
essuubi
essuula
esteem
esther
esthetics
estimate
estimation
estonia
esukuma
esuubi
et
etaaga
etaagisa
etaali
etaano
etaba
etalabika
etali
etambula
etambulira
etambuza
etandika
etaputa
etasobola
etc
eteeka
eteekawo
eteekebwa
eteekeddwa
eteekwa
etega
etegeerekeka
etegeeza
etendekero
etera
ethics
ethiopia
ethiopian
eti
etondekawo
etondekebwawo
etongodde
etonnya
etooke
ettaala
ettaano
ettabi
ettaka
ettala
ettale
ettalo
ettamiiro
ettamiro
ettano
etteeka
etteka
ettendekero
etterekero
ettoffaali
ettoloovu
ettondo
ettono
ettooke
ettu
ettundutundu
ettunka
ettutumu
ettwale
etudde
etutumu
etuuka
etuuse
etuuza
etuwa
etwala
etwalibwa
etwaliramu
etya
etymological
etymologically
etymologies
etymologisation
etymology
etyo
eu
eugene
eukaryotes
eulogized
eur
euro
europa
europe
european
eva
evaako
evaamu
evans
evaporate
evaporation
evelyn
even
event
eventid
events
ever
everton
every
everything
eviira
eviirako
evolution
evudde
evuddewo
evvu
ew
ewa
ewaabwe
ewaka
ewala
ewali
ewaliriza
ewandiikiddwa
ewanga
ewangula
ewaniridde
ewanirira
ewantu
ewatali
ewedde
eweereza
eweza
ewuwe
ex
example
examples
exchange
exclusive
excretion
executive
exercise
exile
existence
existing
exodus
experience
experiences
expertise
explain
exploitation
exponent
exponentiation
exponents
exposure
express
expression
extended
extension
external
extra
ey
eya
eyaabwe
eyababinywera
eyaddako
eyafa
eyafuga
eyafulumizibwa
eyafuna
eyafuuka
eyagaana
eyagala
eyagenda
eyajja
eyaka
eyakola
eyakolebwa
eyakwatibwa
eyaleeta
eyali
eyaliko
eyalimu
eyalina
eyaliwo
eyalondebwa
eyamala
eyamatenkane
eyamba
eyambisibwa
eyambuka
eyamuli
eyannamaddala
eyasinga
eyasooka
eyasookera
eyatandikawo
eyatonda
eyatulwa
eyatuumibwa
eyava
eyavumbula
eyawaggulu
eyawakati
eyawamu
eyawangula
eyaweebwa
eyaweereza
eyaweerezaako
eyawukana
eyawummula
eyayimba
eyazaalibwa
eyazalibwa
eyazannya
eyazannyira
eye
eyebulungudde
eyebuuzibwako
eyedda
eyeebuuzibwako
eyefumiitiriza
eyegatta
eyemalirira
eyennyise
eyes
eyetaaga
eyetaagisa
eyewaggula
eyimiridde
eyingiza
eyinza
eyita
eyitibwa
eyiye
eyo
eyogera
eyogerwako
eyokubiri
eyokulegako
eyokusatu
eyokya
eyomulembe
eyongera
eyookubiri
eyookuna
eyookusatu
eyoomukaaga
eyoomwenda
ez
eza
ezaakolebwa
ezaakula
ezaali
ezaaliwo
ezaasooka
ezannya
ezannyira
ezasooka
ezawulayawula
ezeekuusa
ezeemala
ezekeeri
ezekiel
ezenjawulo
ezenkanankana
ezennyama
ezerambulula
ezetaagisa
eziba
ezibaddewo
ezibala
ezibeera
ezibeerawo
ezibika
eziddako
eziddirira
ezifaanagana
ezifuga
ezifulumya
ezigenda
ezigendagana
ezigendaggana
ezigwa
eziiyiza
ezijja
ezijjawo
ezikekkereza
ezikiikirira
ezikkiririza
ezikola
ezikolebwa
ezikozesebwa
ezikwata
ezikwatagana
ezikyakula
ezikyasinze
ezileeta
ezili
ezimanyiddwa
ezimba
ezimbulukusa
ezimerenguka
ezimu
ezingako
ezingiramu
eziraga
ezireetebwa
ezireetera
ezirekayo
eziri
eziriko
ezirimu
ezirina
eziriwo
eziruka
ezirya
ezisangibwa
ezisembayo
ezisigadde
ezisikira
ezisinga
ezisingayo
ezisoba
ezisobola
ezisobozesa
ezisooka
ezisookerwako
ezisukka
ezitafaanagana
ezitakwatagana
ezitali
ezitaliiko
ezitalina
ezitambuza
ezitasobola
eziteemala
ezitega
ezitera
eziterambulula
ezitondekebwawo
ezitowa
ezitunuuliganye
eziva
eziviira
eziwangaalira
eziwera
eziwerako
eziyinza
eziyitibwa
ezizannyibwa
ezize
ezizimba
ezo
ezra
ezzadde
ezze
eŋŋanda
eŋŋoma
f
fa
faamu
faber
face
facebook
faced
faces
fact
factor
factoring
factorization
factors
factory
facts
faculties
faculty
fahrenheit
failed
faith
fakalita
fakikya
falenayiti
falls
false
fame
fameica
families
family
famire
fan
fans
fanya
fao
far
farm
farmers
farming
farms
farouk
fashion
faso
fast
fat
father
fats
fattest
fauna
favorite
fayinolo
fc
fdc
fe
fear
feat
feature
features
featuring
feb
february
federal
federation
fee
feed
feel
feeling
feesi
feesinnyingi
feeza
felix
fellow
fellows
fellowship
female
feminist
ferrum
fertilization
festival
feud
fever
few
feyenoord
ff
ffe
ffeeza
ffena
ffene
ffenna
ffirimu
ffumbiro
ffuna
ffuuti
fgm
fibres
ficus
fide
field
fields
fifa
fight
fighting
figure
figures
fik
file
fileid
files
filimu
fille
film
films
final
finalists
finally
finals
finance
financial
find
finds
fine
finilandi
finland
fire
firimu
firosofa
firosoofa
first
fish
fishing
fission
five
fixed
fiyeta
fk
flag
flashback
flashugnews
flat
flavia
flex
flight
floods
florence
flow
fluconazole
fluid
fluids
fly
fm
fo
focus
folk
follow
following
follows
fomyula
food
foods
foot
football
footnotes
for
forbes
force
forces
foreign
forest
forestry
forests
form
format
formation
formed
former
forms
formula
fort
forum
forward
fosiferaasi
fossil
fotboll
found
foundation
founder
fountain
four
fourth
fr
fraction
fractions
framework
franc
france
frances
francis
francistown
franco
frank
fred
frederick
free
freedom
french
frequency
fresh
freshwater
friction
friendly
friends
friendship
frisky
from
fromplace
front
ft
fuba
fuel
fuels
fufa
fujjo
fulcrum
full
fumba
fumbiro
fun
funa
function
functions
fund
fundamentalism
fungalcil
fungi
fungus
further
fusion
futi
future
fuuti
fyens
g
ga
gaabwe
gaakyo
gaali
gaalubindi
gaasi
gaayo
gaazo
gaba
gabaamu
gabeera
gabiza
gabizaamu
gabon
gabriel
gabula
gabuzaabuza
gabwe
gabyo
gaddafi
gaetano
gaffe
gafulumizibwa
gafuuka
gafuulibwa
gagenda
gajja
gakekkereza
gakola
gakolebwa
gakoma
gakozesa
gakozesebwa
gakulukuta
gakuweebwa
gakyo
gakyusibwa
gal
galaga
galaxies
galaxy
galaxyfm
gali
galileo
galimu
galina
gallery
galschiot
galschiøt
gama
gamala
gamaze
gamba
game
games
gamma
gamu
gana
ganda
gange
ganja
gano
gapimibwa
garden
gardens
gas
gasangibwa
gases
gasigala
gasinga
gasinziira
gasobola
gasobozesa
gasoliini
gatambula
gatambuza
gatandika
gatera
gaterekebwa
gatonnya
gatonya
gatta
gattako
gatuuka
gauge
gava
gavana
gavi
gavumenti
gay
gayamba
gayaza
gayingizibwa
gayinza
gayita
gayitibwa
gayo
gays
gazette
gcf
ge
gears
gekwatira
gen
genda
gender
general
generally
generate
generation
genero
genes
genetic
genetically
genetics
geneva
genital
genius
geniuses
genkanankana
gennyini
genocide
genre
genres
genus
geoffrey
geofrey
geographical
geography
geology
geometry
george
georgia
gerald
german
germania
germany
gertrude
get
getaagisa
gets
getting
geweetaaga
geyambisibwa
geyongera
gezaako
ggaasi
ggaba
ggama
ggasi
gge
ggi
ggobansonga
ggombolola
ggoolo
ggulaafu
ggulaamu
ggulu
ggulukoosi
ggumba
ggwanga
ggwe
ggwo
ggye
ghafla
ghana
ghetto
ghost
gi
giant
giants
giba
gifted
gigendana
giggwaako
gikola
gikozesebwa
gilbert
gimu
gimukwanira
gino
giosue
giovanni
giraasi
giraga
giri
girimaani
girimane
girimu
girina
girl
girls
gisobola
gisobozesa
gita
gitandika
gitera
giva
give
given
gives
giving
giyamba
giyinza
giyite
giyitibwa
glad
gladys
gland
glands
glanis
glass
global
globefeed
gloria
glowing
glucose
gnl
go
goal
goalkeeper
goals
goats
goberera
god
godfrey
goes
going
gokka
gold
golden
golola
golomola
gomba
gombe
gombi
gombolola
gombya
gomesi
gonja
gonna
good
goodlfye
goodlyfe
goods
googera
google
goolo
goonya
gor
gordon
gorilla
gorillas
gormahia
gospel
got
gov
govern
governance
government
govt
gp
gpdz
gps
grace
grade
graduates
grain
grammar
grammy
gramneae
grand
graph
grasp
grass
gravitational
gravity
great
greatest
greek
green
greenhouse
grey
griffin
groningen
groomed
groove
ground
grounds
group
groups
grow
growth
gu
guardian
guba
gubaako
gubaamu
gubadde
gubeera
gudda
guess
gufuuka
gugatta
gugenda
gugenze
guggwaako
guggwayo
guide
guinea
guitar
gujja
gukka
gukola
gukolebwa
gukozesebwa
gukula
gukuuma
gukyuka
gulaamu
gulabika
gulaga
gulagibwa
gulamu
guleeta
guleetebwa
guleetera
guli
guliko
gulimu
gulina
gulinga
gulinnya
gulu
gumala
gumanyiddwa
gumaze
gumu
gundi
gunno
guno
gunsinze
gunsmith
gunter
gusangibwa
gusembayo
gusibuka
gusigala
gusimbira
gusinga
gusinziira
gusobola
gusobozesa
gusonjolwa
gusooka
gutandika
gutera
guti
gutuuka
gutuukidde
gutuwa
gutyo
guva
guvudde
guyamba
guyinza
guyita
guyitibwa
guzannyibwa
gw
gwa
gwabwe
gwabwo
gwabyo
gwaffe
gwaka
gwakyo
gwali
gwaliwo
gwamunaana
gwamusanvu
gwanga
gwatandika
gwatuukira
gwayo
gwazo
gwe
gwebaali
gwebasinga
gwebayita
gwegumu
gwekkumi
gwekkuminebiri
gwekkumineebiri
gwekkuminogumu
gwekkuminoogumu
gwekuusiza
gwenkana
gwennyini
gwetaaga
gweyali
gweyambisibwa
gweyasooka
gweyongera
gwo
gwokka
gwokubiri
gwokuna
gwokusatu
gwokutaano
gwolubereberye
gwoluberyeberye
gwomukaaga
gwomunaana
gwomusanvu
gwomwenda
gwonna
gy
gya
gyabwe
gyabyo
gyaffe
gyakyo
gyali
gyange
gyawukana
gyayo
gyazo
gye
gyebaali
gyebayita
gyebuvuddeko
gyenkanankana
gyeyafunira
gyeyakolera
gyeyali
gyeyamala
gyeyamalira
gyeyasomera
gyeyatikirwa
gyeyatuulira
gyeyava
gyeyongera
gyo
gyokka
gyombi
gyonna
h
ha
haart
haaya
habitat
habitats
had
hajji
half
halimah
hall
hallucination
ham
hammer
hand
handbook
hands
hanifa
hannington
hannz
hans
happenings
happy
harare
hard
harriet
harvard
harvester
has
hash
hassan
hasule
have
having
he
head
headlines
headquarters
health
healthy
hearing
heart
hearts
heat
heaven
heavenly
heavy
hei
height
heinemann
held
helicopter
helium
helix
hellen
hellena
help
helsinki
hemisphere
hence
henry
hepatitis
heptagon
her
herbert
here
heritage
herman
hernia
hero
heroes
hetero
hexadecimal
hexagon
hft
hi
hibernian
high
hilary
hill
hills
him
hima
hip
hiphop
hipipo
his
historical
history
hit
hitaji
hits
hiv
hma
hn
ho
hochst
hoima
hold
holder
holding
hollywood
holy
home
homeostasis
homepage
homo
homogeneous
homosexuality
hon
hong
honorable
honorary
hop
hope
horizontal
hormones
horse
hospital
hospitals
host
hostel
hosts
hot
hotel
hottest
house
housing
how
however
howwe
howwebiz
htafc
htm
html
htmlamp
http
https
huddersfield
human
humanitarian
humanities
hundred
hungary
hunger
hunter
husband
husbandry
hussein
hydro
hydrocarbons
hydrogen
hydropower
hyperbola
hypotenuse
hypothesis
hz
i
iaaf
iali
ian
ibanda
ibingira
ibrahim
icc
ice
ict
id
ide
idea
ideas
identity
ideology
idi
if
iganga
igg
igwa
ii
iii
illinois
illusion
im
image
imaginary
imagination
imdb
imf
immaculate
immune
immunology
impact
impenetrable
imperial
important
improper
improved
imu
in
inclined
include
included
includes
income
incourt
increase
increasing
independence
independent
index
india
indian
indiana
indica
indicates
individual
indoor
inductive
industrial
industries
industry
inequalities
inequality
inertia
infection
infections
infinite
infinity
info
infobox
information
infrared
ingrid
inhibitors
initiative
injury
inn
inner
innocent
input
insects
inside
inspector
inspectorate
instagram
instinct
instinctive
instincts
institute
institutes
institutions
insulators
insurance
int
integers
intellectual
intellectuals
intelligence
intelligent
inter
interaction
interactions
interest
internal
international
internet
interpretation
intersection
interview
into
intrigue
introduction
intuition
invalid
inverse
inversely
investigator
investment
investments
involuntary
inyumba
inzikuru
ion
ionic
ions
iowa
iq
ireland
irene
iriama
iron
irrational
iryn
is
isaac
isaiah
isbn
ishaka
isingiro
islamic
island
islands
ismaily
iso
isodo
isosceles
isotope
isotopes
israel
issa
ist
it
italy
item
itemid
its
itself
itunes
iucn
iv
ivan
ivory
ix
j
ja
jackie
jackson
jacob
jacobs
jamaica
james
jamila
jan
jane
janeiro
janet
jangu
january
janwali
janzi
japan
javier
jay
jazmine
jazz
jean
jebulijja
jeff
jeje
jemimah
jennifer
jens
jessica
jesus
jet
jim
jimmy
jinja
jjajja
jjajjaffe
jjengo
jjinja
jjukira
jlos
joan
joanita
job
joe
joel
johannesburg
john
johnbosco
join
joined
joining
joins
joint
joints
jonathan
jones
jordan
jose
joseph
josephine
joshua
joule
journal
journalism
journalist
journalists
journey
joy
joyce
jpg
jr
jstor
ju
juba
judge
judges
judicial
judiciary
judith
jul
julayi
juliana
julie
juliet
julius
july
juma
jump
jun
junction
june
juni
junior
jupitor
just
justice
justices
justine
juuko
juventus
k
ka
kaabong
kaabuyonjo
kaadi
kaakano
kaakati
kaali
kaama
kaaya
kaba
kabaamu
kabaga
kabaka
kabalagala
kabale
kabalira
kabareebe
kabarole
kabeera
kabenje
kaberamaido
kabi
kabila
kabineeti
kabinenti
kabinja
kabisi
kabojja
kabokisaidi
kabondo
kabonero
kaboni
kabonibbiri
kabootongo
kabuga
kabugho
kabugo
kabulojje
kabutobuto
kabwokisaidi
kacheche
kadaga
kadde
kaddu
kaddugala
kadongo
kadongokamu
kafeero
kafulu
kafuumuulampawu
kagame
kagera
kagezimunyu
kagga
kaggwa
kagimu
kagina
kagolo
kagumire
kaguta
kagwa
kaijuka
kainembabazi
kainerugaba
kaizer
kakadde
kakalu
kakasa
kakati
kakeeto
kakembo
kakensa
kakiiko
kakkana
kakobe
kakodyo
kakola
kakonge
kakooto
kakooza
kakulu
kakulukusi
kakumiro
kakuyege
kakwate
kakyeka
kakyo
kakyungwa
kalabaalaba
kalabalaba
kalaga
kalagi
kalagibwa
kalala
kalanda
kalangala
kalanzi
kale
kalema
kali
kalidinaali
kaliisoliiso
kalima
kalimagezi
kalimbwe
kalimu
kalina
kalinjola
kaliro
kalisiyaamu
kalisiyamu
kalitunsi
kalonda
kalondomusengeke
kalule
kalulu
kalungi
kalungu
kalusiyaamu
kalusiyamu
kaluuna
kamala
kamalirizo
kamera
kaminsona
kamoga
kampala
kampalapost
kampalasun
kampeyini
kampuni
kamu
kamugo
kamugyisha
kamuli
kamuntu
kamunye
kamuzu
kamwa
kamwaka
kamwenge
kamwokya
kamya
kamyufu
kanaaluzaala
kandida
kandie
kandle
kanene
kanengo
kangole
kani
kanisa
kano
kansa
kansala
kansiime
kantinti
kantu
kanungu
kanyama
kanyigirizi
kanyomozi
kapapaala
kapchorwa
kapendikyula
kapiteeni
kaputeeni
karamoja
karenga
karooro
karugire
karuma
karungi
kasaayi
kasagga
kasaija
kasajja
kasambula
kasana
kasasiro
kaseera
kaserengeto
kasese
kasinga
kasirikitu
kasirye
kasita
kasobola
kasoli
kasooli
kasozi
kasubi
kasule
kasulike
katabo
kataffaali
katakwi
katale
kataleya
katatumba
katebe
kategeeza
katemba
katera
kateregga
kati
katikiro
katikitiki
katikkiro
katini
kato
katoffaali
katolika
katonda
katonga
katongole
katonnyeze
katono
katugambe
katumba
katumwa
katundu
katunguluccumu
katuntu
katureebe
katusiime
katwe
katyabaga
kaudha
kava
kavc
kavubuka
kavuma
kawaali
kawalya
kawanga
kawanvu
kaweefube
kaweesi
kawefube
kaweke
kawempe
kawenja
kawereege
kawo
kawooya
kawowo
kawuka
kawumbi
kawumpuli
kawungeezi
kawunyira
kay
kayanja
kaye
kayiira
kayikuuzi
kayinga
kayingo
kayinza
kayipabola
kayita
kayitibwa
kayizzi
kayo
kayondo
kayongo
kayunga
kazambi
kazannyirizi
kaziba
kazibwe
kazimba
kazinga
kazo
kcc
kcca
kdfl
ke
keane
kebirungi
keeki
keep
keeps
keko
kemi
kemiko
kemisifiiya
ken
kennedy
kenneth
kennyini
kenya
kenyan
kenyatta
kenzo
kenzos
kept
keriyamu
kerunen
key
kfm
kg
khalid
khan
ki
kiba
kibaako
kibaale
kibaamu
kibaawo
kibadde
kibaddemu
kibaddewo
kibala
kibalangulo
kibale
kibalirampuyibbiri
kibalo
kibanja
kibayambe
kibaza
kibazo
kibbo
kibe
kibedi
kibeera
kibeerawo
kibi
kibiina
kibiinja
kibingo
kibinja
kibira
kiboga
kibogwe
kibuga
kibuku
kibulala
kibuli
kibumba
kibumbe
kibuuga
kibuuka
kibuuzo
kibuyaga
kibwankulata
kicks
kid
kidandali
kidda
kiddamaaso
kiddannyuma
kiddanyuma
kidduka
kiddukira
kidepo
kidney
kids
kieran
kifaanana
kifaananyi
kifabakazi
kiffo
kifo
kifuba
kifuga
kifulumya
kifumbekero
kifundiwazo
kifuuka
kifuula
kifuulanenge
kifuulannenge
kifuulannnege
kigaanira
kigaaniremu
kigabanya
kigali
kigamba
kigambibwa
kigambo
kigambululo
kigazi
kigenda
kigendererwa
kigendo
kigerageranyizibwa
kigerageranyo
kigere
kigereeso
kigerekere
kigero
kigezaako
kigezi
kiggala
kiggwayo
kigo
kigozi
kigulu
kigwa
kigya
kiibina
kiira
kiiza
kijja
kijjawo
kijjulo
kijjulungo
kika
kikaayi
kikata
kikekkereza
kikendeeza
kiki
kikka
kikola
kikolebwa
kikolebwamu
kikoleddwa
kikolerwa
kikolo
kikoloboze
kikolwa
kikoma
kikontana
kikoola
kikopo
kikosa
kikozesa
kikozesebwa
kikubiriza
kikugu
kikula
kikulaga
kikuleetera
kikulemberwa
kikulu
kikulukusi
kikumi
kikung
kikungunta
kikunizo
kikusobozesa
kikuubagano
kikuumira
kikuyamba
kikuyambe
kikwata
kikwatako
kikwetaagisa
kikyali
kikyamu
kikyuka
kikyusa
kikyusabuziba
kilaabu
kilabika
kilagala
kilembe
kili
kill
killing
kilo
kilomita
kimala
kimanye
kimanyiddwa
kimaze
kimera
kimpanze
kimpowooze
kimu
kimuli
kimusobozesa
kimuwa
kimuyamba
kimwetaagisa
kimyufu
kin
kinaabiro
kinaana
kind
kindo
kinematics
kinene
kinetic
king
kingdom
kings
kini
kinnakimu
kinnamakulu
kinnawaggulu
kinnawansi
kinno
kinnomu
kinnoomu
kinnya
kinnyonnyola
kinnyonnyolwa
kino
kinonoozo
kinshaba
kintabuli
kintu
kinyonyi
kipapaali
kipchoge
kipepeo
kipima
kipimo
kiplimo
kipoi
kipooli
kipsiro
kipya
kira
kiraabu
kiraasi
kirabika
kirabikira
kirabo
kirabu
kiraga
kiragala
kiragibwa
kirala
kiramu
kire
kireeta
kireetawo
kireetebwa
kireetebwawo
kireetera
kireka
kiremya
kiri
kiriisa
kiriko
kirime
kirimu
kirina
kiringa
kiripuso
kiriwo
kiro
kirobera
kirogulaamu
kiromiita
kiromita
kirowoozebwa
kirowoozo
kiruhura
kirumirampuyibbiri
kirunda
kirungi
kirungo
kiruubiriro
kiruubirirwa
kirwadde
kirya
kiryandongo
kiryowa
kisaaganda
kisaakye
kisaana
kisaanidde
kisaanye
kisaawe
kisangibwa
kisanja
kiseeera
kiseera
kisekka
kisembayo
kisenge
kisigala
kisiisi
kisikiriza
kisima
kisinde
kisindika
kisinga
kisingaanibwa
kisingayo
kisinziira
kisitu
kisoboka
kisobola
kisobozesa
kisobozese
kisoga
kisolo
kisomwa
kisonjolwa
kisooka
kisoro
kisosonkole
kisubi
kisulo
kisuubirwa
kisuule
kitaabwe
kitaawe
kitaba
kitabo
kitagata
kitaka
kitali
kitalya
kitambula
kitambuzo
kitanda
kitandika
kitandikira
kitangaala
kitangattisa
kitante
kitara
kitebe
kiteeberezebwa
kiteeka
kiteekwa
kitega
kitegabbugumu
kitegeeza
kitegeza
kitende
kitendeka
kitendero
kitengejja
kitengejjeso
kitera
kiterekero
kitgum
kiti
kitiibwa
kitinda
kitonde
kitondekamaanyi
kitondekamazzi
kitondekawo
kitondeko
kitongole
kitono
kitooke
kitovu
kituli
kitundu
kitundutundu
kitunga
kituufu
kituuka
kituunzi
kituuse
kituuza
kitwala
kitwalibwa
kitwaliramu
kitwetaagisa
kitya
kityo
kiva
kivaako
kivaamu
kiviirako
kivudde
kivvulu
kivvuunula
kivvuunulwa
kiwa
kiwandiikibwa
kiwandiiko
kiwanuka
kiwanuuzibwa
kiwanvu
kiwayi
kiwedde
kiweebwa
kiweewa
kiwummulo
kiyamba
kiyambako
kiyambi
kiyambye
kiyimba
kiyingi
kiyini
kiyinza
kiyira
kiyita
kiyite
kiyitibwa
kiyumba
kizaala
kizadde
kiziba
kizibu
kizibwe
kizikiza
kizimbe
kizinga
kizingiramu
kizito
kizungu
kizza
kizze
kk
kkaadi
kkala
kkalwe
kkampuni
kkanisa
kkansala
kkekwa
kkiraabu
kkiriza
kkiro
kkiromita
kko
kkolera
kkomera
kkomo
kkono
kkoona
kkooti
kkopa
kkubo
kkumi
kkuumiro
klear
klezia
km
knight
know
knowing
knowledge
known
ko
koboko
kodinentisi
kojja
kokka
kokoolo
kola
kolera
kolesito
kololiini
kololo
koma
komedi
kompyuta
kondakita
kondomu
kong
kongo
konna
kono
konsituwensi
konsityuwensi
konta
kontulakiti
kony
kooki
kookolo
koona
kooti
kopi
kora
koraawards
korea
kosiina
kotido
kozesa
krako
kristo
kristu
ku
kuba
kubaako
kubaali
kubaamu
kubaawo
kubaga
kubala
kubalangula
kubalanguza
kubanga
kubano
kubayamba
kubayimbi
kubaza
kubba
kubeera
kubeerako
kubeerawo
kubikkulirwa
kubira
kubiri
kubo
kuboggola
kubonereza
kubumbulukuka
kubuuka
kubwa
kubwatuka
kubwatuukiriza
kubyoyinza
kudda
kuddako
kuddamu
kuddayo
kuddirira
kudduka
kuddukanya
kudukanya
kufa
kufiirwa
kufuga
kufuluma
kufulumizibwa
kufulumya
kufumba
kufuna
kufuuka
kugaba
kugabiza
kugamba
kugambwako
kuganyulwa
kugatta
kugattika
kugaziya
kugenda
kugerageranya
kugereesa
kugezaako
kugezesebwa
kuggya
kugiwa
kugoba
kugula
kugulu
kugunjula
kujja
kujjanjaba
kujjawo
kuka
kukebera
kukekkereza
kukendeeza
kukizuula
kukka
kukkaatiriza
kukkiriza
kukola
kukolebwa
kukoma
kukontana
kukoppa
kukosa
kukozesa
kukozesebwa
kukuba
kukubaganya
kukubwa
kukula
kukulaakulana
kukulaakulanya
kukulugguka
kukuuma
kukuumira
kukuyamba
kukwasaganya
kukwata
kukwatagana
kukwataganya
kukyala
kukyankalana
kukyuka
kukyusa
kukyusakyusa
kukyusibwa
kulaba
kulabibwa
kulabika
kulabikira
kulabirako
kulabirira
kulaga
kulagibwa
kulambika
kulambulula
kuleeta
kuleetawo
kuleetebwa
kuleetebwawo
kuleetera
kulega
kuli
kuliketi
kuliko
kulima
kulimu
kulina
kuliteeka
kulonda
kulondebwa
kulongoosa
kulowooza
kuluka
kulukalala
kulukalo
kulumbibwa
kulumizibwa
kulunda
kulw
kulwa
kulwala
kulwana
kulwanirira
kulwanyisa
kulya
kumakya
kumala
kumalawo
kumaliriza
kumannyikwa
kumanya
kumanyika
kumi
kumikolo
kumira
kumpi
kumu
kumugamba
kumukolo
kun
kuna
kundagaano
kungeri
kungi
kungu
kungulu
kunjuba
kunkomerero
kunnyonnyoka
kunnyonnyola
kuno
kunoonya
kunoonyereza
kunsonga
kunya
kunyigirizibwa
kunywa
kupya
kusaasaanya
kusaawa
kusaba
kusalawo
kusalira
kusamba
kusamira
kusanga
kusangibwa
kusatu
kuseetuka
kusegeera
kusengeka
kusenserwa
kusiba
kusigala
kusika
kusimba
kusimula
kusindika
kusinga
kusingako
kusinza
kusinziira
kusobola
kusoma
kusomero
kusomesa
kusooka
kusookera
kusosola
kussa
kusukka
kusunsula
kusuro
kusuubirwa
kut
kutaano
kutabagana
kutabula
kutambula
kutambuza
kutandika
kutandikawo
kutandikira
kutangira
kutaputa
kutebenta
kuteeba
kuteeka
kuteekateeka
kuteekawo
kuteekebwa
kuteesa
kutegeera
kutegeka
kutema
kutendeka
kutendekebwa
kutendekero
kutera
kutereka
kutesa
kutonda
kutondawo
kutondeka
kutondekawo
kutondekebwawo
kutonnya
kutono
kutta
kutu
kutulugunya
kutumbula
kutunula
kutunuulira
kutusa
kutuuka
kutuukiriza
kutuula
kutuwa
kutwala
kutwalibwa
kutya
kuuma
kuva
kuvaako
kuvaamu
kuviirako
kuvuganya
kuvumbula
kuvunda
kuwa
kuwaliriza
kuwandiika
kuwandiikibwa
kuwangula
kuwedde
kuweereza
kuwulira
kuwunya
kuyamba
kuyambako
kuyambibwa
kuyiga
kuyigiriza
kuyiiya
kuyimba
kuyingira
kuyingiza
kuyinza
kuyita
kuyitibwa
kuzaala
kuzannya
kuzannyira
kuziiyiza
kuzimba
kuzingiramu
kuziyiza
kuzuula
kuzuulibwa
kuzza
kw
kwa
kwabuluzibwamu
kwabwe
kwaffe
kwagala
kwakolebwa
kwakolebwanga
kwalaga
kwali
kwaliko
kwalimu
kwalinga
kwaliwo
kwata
kwatandika
kwava
kwaviirako
kwawula
kwaya
kwayo
kwe
kwebaka
kwebuuza
kween
kwefumiitiriza
kwefumitiriza
kwegadanga
kwegata
kwegatta
kwegomba
kwegulumiza
kwekalakaasa
kwekebejja
kwekenneenya
kwekennenya
kwekuli
kwekuuma
kwekuusiza
kwekyo
kwennyika
kwennyini
kwenyigira
kwerwanako
kwesa
kwesiga
kwesigama
kwesigamizibwa
kwesigamye
kwesimbawo
kwetaaga
kwetaagisa
kwetaba
kwetemera
kwetoloola
kwetta
kwetya
kwevumbulira
kwewala
kwewola
kweyambisa
kweyambisibwa
kweyolekera
kweyongedde
kweyongera
kwiniini
kwo
kwogera
kwokka
kwokya
kwongera
kwonna
kwossa
ky
kya
kyaagi
kyaali
kyaayi
kyaba
kyabanga
kyabazinga
kyabwe
kyabwo
kyaddala
kyaddondo
kyadondo
kyaffe
kyafulumya
kyagaanya
kyagaba
kyagala
kyaggwe
kyagi
kyagikerekerwa
kyagulanyi
kyajja
kyaka
kyako
kyakola
kyakolebwa
kyakubiri
kyakulabirako
kyakuna
kyakusatu
kyakyo
kyakyu
kyalaba
kyalabye
kyalangirirwa
kyaleetera
kyaletawo
kyali
kyaligonza
kyalimu
kyalina
kyalinga
kyaliwo
kyalo
kyalyo
kyama
kyambadde
kyambogo
kyamiiru
kyamuleetera
kyamuviirako
kyanamukaaka
kyandibadde
kyangaala
kyange
kyangu
kyankwanzi
kyarenga
kyasa
kyasalawo
kyasegedde
kyasinga
kyasooka
kyatandika
kyatandikibwawo
kyatulwa
kyatuuka
kyava
kyaviirako
kyawagulu
kyawangula
kyayamba
kyayi
kyayo
kyayongera
kyazimbibwa
kyazo
kyazuulibwa
kye
kyebaali
kyebamba
kyebayita
kyebiriga
kyebiriggula
kyebulungulo
kyegabanya
kyegendaganya
kyekimu
kyekubira
kyekubisa
kyekuusiza
kyekyali
kyekyo
kyenda
kyenjojo
kyenkana
kyenkanankana
kyenkanyampuyi
kyenkanyi
kyennyini
kyenvu
kyenyini
kyesatuza
kyesimba
kyesirikidde
kyeso
kyetaaga
kyetaagisa
kyetagisa
kyetutumula
kyewetaaga
kyewuunyo
kyeyagalire
kyeyali
kyeyambisibwa
kyeyisa
kyeyongera
kyeyongerayo
kyeyune
kyo
kyobe
kyogero
kyogeza
kyoka
kyokka
kyoli
kyona
kyongera
kyonna
kyotera
kyoto
kyuka
kyuma
kyupa
kyusa
kyuuma
l
la
laabu
lab
laba
labba
labbabbandi
label
labiaceae
labour
lack
laddu
ladies
ladiiyo
ladiyo
lady
laga
lagos
lagum
laid
lake
lakes
lamwo
land
lands
lang
langi
lango
language
languages
lanjouw
large
laser
last
late
later
latest
latin
latitude
latvia
launch
launched
launches
law
lawrence
laws
lawundi
lawyer
lawyers
layini
layisinsi
lc
lcm
ldc
le
lead
leader
leaders
leadership
leading
leads
league
learn
learned
learners
learning
leather
leave
leaves
leaving
lecture
lediyo
leediyo
leeds
leero
left
legacy
legal
legend
legislative
leila
lekikyala
lematia
length
leone
les
lesotho
less
lessons
let
letikyula
letter
letters
level
levels
lever
levers
levixone
lg
li
liba
libaamu
libeera
liberation
liberia
library
libuuza
libya
lidda
liddayo
lie
lies
lieutenant
life
lifestyle
lifestyleug
lifetime
lift
lifuuka
ligamba
ligenda
light
lightning
liigi
liiso
liita
lijja
like
likodi
likola
likoma
likozesebwa
likwata
likyayinza
lilian
lillian
lilongwe
lima
limanyiddwa
lime
limit
limited
limu
linda
lindirira
line
linear
lines
lingi
linguistics
link
linnya
lino
lion
lions
liquid
liquids
lira
liraga
liri
lirimu
lirina
lisangibwa
lisbon
lisinga
lisobola
lisoma
list
listed
lita
litangira
liteekebwa
litegeeza
litera
literacy
literary
literate
literature
lithueenia
little
litudde
litulica
litwalibwa
liva
live
liver
liverpool
lives
living
livingstone
liwonya
liyamba
liyina
liyinza
liyita
liyitibwa
liz
lizingiramu
ll
llb
lo
loan
lobe
local
location
locus
logarithms
logia
logic
logical
logy
londa
london
long
longitude
longmans
loogi
look
looks
loole
lord
los
lose
losers
loses
loss
lost
loughborough
louis
love
lover
low
lower
lowest
lowooza
lra
lt
ltd
lu
lua
luba
lubaale
lubaga
lubalama
lubbira
lubeerera
lubega
lubiri
lubu
lubugumu
lubuto
lubyamira
lucky
lucy
ludda
lufungi
lugaflow
lugalamiro
luganda
lugard
lugazi
lugenda
lugendo
lugereeki
lugero
luggya
lugirigimba
lugoba
lugogo
lugoye
luguudo
lugwa
lugwayo
lugya
lujegere
lujji
lujjudde
luka
lukaaga
lukalala
lukale
lukalu
lukiiko
lukoloboze
lukoma
lukozesa
lukulwe
lukumi
lukungaana
lukungana
lukusa
lukwago
lukwata
lukyamuzi
lula
lulattini
lule
luli
luliko
lulimi
lulimu
lulina
lulwe
lulwo
lulyabimera
lulyansolo
lulyansolobi
lulyo
lumala
lumaze
lumbadzi
lumonde
lumu
lumumba
lunaana
lunaku
lunar
lungereza
lunnyo
luno
lunye
lunyiriri
luo
lupapula
lupita
lusa
lusaka
lusala
lusalosalo
lusanvu
luse
lusegere
lusekkati
lusifa
lusiisira
lusimba
lusinga
lusittalo
lusobola
lusooka
lusozi
lusuku
lususu
luswayiri
lutaambi
lutaaya
lutalo
lutandika
lutaya
lutera
lutikko
lutuula
lutwa
luuka
luuyi
luva
luvannyuma
luwaga
luwalira
luwangula
luweero
luwero
luwuliza
luwummula
luwuzi
luyengo
luyiika
luyimba
luyinza
luyitibwa
luyonsa
luzannya
luzinda
luzira
lvceep
lvt
lw
lwa
lwaaki
lwabwe
lwaffe
lwafulumizibwa
lwaki
lwakuba
lwakwata
lwali
lwaliko
lwalimu
lwalondebwa
lwanga
lwange
lwatu
lwatuula
lwayo
lwe
lwebaali
lwebayita
lwenda
lwengo
lwennyini
lweyali
lwo
lwokaano
lwokka
lwonna
ly
lya
lyabwe
lyaffe
lyagenda
lyako
lyakyo
lyakyusibwa
lyali
lyange
lyantonde
lyasooka
lyatandikibwawo
lyava
lyayo
lyazimbibwa
lydia
lye
lyennyini
lyo
lyoka
lyokka
lyona
lyonna
lyrics
lz
m
ma
maaif
maama
maamawe
maanyi
maapu
maaso
mabbali
mabeere
mabega
mabira
mac
machine
machinery
machines
macromolecules
mad
madaala
madagascar
maddow
made
madrid
maduuka
mafabi
mafuta
magala
magazine
magazines
magezi
maggye
magic
magid
magineeti
magnet
magnetic
magnitude
magoba
magogo
magombe
magoola
magulu
magumba
magye
magyezi
mahia
maiden
mailo
main
maint
mairo
maisha
maize
maj
majid
major
mak
maka
makati
make
maker
makerere
makes
makindye
making
makkati
makolero
makubo
makubuya
makulu
makumbi
makumi
makya
makyule
malala
malaria
malawi
male
malende
mali
malimiro
maliri
mall
malungi
malwaliro
mama
mambuka
mamelodi
mammals
man
management
manager
managers
manchester
mancozeb
mandeevu
mandela
maneja
mangeni
mangi
mangu
manizo
manji
mannya
mannyo
mantle
manufacture
manufacturing
manure
many
manya
manyi
mao
map
mapping
maps
mar
maracha
marathon
marc
march
marco
margaret
maria
mariam
marine
mark
market
marketing
markets
markssali
maro
maroons
marriage
married
mars
martha
martin
martyrs
mary
masa
masaka
masannyalaze
masanyalaze
masavu
masaza
masekati
masekkati
maserengeta
masiini
masindi
masiro
maso
masoboza
masomero
masomo
mass
massa
massachusetts
massacre
massive
massomero
master
masters
mata
matabi
mataka
matayo
match
matches
mateeka
matembe
matendekero
matenkane
matereke
materialism
materials
math
mathematical
mathematically
mathematician
mathematics
mathias
maths
matia
matigga
matiiriyo
matono
matooke
matookerepublic
matovu
matrix
matt
matter
matters
matthew
matu
matwale
mau
maurice
mavious
mawanga
mawejje
mawetasatu
maweto
mawogola
mawokota
mawuggwe
mawulire
maximum
may
mayambala
mayanja
mayengo
mayi
mayiga
mayinja
mayiro
mayitirivu
mayor
mayumba
mazima
mazrui
mazzi
mba
mbaawo
mbabazi
mbaga
mbagamba
mbagirawo
mbalama
mbale
mbalire
mbarara
mbavu
mbazzi
mbeela
mbeera
mbeerabantu
mbera
mbi
mbidde
mbilo
mbiranye
mbire
mbiro
mboozi
mbowa
mbu
mbuga
mbugo
mburo
mbuto
mbuyaga
mbwa
mc
me
mean
meaning
meanings
means
measles
measurable
measure
measurement
measurements
measures
mechanical
mechanics
mechanism
med
medal
media
median
medical
medicine
medium
medula
medulla
meet
meeting
meets
meeya
meeyi
meeza
mega
meka
melting
melvern
mem
memba
member
members
membrane
memorial
memory
men
mengo
meningitis
mens
mental
menton
mercury
mere
mermaid
merry
mess
metabolism
metal
metallic
metals
metani
metaphysics
meteorology
meter
methane
method
methods
meto
metres
metric
mexico
mg
mgahinga
mhz
mi
mia
mibiri
michael
micheal
micho
micro
microbes
microbiology
microorganisms
microscope
microscopic
mid
middle
midfielder
midlothian
mifaanagavu
migaramiro
migaso
migattiko
migendo
migerageranyo
migereko
migga
miikka
miita
mike
mikisa
mikka
mikloth
mikolo
mikono
mikutu
mikutule
mikwano
milan
mile
milege
milembe
miles
military
miliyooni
milky
millennium
million
milton
milutin
mimwa
min
mind
minerals
minero
mingi
mingiko
mini
mining
minisita
minisitule
minista
minister
ministerial
ministers
ministries
ministry
minute
minutes
minzaani
mipiira
miracle
mirala
miramwa
mirandira
mirembe
miri
miria
miriam
mirimu
miriraano
mirundi
misambwa
misango
misengeko
misinde
misiri
misolo
misomo
misono
miss
missing
missingperspectives
mission
missionaries
missionary
misuwa
mita
mitazi
mitendera
mith
miti
mitima
mitimbagano
mitochondrion
mitokyandira
mitono
mitooma
mitta
mitwalo
mitwe
mityana
mivuyo
miwendo
mixed
mixtape
mixture
miya
miyitiro
mizannyo
mizigo
mizimu
ml
mls
mm
mmeeya
mmeeza
mmegi
mmele
mmemba
mmere
mminisita
mmita
mmotoka
mmunyeenye
mmwe
mmyufu
mmyuufu
mn
mo
mobile
mobutu
mode
model
models
modern
modernghana
module
moe
moi
molds
mole
molecule
molecules
molekyo
molekyu
molinga
molly
momentum
monaco
monday
monera
monetary
money
monica
monitor
monomial
monster
month
months
montreal
moon
moons
more
morel
moringa
morning
morocco
moroto
moscow
moses
mosque
most
mother
motherwell
motion
motoka
motor
motorcycle
mount
mountain
mountains
move
movement
movements
moves
movie
moving
mowzey
moyo
mozambique
mp
mpagi
mpaka
mpalirizo
mpamire
mpandiika
mpanga
mpanvu
mpapula
mpdata
mpeera
mpeke
mpenda
mpeto
mpetonnya
mpetosatu
mpewo
mpigi
mpiki
mpima
mpimo
mpisa
mpiso
mpola
mpolampola
mpologoma
mpozi
mpozzi
mps
mpscanug
mpulira
mpuyi
mpuyibbiri
mpuyikkumi
mpuyimukaaga
mpuyimunaana
mpuyimusanvu
mpuyimwenda
mpuyinnya
mpuyinnyingi
mpuyisatu
mpuyissatu
mpuyittaano
mr
ms
msnbc
mtn
mtnfootball
mtv
mu
muba
mubaamu
mubaka
mubalanguzi
mubeera
mubeeramu
mubende
mubi
mubili
mubiri
mubiru
mubiseera
mubitundu
mubukiika
mubulamu
mubuna
mubunabyalo
mubutufu
mubutuufu
mubuuze
much
muddo
muddugavukwefaako
muddusi
muduumizi
mufaanagavu
mufu
mufumbo
mufunza
mufuzi
mugabe
mugabi
mugalamiro
mugambe
muganda
mugandawe
muganzi
mugaso
mugatte
mugattiko
mugendaganyo
mugendanyo
mugendo
mugenyi
mugenzi
mugerageranyo
mugereeso
mugereko
mugerwa
mugga
mugisha
mugobansonga
mugogo
mugongo
mugula
mugulansigo
mugumbya
mugume
mugumu
mugunjufu
mugwa
muhabura
muhame
muhammad
muhanga
muhoozi
muhwezi
mui
mujjuulirizo
mukaaga
mukadde
mukaga
mukago
mukama
mukasa
mukaseera
mukazi
mukeenenya
mukenenya
mukifo
mukiga
mukiibi
mukiise
mukisa
mukiseera
mukitundu
mukka
mukkakkamu
muko
mukoka
mukolo
mukono
mukozi
mukubi
mukugu
mukulembeze
mukulonda
mukulu
mukulukusa
mukulukusabitungotungo
mukungu
mukutu
mukutulansanja
mukutule
mukuumi
mukwafu
mukwanaganya
mukwanaganyo
mukwano
mukwataganyo
mukwaya
muky
mukyala
mukyalawe
mukyungwa
mulaasi
mulabe
mulabirizi
mulage
mulago
mulala
mulalama
mulamba
mulamu
mulamuzi
mulamwa
mulandira
mulangi
mulangira
mulema
mulembe
muleme
mulengera
mulengeranews
mulengo
mulenzi
muli
mulimi
mulimu
mulina
mulindwa
mulinnya
muliraanwa
muliranwa
muliro
mulokole
muloni
mulowooza
multi
multicellular
multiple
multiples
multiplication
multiplicative
multiplying
muluka
mulumba
mulundi
mulungereza
mulungi
mulungusi
mulunzi
mulwadde
mulwanirizi
mumaaso
mumabanga
mumaka
mumasekati
mumasso
mumbeera
mumbere
mumiro
mumpi
mumps
mumwa
mumwaka
mumwezi
mumyuka
mun
muna
munaana
munabyabufuzi
munaku
munakuwavu
munamateeka
munana
munayuganda
munda
mundu
mune
munene
mungereza
mungeri
mungi
mungu
munich
municipality
munisipaali
munisipalite
munkola
munna
munnabizinensi
munnabyabufuna
munnabyabufuzi
munnakatemba
munnakibiina
munnamagye
munnamateeka
munnamawulire
munnansi
munnasayansi
munnassomabutonde
munnassomabuzimbe
munnauganda
munnaugandan
munnayuganda
munne
munno
munnyo
muno
munoonyerezi
munsi
muntandikwa
muntu
muntuyera
munyale
munyeenye
munyenye
munywanyi
mupiira
mupya
murchison
murder
muruli
musa
musaala
musaale
musaayi
musajja
musambi
musana
musangibwa
musangibwamu
musango
musanvu
musanyufu
musanyusa
musawo
muscle
muscles
muscular
museenene
museetwe
museke
musenene
musenero
musengeko
museum
museveni
musibuka
music
musical
musicawards
musician
musicians
musicinafrica
musicuganda
musikirize
musimba
musimbalaala
musinde
musingi
musisi
musisis
muslim
musoke
musomero
musomesa
musota
must
musujja
musulo
musumba
musunguwavu
musuubuzi
musuuza
mutabani
mutagamba
mutaka
mutandisi
mutated
mutawaana
mutebi
muteesa
mutegeevu
mutegeeze
mutendeke
mutendekero
mutendera
mutendesi
mutereezabulamu
mutesa
mutesasira
muti
mutima
mutimbagano
mutindo
muto
mutoni
mutonnyeze
mutono
muttaka
mutually
mutuba
mutuluba
mutumba
mutunda
mutuukirivu
mutuuzo
mutwalo
mutwe
mutya
muva
muvaamu
muvubuka
muwakanya
muwala
muwandiisi
muwanga
muwanguzi
muwanvu
muwawa
muweereza
muwenda
muwendo
muwere
muwi
muwogo
muwonge
muwuulu
muyala
muyenga
muyigirize
muyima
muyimbi
muyingo
muyinza
muyite
muyitiro
muyivu
muyizi
muzadde
muzannyi
muzannyo
muzanyi
muzigo
muziki
muzila
muzimu
muzinyi
muzira
muzzukulu
mw
mwa
mwaaka
mwagala
mwaka
mwali
mwalimu
mwalingamu
mwamba
mwambala
mwami
mwana
mwananchi
mwanga
mwangu
mwanjo
mwannyina
mwanyina
mwasirizi
mwattu
mwatu
mwayo
mwe
mwebaza
mweezi
mwegayirizi
mwemuli
mwemwali
mwenda
mwenge
mwennyini
mweri
mwesigwa
mweso
mweteefuteefu
mwetegefu
mwettanilenga
mweya
mweyali
mweyawangulira
mweyoleko
mwezi
mwiri
mwogezi
mwotwalidde
mwoyo
my
mya
myaaka
myaka
myeyoleko
myezi
myoyo
n
na
naa
naaba
naabayimbi
naabo
naalya
naamayingo
naawe
naba
nabagereka
nabajjuzi
nabakooba
nabatanzi
nabbanja
nabbingo
nabbirye
nabbuguma
nabbugumya
nabire
nabisunsa
nabo
nabongo
nabukeera
nabulagala
nabuzimbe
nabwekityo
nabwiso
nabwo
nabwoki
nabyo
nadala
nadda
naddagala
naddala
nadduli
naffe
nafuna
nafuuka
nag
naga
nagaddya
nagana
nagenda
naggalama
naggayi
naggendo
naggwanga
nago
naguru
nagwano
nagwo
nagyo
nairobi
naitilojeni
naitogyeni
najjolo
najjuka
najjuma
nakaayi
nakabuye
nakalanga
nakalowooleza
nakalyakani
nakamu
nakana
nakaseke
nakasero
nakasigirwa
nakasongola
nakate
nakato
nakavundila
nakavundira
nakawa
nakayima
nakazaala
nakazzi
nakibinge
nakimu
nakimuli
nakimwero
nakintije
nakitondekabirungi
nakivubo
nakiwala
nakiyingi
nakkoola
nakku
nako
nakola
nakongezabwangu
nakongezakikolwa
nakongezalinnya
naku
nakudata
nakwang
nakwo
nakyekubira
nakyemalira
nakyenkanyampuyi
nakyenkanyanjuyi
nakyewa
nakyo
nalondebwa
nalubaale
nalule
nalumu
nalwo
nalwoga
nalyo
namaanyi
namaddala
namaganda
namagunga
namakula
namala
namara
namasagali
namatovu
namayingo
namba
nambiso
namboole
nambooze
nambulukufu
nambuluzo
name
named
names
namibia
namibian
namikka
namilyango
namirembe
namirimu
nampa
nampalirizo
nampawengwa
nampeto
nampewo
namubiru
namuganza
namugereka
namugongo
namujju
namukasa
namukuta
namulondo
namunigina
namunkanga
namusisi
namutale
namutumba
namuziga
namwandu
namwo
nana
nandagire
nandujja
nandutu
nang
nange
nangendo
nanjobe
nankabirwa
nankoma
nannyigirizi
nannyini
nansikombi
nansoboza
nansubuga
nantaba
nanteza
nantongo
nanyondo
nanzitoya
napooleon
napukiini
narrow
narus
nasale
nash
nassolo
natalensis
natasha
nate
natikkirwa
nation
national
nations
nationstemplate
native
natural
nature
navio
nawangula
nawe
naweereza
naye
nayebale
nayitogyeni
nayitologyeni
nayo
nazino
nazo
nazzikuno
nbs
ncaa
ncc
nchengladbach
nd
ndaba
ndabika
ndaga
ndagaano
ndagabungi
ndagabutonde
ndagabuzaale
ndagakifo
ndagakintu
ndagala
ndagalinnya
ndagamuwendo
ndagire
ndala
ndawula
ndeeba
ndegeya
ndejje
ndi
ndiizi
ndiri
ndowooza
nduhukire
nduli
ndwadde
ndya
ne
nebafulumya
nebagenda
nebakola
nebanda
nebbi
nebirala
nebular
necessary
nedda
need
needs
neera
neeyisa
negatiivu
negative
nekesa
nekitundu
neku
nelly
nelson
nemu
nendala
nene
neologisms
neptune
nerve
nerves
nervous
nesi
net
netball
netherlands
netoni
network
neurology
neuron
neurons
neutron
neutrons
never
new
newankubadde
newly
news
newsid
newslexpoint
newspaper
newtimes
newton
newvision
next
ney
neyeegata
neyegatta
nfa
nft
nfuga
nfuna
nfundiwazo
ng
nga
ngako
ngali
ngalino
ngalo
ngamu
nganda
ngazi
nge
ngeli
ngenda
ngerekera
ngeri
ngo
ngora
ngoye
ngulu
nguudo
nice
nicholas
nick
nicky
nigeemu
niger
nigeria
nigerian
night
nigi
nigina
nike
nile
nilepost
nimi
nimiro
nina
nine
nira
nitrogen
nitrous
nja
njagala
njala
njawulo
njazi
njeru
njise
njogera
nju
njuba
njuyi
nk
nkaaga
nkakaso
nkalubo
nkambi
nkangi
nkemba
nketteso
nkiiko
nkizi
nkizo
nkizudde
nkoko
nkokonjeru
nkola
nkolagana
nkole
nkoloboze
nkomerero
nkoni
nkoona
nkoze
nkozesa
nkozi
nku
nkuba
nkubise
nkugamba
nkula
nkulaakulana
nkulakulana
nkulungo
nkumba
nkumbi
nkumi
nkumu
nkunu
nkutulemu
nkuuma
nkuumakifo
nkuyanja
nkuza
nkwaso
nkwasowazo
nkwata
nkwatako
nkyukakyuka
nkyukakyuuka
nkyusabuziba
nkyusibwo
nkyuukakyuuka
nm
nmg
nn
nnaabagereka
nnaabakyala
nnaalongo
nnabaana
nnabagereka
nnabuzaale
nnakimu
nnakinku
nnaku
nnakyemalira
nnakyewa
nnali
nnalubaale
nnamaddala
nnamba
nnamulondo
nnamusuna
nnamuzisa
nnanga
nnannyini
nnanyini
nneeyisa
nnene
nnetoloovu
nnima
nnimi
nnimiro
nnkulakulana
nnkulakulanna
nno
nnono
nnukuta
nnungi
nnya
nnyama
nnyangu
nnyanguyirizi
nnyanja
nnyigi
nnyimba
nnyina
nnyindo
nnyingemu
nnyingi
nnyingiko
nnyingo
nnyingobbiri
nnyingosatu
nnyini
nnyiriri
nnyo
nnyoloni
nnyukiriya
nnyukiriyaasi
nnyukiriyasi
nnyukuta
nnyumba
nnywa
no
nobiriya
node
nokoolayo
nola
nollywood
nolwekyo
nomials
nominal
nominated
nomination
nominations
nominee
nominees
non
nonagon
nonary
nonywa
noolwekyo
noonya
noowe
norah
norbert
normal
norms
north
northern
norway
not
notation
note
notes
nothing
noun
nouns
nov
novemba
november
now
npr
nr
nra
nrm
nrms
ns
nsaba
nsalo
nsalosalo
nsambu
nsambya
nsanvu
nsawo
nseke
nsengeka
nsengekera
nsereko
nsi
nsibambi
nsibo
nsibuka
nsibuko
nsigo
nsiike
nsikirizo
nsiko
nsimbi
nsindikano
nsiringanyi
nsolo
nsonda
nsonga
nsonjola
nsozi
nssf
nsubuga
nsulo
nsusuuba
nsuubo
nsuusuuba
ntababutonde
ntabaganya
ntabaganyabantu
ntabaganyi
ntabaganyo
ntabazi
ntabiro
ntaja
ntakoma
ntakyuka
ntale
ntalo
ntambula
ntandiikwa
ntandikwa
ntataaganya
nte
ntebe
nteekateeka
nteeko
ntege
ntegeeza
ntegere
ntenvu
nti
ntiisa
ntikko
ntimbe
ntinda
nto
ntobazi
ntobo
ntoko
ntoloovu
ntondeka
ntondwa
ntongole
ntono
ntonotono
ntunduwavu
ntunduwaze
ntunga
ntungamo
ntunnunsi
ntv
ntya
nu
nuclear
nuclei
nucleus
nueva
number
numbers
numeral
numerals
numerator
nungi
nup
nurse
nursery
nursing
nutrients
nva
nviiri
nvuba
nwc
nwoya
nwsc
ny
nya
nyakato
nyambura
nyanja
nyanza
nyege
nyeko
nyerere
nyimba
nyingi
nyo
nytimes
nyukiliasi
nyukiriasi
nyukiriya
nyukiriyasi
nyukuta
nyuloni
nyuma
nzaalwa
nze
nzibu
nzigumivu
nzijanjaba
nzijuvu
nzikiriza
nzimba
nziring
nzirukanya
nzitoya
nzitoyo
nzivuunulo
o
oau
ob
oba
obadde
obagerageranyizza
obalanguza
obasinga
obeera
obikeko
object
objective
objectives
objects
obo
oboi
oboolyawo
obote
observation
observer
obsessions
obu
obua
obuba
obubaawo
obubaga
obubajjo
obubaka
obubalanguzo
obubangirivu
obubbi
obubeera
obubenje
obubi
obubiri
obubondo
obubonero
obubudamu
obubuguumirivu
obucaafu
obudde
obuddu
obufere
obufumbekevu
obufumbo
obufumito
obufundikiro
obufunza
obufuzi
obugaali
obugagga
obugalamivu
obugambi
obugambo
obuganda
obuganzi
obugazi
obugendera
obugere
obugero
obugezi
obuggumivu
obuggya
obugimu
obugulumivu
obugumiikiriza
obugumu
obugunjufu
obugwanjuba
obugya
obujagujagu
obujajja
obujama
obujanjabi
obujja
obujjanjabi
obujji
obujjuvu
obujulizi
obukaba
obukadde
obukakafu
obukalakato
obukambwe
obukessi
obukiika
obukiikaddyo
obukiikakkono
obukiikirira
obukiiko
obukkakkamu
obukodyo
obukoko
obukola
obukomera
obukonta
obukontanyo
obukoola
obukooli
obukoowu
obukosefu
obukozesebwa
obukugiro
obukugu
obukulembeze
obukulembezze
obukulu
obukunizo
obukunya
obukusu
obukuubagano
obukuumi
obukwaaki
obukwafu
obukwafuwavu
obukwaki
obukwakkulizo
obukwata
obukwatufu
obukyafu
obukyayi
obulabe
obulabika
obulabirizi
obulaga
obulala
obulambuze
obulambuzi
obulamu
obulango
obuleeta
obuleetebwa
obulema
obulemawavu
obulemu
obuli
obulimi
obulimu
obulina
obulinga
obuliwo
obulogonebabitegeera
obulombolombo
obulowooza
obululu
obulumbaganyi
obulumi
obulungi
obulunzi
obulwadde
obulwanyisa
obulyake
obumala
obumanya
obumanyirivu
obumativu
obumenyi
obumpi
obumu
obumuli
obumyu
obumyufu
obunafu
obunakuwavu
obunene
obunenene
obungi
obunji
obunkenke
obunnabantu
obunnyogovu
obuntu
obuntubulamu
obunukufu
obunyiivu
obunyukufu
obunyunyunsi
obupaketi
obupiira
obupoto
obupya
obura
obusa
obusaale
obusaamu
obusaanyi
obusaasizi
obusajja
obusangibwa
obusangiro
obusannyalaza
obusannyalazo
obusannyalzo
obusanyalazo
obusatu
obusawo
obuseegu
obusekese
obusekkati
obusembayo
obusenge
obuserengefu
obuserengeto
obusigo
obusimba
obusimu
obusinga
obusingayo
obusinziiro
obusiraamu
obusirifaali
obusirikito
obusirikitu
obusitukiro
obusobola
obusobozesa
obusobozi
obusolo
obusomesa
obusooka
obusookerwako
obusookeso
obusosoze
obusozi
obusukka
obusukkulumu
obusukkulumye
obusungu
obusunguwavu
obusuubuzi
obuswavu
obutaba
obutabaamu
obutabaawo
obutabaganyi
obutabalika
obutabanguko
obutabi
obutabo
obutadibuuda
obutafa
obutafaanagana
obutafaanana
obutaffaali
obutaffaalikazimbabwongo
obutafiibwako
obutafuna
obutagambwako
obutaka
obutakaanya
obutakkaanya
obutakola
obutakosa
obutakwatagana
obutakwatibwa
obutala
obutalaba
obutalabika
obutale
obutali
obutalwala
obutamanya
obutambi
obutambulira
obutasaanawo
obutasaasira
obutasobola
obutateeka
obutatuuka
obutatwalibwa
obutayagala
obutebe
obutebenkevu
obutego
obutera
obutereevu
obutereka
obutereke
obuti
obutikitiki
obutiko
obutini
obutiniinya
obutinniinya
obutiti
obuto
obutoffaali
obutoffaalo
obutoffali
obutonde
obutondo
obutoniinya
obutonniinya
obutonnyeze
obutono
obutonotono
obutujju
obutulututtu
obutunda
obutundu
obutundutundu
obutungulu
obutunniinya
obutuufu
obutuuze
obutwa
obuufu
obuuma
obuuza
obuva
obuvanjuba
obuvannyuma
obuveera
obuvubi
obuvuluzi
obuvumu
obuvunaanyizibwa
obuvunanyizibwa
obuvune
obuwagizi
obuwakisa
obuwakiso
obuwala
obuwangaaliro
obuwangaazi
obuwango
obuwanguzi
obuwangwa
obuwanvo
obuwanvu
obuweebwa
obuweereza
obuwerako
obuwuka
obuwumbi
obuwunga
obuwuumbi
obuwuzi
obuyambi
obuyana
obuyeekera
obuyigirize
obuyiiya
obuyimba
obuyindiyindi
obuyinza
obuyitibwa
obuyitiro
obuyivu
obuyivuwavu
obuyonjo
obuzaala
obuzaale
obuzaaliranwa
obuzannyo
obuziba
obuzibu
obuzibuwavu
obuziizi
obuzila
obuzimba
obuzimbe
obuzito
obuzitoya
obuzzi
obvious
obw
obwa
obwaavu
obwabulijjo
obwagaagavu
obwagagavu
obwagazi
obwaguuga
obwakabaka
obwakalimagezi
obwakatonda
obwali
obwaliwo
obwambe
obwami
obwaminisita
obwananyini
obwangu
obwannakyemalira
obwannakyemalizi
obwannakyewa
obwannannyini
obwannanyini
obwapulezidenti
obwasooka
obwavu
obwe
obwebulungirivu
obwebungulule
obwegassi
obwegendereza
obwegugungo
obwekulungirivu
obwengula
obwenjawulo
obwenkana
obwenkanya
obwenkanyi
obwenyi
obwenzi
obwesige
obwesigwa
obwesimbu
obwetaagisa
obwetaavu
obwetoloovu
obwetwaze
obwo
obwogerwako
obwogi
obwoki
obwolekero
obwongo
obwoya
oby
ocean
oceans
ochaya
oclc
oct
octagon
octoba
october
odd
odda
oddira
odduka
odense
odoki
odongo
odufuwa
oeg
of
off
office
officer
officers
official
officially
offiisi
offisi
ofiisa
ofiisi
often
ofumba
ofuna
ofune
ofunye
og
ogabiza
ogamba
ogasse
ogatta
ogattako
ogattika
ogenda
ogende
ogezaako
oggyeeko
oggyeko
ogifunye
ogikutulamu
ogoberera
oguba
oguddako
ogugamba
ogugerageranya
ogukolebwa
ogukontana
ogukoona
ogukulengeza
ogukwatta
ogula
ogulaga
ogulagibwa
oguli
ogulimu
oguluma
ogumala
ogumanyiddwa
ogumu
ogusembayo
ogusinga
ogusingayo
ogusobola
ogusooka
ogutaba
ogutakoma
ogutalabika
ogutali
ogutegeeza
oguva
oguvaamu
oguyitibwa
ogw
ogwa
ogwaali
ogwaddako
ogwaddirira
ogwal
ogwali
ogwasooka
ogwategekebwa
ogwe
ogwekkumi
ogwekkuminebiri
ogwekkumineebiri
ogwekkuminogumu
ogwekkuminoogumu
ogwekumi
ogwenkanankana
ogwetaagisa
ogwetoloola
ogwo
ogwokubiri
ogwokuna
ogwokusatu
ogwokutaano
ogwokya
ogwolubereberye
ogwoluberyeberye
ogwomukaaga
ogwomunaana
ogwomusanvu
ogwomwenda
ogya
ogyeko
ohio
oil
ojja
ojjeeko
ojjeko
ojok
okaano
okakase
okalany
okayafrica
okello
okendeeza
okhuti
okikola
okilaba
okimanya
okimanye
okimanyi
okiraba
okiraga
okisadi
okisayidi
okisegyeni
okisigeni
okisigyeni
okisijeni
okkakkane
okola
okole
okoma
okori
okoze
okozesa
okozesebwa
okozesezza
oku
okuba
okubaako
okubaamu
okubaawo
okubabuukirirwa
okubaga
okubagamba
okubajja
okubaka
okubala
okubalaga
okubalangula
okubalanguza
okubalira
okubalirira
okubalukawo
okubanga
okubangula
okubasomesa
okubawa
okubayamba
okubayigiriza
okubaza
okubazibwa
okubba
okubbira
okubeela
okubeera
okubeerako
okubeeramu
okubeerawo
okubeererawo
okubeezaawo
okubera
okuberawo
okubezaawo
okubiika
okubijja
okubikka
okubikozesa
okubiri
okubisa
okubisaamu
okubisizzaamu
okuboggola
okubonereza
okubonerezebwa
okubonerezza
okubugaana
okubuguma
okubugumya
okubuguumirira
okubulwa
okubumba
okubumbulukuka
okubuna
okubunyisa
okubuuka
okubuulirira
okubuutikira
okubuuza
okubuzaabuzibwa
okubuzabuza
okubuzabuzibwa
okubuzibwabuzibwa
okubwatuka
okucaaka
okudda
okuddaabiriza
okuddaabulula
okuddako
okuddamu
okuddayo
okuddira
okuddirira
okudduka
okuddukana
okuddukanya
okuddukanyizibwa
okuddukira
okudibaga
okudiibuuda
okuduka
okudukanya
okudukira
okuduula
okufa
okufaana
okufaanana
okufaananako
okufaayo
okufiibwaako
okufiibwako
okufiira
okufiirwa
okufuba
okufuga
okufugibwa
okufuka
okufukirira
okufukuuka
okufuluma
okufulumizibwa
okufulumya
okufuma
okufumba
okufumuuka
okufuna
okufunamu
okufundiwaza
okufunira
okufunna
okufunza
okufuuka
okufuukamu
okufuukuuka
okufuula
okufuulibwa
okufuuwa
okufuuweeta
okufuuyira
okugaana
okugaba
okugabana
okugabanya
okugabanyizibwamu
okugabiza
okugabizibwamu
okugabula
okugafuula
okugakozesa
okugamba
okugandawaza
okugatta
okugattibwa
okugattika
okugaziwa
okugaziya
okugejja
okugema
okugemebwa
okugemesa
okugenda
okugendagana
okugendaggana
okugendana
okugera
okugerageranya
okugereefu
okugereesa
okugereka
okugeza
okugezaako
okugezesa
okugezesebwa
okuggalawo
okuggulaafula
okuggulawo
okuggwa
okuggwaamu
okuggwamu
okuggya
okuggyako
okuggyamu
okuggyawo
okuggyibwako
okugifuula
okugiyita
okugoba
okugoberera
okugobererwa
okugobwa
okugogola
okugondera
okugonjoola
okugonza
okugugaziyako
okugugubira
okugula
okugulanga
okugulu
okugumira
okugunjula
okugwa
okugya
okugyako
okugyawo
okugyawula
okujaguza
okujanjaba
okujja
okujjako
okujjamu
okujjanjaba
okujjanjabibwa
okujjanjabwa
okujjawo
okujjayo
okujjibwa
okujjukira
okujjula
okujjuza
okujugumira
okujukira
okukaaba
okukaayanira
okukabala
okukakasa
okukakasibwa
okukala
okukalaba
okukaluubirirwa
okukaluubirizibwa
okukamula
okukankana
okukayita
okukebera
okukeberebwa
okukekkereza
okukendeera
okukendeeza
okukendeza
okuketta
okukifunamu
okukifuula
okukigoba
okukiika
okukiikirira
okukijja
okukikola
okukimanya
okukinoonyerezaako
okukiraba
okukiraga
okukiriza
okukitegeera
okukituukako
okukiwandiika
okukiyita
okukizuula
okukka
okukkaatiriza
okukkakkana
okukkakkanya
okukkatira
okukkiriza
okukkusa
okukogga
okukola
okukolagana
okukolako
okukolamu
okukolebwa
okukolebwako
okukolebwamu
okukoleddwa
okukolera
okukolokota
okukolola
okukoma
okukomawo
okukomekkereza
okukomola
okukomolebwa
okukomya
okukomyawo
okukontana
okukoola
okukoowa
okukoppa
okukoppulula
okukosa
okukosebwa
okukozesa
okukozesebwa
okukuba
okukubaganya
okukubibwa
okukubira
okukubiriza
okukubisa
okukubisaamu
okukubuulira
okukubuuza
okukubwa
okukugira
okukula
okukulaakulana
okukulaakulanya
okukulaakulanyizibwa
okukulaga
okukulakulana
okukulakulanya
okukuleetera
okukulembera
okukulemberamu
okukulira
okukuliza
okukulugguka
okukulukuta
okukulungutana
okukuma
okukumanyisa
okukung
okukunga
okukungaanya
okukunganya
okukungula
okukunuukiriza
okukusobozesa
okukutuka
okukutula
okukutulakutula
okukutusaako
okukuubagana
okukuuma
okukuumibwa
okukuumira
okukuviirako
okukuwa
okukuyamba
okukuza
okukuzibwa
okukwanagana
okukwanaganya
okukwasaganya
okukwata
okukwatagana
okukwataganya
okukwataganyizibwa
okukwatako
okukwatibwa
okukwatira
okukwekula
okukyakankalana
okukyala
okukyalira
okukyamuukirira
okukyankalana
okukyankalanyizibwa
okukyawa
okukyawula
okukyayibwa
okukyekebejja
okukyekenneenya
okukyetoloola
okukyojjanya
okukyuka
okukyukakyuka
okukyukana
okukyusa
okukyusakyusa
okukyusibwa
okukyuusa
okula
okulaba
okulabibwa
okulabika
okulabikira
okulabilako
okulabirako
okulabirira
okulabula
okulaga
okulagibwa
okulagira
okulagula
okulakulanya
okulala
okulambika
okulambula
okulambulula
okulambululwa
okulamula
okulamusa
okulandiza
okulanga
okulangirira
okulangulula
okuleeta
okuleetawo
okuleetebwa
okuleetebwawo
okuleetera
okulega
okulegako
okuleka
okulekera
okulekulira
okulembewaza
okulemererwa
okulemesa
okulemwa
okulengera
okuli
okuliisa
okulikoodiinga
okulima
okulinnya
okulinnyirira
okulinnyisa
okulinyisa
okuliraana
okuliwo
okulonda
okulondebwa
okulondoola
okulongoosa
okulongoosebwa
okulongoosereza
okulowooza
okuluka
okulukalo
okuluma
okulumba
okulumbagana
okulumbibwa
okulumizibwa
okulumwa
okulunda
okulundibwa
okulundira
okulungamya
okulusegere
okuluubirira
okulwala
okulwana
okulwanagana
okulwanirira
okulwanisa
okulwanyisa
okulwawo
okulya
okumaamira
okumakya
okumala
okumalako
okumalawo
okumalayo
okumalira
okumaliriza
okumannya
okumannyikwa
okumanya
okumanyagana
okumanyibwa
okumanyiira
okumanyiiza
okumanyika
okumanyisa
okumanyisibwa
okumatira
okumazzi
okumenya
okumera
okumerenguka
okumeruka
okumineebiri
okumira
okumpi
okumuboggolera
okumugamba
okumujja
okumujjamu
okumukangavvula
okumukumu
okumukwata
okumulaga
okumulemesa
okumulisa
okumulumba
okumumanyisa
okumusobozesa
okumuteeka
okumutimbagano
okumutwala
okumuwa
okumuyamba
okumuyigiriza
okumyuka
okumyukirira
okuna
okunaaba
okunafuwa
okunakuwala
okunambulula
okunene
okungulu
okunnyogoga
okunnyonnyoka
okunnyonnyola
okunnyonnyolwa
okunokoolayo
okunonooza
okunonyereza
okunoonya
okunoonyereza
okuntikko
okunyaga
okunyigiriza
okunyigirizibwa
okunyiiga
okunyiza
okunyolwa
okunyooleza
okunyuma
okunyumirwa
okunywa
okunyweezza
okunyweza
okupanga
okupima
okupimibwa
okupuluka
okupya
okurut
okusaanawo
okusaanuusa
okusaanyaawo
okusaanyawo
okusaasaana
okusaasaanira
okusaasaanya
okusaasaanyizibwa
okusaasanya
okusaawa
okusaba
okusaddaaka
okusaka
okusala
okusalawo
okusalibwako
okusalira
okusamba
okusamira
okusamirira
okusanga
okusangibwa
okusannyalala
okusanyaawo
okusanyuka
okusanyusa
okusasannya
okusasula
okusasulira
okusatu
okusazaamu
okusebengerera
okuseetuka
okuseetula
okusegeera
okusegeevu
okusemazinga
okusembayo
okusemberera
okusenga
okusengeka
okusengekebwa
okusenserwa
okusereba
okusereka
okusesema
okuseyeeya
okusiba
okusibibwa
okusibwa
okusiga
okusigala
okusiiga
okusiigibwa
okusiima
okusiiyibwa
okusika
okusikibwa
okusikira
okusikiriza
okusikirizibwa
okusikiza
okusima
okusimba
okusimbuliza
okusindika
okusinduukirirwa
okusinga
okusingako
okusingawo
okusingira
okusinza
okusinziira
okusinzira
okusirika
okusisinkana
okusiteegi
okusitula
okusobola
okusoboola
okusobozesa
okusoma
okusomera
okusomesa
okusonjola
okusonjolwa
okusoobola
okusooka
okusooma
okusoomozebwa
okusosola
okusosolebwa
okussa
okussaawo
okusubwa
okusukka
okusukkawo
okusumulula
okusumululwa
okusuna
okusunguwala
okusunsula
okusunsulamu
okusunsulwamu
okusuubira
okusuubulagana
okusuula
okusuulibwa
okusuulirirwa
okuswala
okuswazibwa
okuta
okutaano
okutaasa
okutaataaganya
okutaataganya
okutaataganyizibwa
okutabagana
okutabaganya
okutabuka
okutabula
okutakoma
okutalaaga
okutalagga
okutali
okutambula
okutambulako
okutambulira
okutambuliza
okutambuza
okutana
okutandiika
okutandika
okutandikawo
okutandikibwawo
okutandikira
okutangaaza
okutangira
okutangirwa
okutano
okutaputa
okutaragga
okutawaanyizibwa
okutebenta
okutebentesa
okutebentuka
okuteeba
okuteebereza
okuteebwa
okuteeka
okuteekako
okuteekamu
okuteekateeka
okuteekawo
okuteekebwa
okuteekebwamu
okuteekebwawo
okuteesa
okutega
okutegeela
okutegeera
okutegeeragana
okutegeeza
okutegeka
okutema
okutendeka
okutendekebwa
okutendereza
okutengejja
okutereeza
okutereka
okuterekebwa
okutiisatiisa
okutikirwa
okutikkirwa
okutolontoka
okutomeggana
okutomera
okutomeragana
okutona
okutonda
okutondawo
okutondebwawo
okutondeka
okutondekawo
okutondowala
okutongoza
okutonotono
okutta
okutteko
okuttibwa
okutuka
okutulugunya
okutulugunyizibwa
okutumbira
okutumbula
okutunda
okutundibwa
okutunga
okutunula
okutunuulira
okutusa
okutuufu
okutuuka
okutuukako
okutuukira
okutuukiriza
okutuukirizibwa
okutuula
okutuusa
okutuuuka
okutuuyana
okutuuza
okutwala
okutwalibwa
okutwalira
okutwaliza
okutya
okutyobola
okutyoboola
okuva
okuvaako
okuvaamu
okuvaawo
okuvaayo
okuvamu
okuviira
okuviirako
okuvuba
okuvuga
okuvuganya
okuvumbula
okuvunda
okuvunza
okuvuuba
okuvuunika
okuvvuunula
okuwa
okuwaata
okuwaayo
okuwabula
okuwagira
okuwakanya
okuwakisa
okuwaliriza
okuwamba
okuwandiika
okuwandiikibwa
okuwandiisa
okuwandika
okuwangaala
okuwangula
okuwangulwa
okuwanirira
okuwanvu
okuwanyisiganya
okuweebwa
okuweereza
okuweesa
okuwemula
okuwera
okuwereza
okuweta
okuweweenyuka
okuwewuka
okuweza
okuwola
okuwona
okuwonya
okuwoola
okuwoolera
okuwoza
okuwuga
okuwulikika
okuwulira
okuwuliriza
okuwulirizibwa
okuwuliziganya
okuwummula
okuwummulako
okuwunda
okuwunya
okuwunyiriza
okuyamba
okuyambako
okuyambibwa
okuyambibwako
okuyiga
okuyigga
okuyigiriza
okuyigirizibwa
okuyiiya
okuyimba
okuyimbira
okuyimbulukuka
okuyimirira
okuyimirirawo
okuyimiriza
okuyimusa
okuyingira
okuyingirira
okuyingiza
okuyingizibwa
okuyisa
okuyita
okuyitamu
okuyitibwa
okuyitimuka
okuyitiridde
okuyivuwaza
okuyiwa
okuyombayomba
okuyonja
okuyonka
okuyonsa
okuzaala
okuzaalibwa
okuzaamu
okuzannya
okuzannyibwa
okuzannyira
okuzannyisa
okuzanya
okuziba
okuzibuwavu
okuzifuula
okuziika
okuziikibwa
okuziiyiza
okuzikozesa
okuzilaba
okuzimba
okuzimbibwa
okuzina
okuzingako
okuzirika
okuzisanga
okuzitowa
okuziyira
okuziyita
okuziyiza
okuziyizibwa
okuzuukuka
okuzuula
okuzza
okuzzaawo
okuzzibwa
okw
okwa
okwabulira
okwabuluza
okwabuluzibwamu
okwabya
okwagala
okwagalana
okwaka
okwakolebwa
okwali
okwaliwo
okwalula
okwamaanyi
okwambala
okwang
okwanganga
okwanguya
okwanika
okwaniriza
okwanjula
okwasooka
okwata
okwataganyaamu
okwatako
okwatibwa
okwatula
okwawamu
okwawukana
okwawukanako
okwawula
okwawulibwa
okwawulibwamu
okwawuza
okwebaka
okwebiriga
okwebulungula
okwebuuza
okweddiza
okwefaako
okwefumiitiriza
okwefumitiriza
okwegadanga
okwegata
okwegatta
okwegattisa
okwegayirira
okwegendereza
okwegezaamu
okwegomba
okwegugunga
okwegulumiza
okwekakasa
okwekalakaasa
okwekandula
okwekatankira
okwekebejja
okwekebeza
okwekengera
okwekenneenya
okwekennenya
okwekkanya
okwekolera
okwekubagiza
okwekubira
okwekulaakulanya
okwekulakulanya
okwekuuma
okwekwasa
okwekwasawaza
okwekwata
okwekweka
okwekyaawa
okwekyawa
okwelwanako
okwemanya
okwemanyamanya
okwembagirawo
okwemotyamotya
okwemulugunya
okwenjawulo
okwenkana
okwenkanyankanya
okwennyika
okwenyigira
okwerabira
okweraliikirira
okwerinda
okwerippa
okwerwanako
okwesa
okwesatuza
okwesera
okwesiba
okwesigama
okwesika
okwesikira
okwesimbawo
okwesimbirawo
okwesisiwala
okwesogga
okwesukulumya
okwetaaga
okwetaagisa
okwetaasa
okwetaba
okwetangira
okwetegeera
okwetegekera
okwetegereza
okwetikka
okwetolola
okwetoloola
okwetoolatoola
okwetoolola
okwetooloola
okwetta
okwettanira
okwetusaako
okwetuukira
okwetuusaako
okwetya
okwevumbulira
okwewa
okwewaggula
okwewala
okwewalibwa
okwewola
okwewulira
okwewuunya
okweyambisa
okweyambisibwa
okweyisa
okweyisaamu
okweyogerera
okweyoleka
okweyolekera
okweyongera
okweyongerayo
okweyubula
okweyunga
okweyunira
okwezuulira
okwezza
okwi
okwo
okwogera
okwogerako
okwogeza
okwokya
okwolekera
okwolesa
okwolesebwa
okwomutendera
okwongera
okwongereza
okwongeza
okwonoona
okwonooneka
okwookya
okwoza
oky
okyusa
okyusaamu
ol
olaba
olabako
olabe
olabira
olabye
olaga
olage
olambawo
olambika
olambikawo
olambulula
olara
old
olegako
oleifera
oleka
oli
oliko
olimu
olina
olinnya
olive
oliver
olowooza
olu
oluba
olubaale
olubaawo
olubalama
olubalanguzi
olubembe
olubereberye
oluberyeberye
olubi
olubiri
olubu
olububi
olubugo
olubugumu
olubuguumiriro
olubumbulukuko
olubuto
oludda
oluddako
oludirira
olufungi
olufuufu
olufuzi
olugaanire
olugalamiro
olugalamivu
oluganda
olugendo
olugereeki
olugero
oluggi
olugolokofu
olugoye
oluguudo
olugwa
olugwila
olujegere
olujji
olukalala
olukale
olukalu
olukedde
olukiiko
olukoloboze
olukomera
olukonge
olukontana
olukontano
olukoona
olukoono
olukozesebwa
olukulu
olukumba
olukumi
olukungaana
olukungana
olukusa
olukusense
olukusiko
olukuuma
olukwata
olukwe
olukya
olulaba
olulaga
olulala
olulangira
olulattini
oluliba
oluliko
olulimi
olulimu
olulina
olulumba
olulyo
olumala
olumanyiddwa
olumbe
olumbiddwa
olumu
olunakkati
olunaku
olunene
olungereza
olunnyonnyolo
olunyiriri
olupapula
olupya
olusala
olusasuliro
oluseke
olusekese
olusekkati
olusimba
olusinga
olusinze
olusittalo
olusittavu
olusoggo
olusooka
olusozi
olusu
olusujjasujja
olusuku
olususu
oluswayiri
oluta
olutaambi
olutabaalo
olutabu
olutalo
olutambi
olutatadde
olutayimbwa
olutentezi
olutindo
olutobazi
olutuula
oluusi
oluuyi
oluva
oluvannyuma
oluvanyuma
oluvuganya
oluwanvu
oluwunziko
oluwuzi
oluyengo
oluyimba
oluyitibwa
oluyonaani
oluzaalibwa
oluzaalilanwa
oluzaaliranwa
oluzannya
oluzira
oluzungu
olw
olwa
olwaddako
olwafulumizibwa
olwai
olwaleero
olwali
olwaliko
olwasooka
olwategekebwa
olwatuula
olwazi
olwekusifu
olwekyo
olwensonga
olwesimbu
olwetoloovu
olwewunzifu
olwewunziko
olweza
olwo
olwokuba
olwokubiri
oly
olya
olympic
olympics
olyoka
olyoke
om
omala
omanya
omanye
omanyi
omar
omaze
ombi
omnivorous
omondi
omoro
omu
omuba
omubaaka
omubabiro
omubaka
omubalanguzi
omubalanguzo
omubalirizi
omubazi
omubbi
omubeera
omubeezi
omubi
omubili
omubiri
omubisi
omubitundu
omubugumu
omubukiika
omubumbi
omubuulizi
omubuvanjuba
omuceere
omudaaki
omudaali
omudding
omuddiring
omuddiringanwa
omuddo
omuddugavu
omuddusi
omudiringanwa
omudusi
omuduumizi
omufirika
omufu
omufulumyo
omufunda
omufunza
omufunzo
omufuzi
omugaati
omugabo
omugalamiro
omuganda
omuganyulo
omuganyulwo
omugaso
omugate
omugatte
omugattike
omugattiko
omugejjo
omugendaganyo
omugendanyo
omugendo
omugenyi
omugenzi
omugerageranye
omugerageranyo
omugeranya
omugeranyakikumi
omugeranyo
omugereeso
omugereko
omugeye
omugezi
omugga
omuggundu
omuggya
omugobansonga
omugogo
omugole
omugolokofu
omugombagano
omugongo
omugugu
omugunjufu
omugwa
omugya
omujaaja
omujja
omujjanjabi
omujjuulirizo
omujjuvu
omujoozi
omukaaga
omukadde
omukaga
omukago
omukalu
omukama
omukambwe
omukazi
omukendeezo
omukenkufu
omukiise
omukisa
omukitundu
omukka
omukkutule
omuko
omukolo
omukommonsi
omukono
omukontano
omukoono
omukosiina
omukozi
omukubi
omukubiriza
omukugu
omukujjukujju
omukulembeze
omukulembezze
omukulu
omukumi
omukungu
omukunuukirizo
omukutu
omukutule
omukutulemu
omukuumi
omukuza
omukwafu
omukwanaganya
omukwanaganye
omukwanaganyo
omukwano
omukwasi
omukwataganyo
omukyaala
omukyala
omukyeere
omukyungwa
omulabe
omulabi
omulabirizi
omulaga
omulala
omulamba
omulambo
omulamu
omulamuzi
omulamwa
omulandira
omulangaatira
omulangira
omulele
omulembe
omulembewaza
omulengera
omulenzi
omuli
omulimi
omulimo
omulimu
omuliro
omulonde
omulongoosa
omulongoosabalwade
omulowooza
omuluka
omululuza
omulundi
omulungi
omulunzi
omulwadde
omulwanirizi
omulyango
omumaaso
omumannyifu
omumanyifu
omumasekati
omumbaale
omumbejja
omumerika
omumwa
omumyufu
omumyuka
omunaana
omunabbiri
omunafu
omunakkumi
omunayuganda
omunda
omunebbiri
omunekkumi
omunene
omungereza
omungi
omunnakkumi
omunnayuganda
omunnyo
omunonooza
omunoonyereza
omunoonyerezi
omunoonyeyerezi
omunsiko
omuntu
omunukufu
omunyo
omunyukufu
omupango
omupiira
omupimo
omupya
omurandira
omuriwe
omusaala
omusaayi
omusajja
omusambi
omusana
omusangibwa
omusango
omusanvu
omusasi
omusawo
omusayi
omuseetwe
omusengeke
omusengeko
omusenyu
omusheshe
omusiina
omusimba
omusimbagalo
omusimbalala
omusingi
omusirikale
omusittale
omusittalo
omusoggo
omusolo
omusomesa
omusomi
omusono
omusu
omusujja
omusulo
omusumba
omusungi
omusuubuzi
omut
omutabaganyi
omutaka
omutala
omutali
omutandisi
omutangenta
omutawaana
omutayimbwa
omutebi
omuteeberezo
omuteebi
omuteeko
omuteesa
omutemwa
omutendeke
omutendela
omutendera
omutendesi
omutereevu
omuterekwa
omuti
omutiini
omutima
omutimbagano
omutindo
omuto
omutonde
omutondeko
omutongole
omutonnyeze
omutono
omutontomi
omutonzi
omutoola
omuttaka
omutuba
omutujju
omutukuvu
omutunsi
omutunzi
omututumufu
omutuukirivu
omutwalidde
omutwalo
omutwe
omuvubuka
omuvumbuzi
omuvuzi
omuwaabi
omuwabuzi
omuwagizi
omuwala
omuwandiisi
omuwandisi
omuwanguzi
omuwanvu
omuweereza
omuwemba
omuwendo
omuwere
omuwi
omuwuwuttanyi
omuyambi
omuyembe
omuyigiriza
omuyiiya
omuyimbi
omuyinza
omuyita
omuyitiro
omuyivu
omuyivuwavu
omuyizi
omuzadde
omuzannyi
omuzannyo
omuzanyi
omuze
omuzibizi
omuzibu
omuzibuwavu
omuzigo
omuzikiti
omuzila
omuzimbi
omuzimu
omuzinyi
omuzira
omuzungu
omw
omwaaka
omwaana
omwagaanya
omwagalwa
omwaka
omwali
omwami
omwana
omwangu
omwavu
omweezi
omwefumiitiriza
omwegayirizi
omwenda
omwenge
omwenkanonkano
omwesigwa
omweso
omwetoloovu
omweyoleko
omweyoreko
omwezi
omwo
omwogezi
omwolesi
omwoleso
omwoyo
on
onaabe
once
onduparaka
one
onek
onen
ones
ongera
online
only
onnyonnyola
onnyonnyose
ono
onyango
onywa
onywe
onzima
oped
open
opendi
opens
operation
operations
opinion
opposing
opposite
opposites
opposition
option
oq
or
oral
orange
orbit
orbitals
order
ordered
ordering
ordinal
ordinarily
ordinary
oregon
org
organ
organelles
organic
organisation
organisms
organization
organizations
organs
origin
original
origins
orina
orlando
orogot
orology
oryem
oryx
os
osaana
osala
osanga
osasulwa
osazeewo
oscar
osege
osegedde
osengeka
osigaza
osimba
osindika
osinga
osinziira
osobola
osobole
osoma
osonjola
osooka
ossa
ossaamu
osteomyeritis
ostrava
osuubira
otadde
otaddemu
otafiire
otamanyi
otambula
otandika
otayinza
oteeka
oteekamu
oteekwa
otegedde
otegeera
otegeka
otema
otera
other
others
otim
otondekawo
otti
otto
otulo
otunnu
otunula
oturu
otuuka
otuuse
otwala
otwalidde
otya
oulanyah
oundo
our
ourmusiq
out
outbreak
output
outside
ova
oval
ovary
ove
over
ovuga
ovules
ow
owa
owange
owe
owedda
oweereddwa
owiny
own
owo
owomukwano
owookubiri
owookusatu
owulira
owunyiriza
oxfam
oxford
oxidation
oxide
oxygen
oyagala
oyakhilome
oyam
oyiga
oyimiridde
oyingira
oyinza
oyita
oyo
oyogera
oyongeza
ozone
ozuula
ozzy
p
pa
paaka
paalamenti
paapa
paayi
package
packets
pader
page
pages
pagview
pain
paint
paka
paketi
pakistan
palace
palameenti
palamenti
pallaso
pallisa
palm
pam
pamawards
pamba
pan
papa
paper
papers
paragon
parallel
parallelism
parasitic
parasitology
parent
parents
paris
park
parks
parliament
parliamentarians
parliamentary
parliamentwatch
part
particle
particles
particular
parties
partner
partnership
parts
party
pascal
pass
passes
past
pastor
pastors
paternalism
pathological
pathology
patience
patike
patiki
patra
patri
patrick
patriotic
pattern
patterns
paul
paula
pauline
paulo
pay
payipu
payisoggolaasi
payment
pb
pdf
peace
pearl
pearlpost
pearltimes
penati
peneti
pennsylvania
pentagon
people
peoplepower
peoples
pepper
pepsi
per
percentages
perception
perform
performance
performances
performing
perimeter
period
periodic
periods
permanent
perpendicular
persie
person
personal
persons
perspective
peter
petero
peto
petulooli
pfa
pg
ph
pharmacist
pharmacology
pharmacy
pharse
phase
phd
phenology
phenomena
phenomenon
philadelphia
phillip
philly
philosopher
philosophers
philosophical
philosophy
phonology
phosphorus
photo
photons
photos
photosynthesis
photosystems
php
phrase
physical
physicist
physics
physiology
phytopathology
phytosociology
pi
picks
picture
pictures
pigimenti
pike
pikipiki
pillar
pima
ping
pinky
pipeline
piston
pituitary
place
placeholder
places
plan
plane
planet
planetary
planetology
planets
planktology
planning
plans
plant
planting
plants
plasma
plastic
platform
platinum
play
played
player
players
plays
playwright
ple
plural
plus
pluto
pm
pmldaily
pneumonia
poaceae
poem
poetry
point
points
police
policemen
policies
policing
policy
poliisi
polisi
political
politician
politicians
politics
pollen
polls
polokwane
polotozoowa
polotozowa
polygon
polygons
polyhedron
polynomial
polynomials
pomology
pon
ponda
pool
poola
poor
pop
pope
popular
population
port
portal
portugal
pos
posifalaasi
positiivu
position
positioning
positive
posology
possible
post
postgraduate
posts
potasiyaamu
potassium
potential
pots
pou
poverty
power
powerful
powers
pozitiivu
pp
ppaaliyamenti
ppaka
ppamba
ppda
ppeto
ppipa
ppm
ppulezidenti
pra
practice
practices
prayer
pre
prefix
prefixes
prejudice
premier
premiership
present
presented
presenter
president
presidential
presidents
press
pressure
prestigious
pretoria
prevention
preview
price
pride
primaries
primary
prime
primer
primera
prince
principal
principle
principles
print
prism
prison
prisons
private
prix
prize
pro
probability
problem
problems
process
processes
proctology
procurement
produce
produced
producer
product
production
productions
products
prof
professional
professor
profile
profiles
program
programme
progress
progressive
project
projects
prokaryotes
proline
promote
promoter
promotion
promotions
proper
properties
property
proportion
proportional
proportionality
proportions
proscovia
prosper
protected
protection
protein
proteins
protest
protests
proton
protons
protozoa
protractor
provided
province
ps
psychology
pt
public
publications
publishers
publishing
pulasitiika
pulayimale
puleesa
pulesa
pulezidenti
puliida
pull
pulley
pulmonology
pulofeesa
pulogulaamu
pulogulamu
pulojekiti
pulse
pumpkins
punkuti
pure
purpose
push
put
putin
puzzle
pythagoras
q
quadrilateral
qualifiers
qualitative
quality
quantitative
quantities
quantity
quarks
quarter
queen
queens
question
questions
quick
quinary
quit
quits
quostient
quotient
r
ra
rabadaba
rabbits
rabies
race
races
rachael
racheal
rachel
radar
radiant
radiation
radio
radioactive
radioactivity
radiolog
radium
radius
radoje
ragga
railway
rain
rainbow
rakai
rally
range
ranks
rap
raphael
rapids
rapper
rappers
rasta
rate
rates
ratings
ratio
rational
ratios
raw
ray
rays
rb
rd
rdc
re
reach
react
reaction
reactions
reactors
read
reading
ready
reagan
real
reason
reasoning
rebecca
rebel
receive
receptors
reciprocal
record
records
rectangle
recycling
red
redpepper
reduce
ref
refer
reference
referral
referred
refers
reflected
reflection
reflex
reflexology
refs
refugees
reggae
region
regional
regions
regis
register
registration
reign
relate
related
relating
relation
relations
relationship
relative
release
released
releases
relief
religion
religious
rema
remain
remainder
remember
remix
removing
renewable
repel
replace
report
reporter
reports
represent
representative
representing
reproductive
reptiles
republic
repulsion
required
res
rescue
research
researcher
researchers
reserve
reshuffles
resistance
resistence
resource
resources
respiratory
response
responsible
rest
result
resulting
results
retains
retires
retrieved
return
reuters
reveals
revenue
reverbnation
reverse
review
reviews
revolution
revolutionary
rfa
rfi
rheology
rhoda
rhombus
rhythm
rice
rich
richard
ricinus
rifles
rift
right
rights
ring
rings
rio
ripablik
ripooti
rise
rising
rita
river
rivers
rmx
rna
rnb
road
rob
robbins
robert
robin
rock
rocket
rocks
rod
rogers
roko
role
rolling
roma
roman
rome
ronald
room
root
roots
rose
rosebell
ross
rotary
rotation
rough
round
rounding
row
rows
royal
rpf
rs
rsssf
rt
rtt
ru
rubaga
rubirizi
ruganda
rugby
rugumayo
rugunda
ruhakana
rukungiri
rule
rules
ruling
run
running
runs
rural
russia
rust
ruth
ruyonga
rw
rwanda
rwandan
rwasha
rwenzori
rwigema
rwigyema
s
sa
saafeesi
saako
saawa
saba
sabiiti
sabiti
sabusitansi
safari
safaris
safeesi
saga
saha
sahara
saharan
said
saint
saints
salaam
saladi
sale
saleh
salim
salt
saltmedia
salufa
salutes
salvation
sam
samalie
same
samson
samuel
san
sandra
sandy
santuri
sanyu
sanyuka
sapiens
sarah
satellite
satellites
satifikeeti
sativum
satu
saturday
sauti
save
saving
savio
say
sayans
sayansi
says
saza
sazaamu
sb
sc
scale
scene
scheme
scholarship
school
schools
science
sciences
scientific
scientist
scoops
score
scored
scotland
scottish
screw
scribd
script
sculpture
scurvy
scvu
se
sea
search
season
seat
seattle
sebagereka
sebasitula
sebei
sebo
sebusitansi
sebuzimbe
seclusion
second
secondary
secret
secretary
section
sector
security
sedimentology
see
seed
seeing
seeking
seeta
sefuliya
segawa
segment
segwanga
seismology
sekagya
sekaloopera
sekalowooleza
sekazzi
sekendule
sekindi
sekitoleko
seko
sekonda
sekula
selam
selected
selection
selenology
self
selisiyaasi
semakula
semanda
semantic
semantics
semata
semateeka
semawanga
semayanja
semazinga
semazzi
sembabule
sembule
sembuya
semen
semi
seminary
sempeke
semufu
seng
sengendo
senior
senkulungo
senkuluze
sennyiga
sensa
sense
senses
sensory
sentamu
sente
sentebe
sentensi
sentimiita
senyiga
senyonjo
sepironza
seppeto
seppulingi
septemba
september
septic
sequencing
sera
serbia
serbian
serena
serere
series
seriisiyasi
serinnya
serisiyaasi
seroconversion
seruloozi
seruyanja
serve
service
services
sesban
sesbania
sese
sessomo
set
sets
settendekero
seven
sevenmeters
seventh
several
sewage
sex
sexology
sexual
sexually
seychelles
sezzito
sfn
sh
shabaab
shaban
shabba
shadow
shakira
shame
shanks
shape
shaped
shapes
sharpens
shatsi
she
sheebah
sheila
shell
shells
shelter
sheraton
shield
shilla
shimoni
shop
shopping
short
shortlisted
shot
should
show
showbizuganda
shows
shs
shtml
shuffles
si
siaaaaaaaaaopge
siba
sickle
sicknesses
side
sides
sierra
sigala
sigino
sign
signing
signs
siina
sikaala
sikimanyinkitye
sikiriza
sikituufu
sikonda
sikweya
silent
silimu
silk
silver
simba
similar
simon
simple
simplify
simply
sinach
sinachs
sinakindi
sinayobye
since
sindika
sine
singa
singer
singers
singing
single
siniya
sinks
sipiidi
sipiika
sipiisa
sipongi
sir
siriimu
sirikawo
siriko
sirikoni
sirikooni
sirina
siringi
siriva
sironko
sister
sisters
sitaani
sitakange
sitayiro
site
siteegi
siteero
sites
sitesoni
sitiiru
sitiology
sitoovu
situation
situdiyo
situla
sitya
six
sizoni
sizza
sizzling
sk
skales
skeletal
skills
skin
sky
slanty
sleep
slim
slope
sm
small
smallest
smile
smith
so
soccer
soccerway
social
socialism
societies
society
sociology
soda
sodium
sodiyaamu
sodiyamu
sodo
sofapaka
softpower
soil
soka
solar
solerebels
solid
solids
solo
soluble
solution
solutions
solve
soma
somalia
somatology
some
somero
something
somnology
son
song
songa
songs
songwriter
sonjola
sooka
sophie
soroti
soukous
soul
sound
sounders
source
sources
south
southampton
southern
southwestern
sovereign
soviet
sowaani
soya
space
spain
spanish
spark
spathodea
speak
speaker
speakers
speaking
special
specialreports
species
specific
specioza
spectrum
speech
speed
speke
speleology
sperm
sperms
sphere
spherical
spice
spinal
spiral
spirit
spirits
spiritual
sporozoans
sport
sportbladet
sports
sportscolumnists
spotify
spotlight
spp
springer
springs
sq
sqoop
squad
square
squared
sredojevic
ss
ssa
ssaabalabirizi
ssaabalamuzi
ssaabaminisita
ssaabasajja
ssaabasumba
ssaabawandiisi
ssaabawolereza
ssaako
ssaawa
ssaayansi
ssabalamuzi
ssabamalayika
ssabaminisita
ssabawandiisi
ssabbuuni
ssabiiti
ssali
ssande
ssanyu
ssattu
ssatu
ssawa
ssaza
ssebaana
ssebaaseka
ssebasitula
ssebo
sseddagala
ssefuliya
sseggwanga
ssegujja
ssejjemba
ssekabaka
ssekaloopera
ssekalowooleza
ssekandi
ssekendule
ssekibogo
ssekinnoomu
ssekukkulu
ssemaduuka
ssemanda
ssematalo
ssemateeka
ssematimba
ssemayanja
ssemazinga
ssembabule
ssemogerere
ssempa
ssempijja
ssemujju
ssengendo
sseninde
ssenjovu
ssenkulu
ssensi
ssentamu
ssente
ssentebe
ssentongo
ssenyiga
ssenyonjo
ssenyonyi
sseppuya
sserunkuma
ssese
ssessomo
ssessota
ssetendekero
ssetteeserezo
ssettendekero
ssewa
ssewanyana
ssi
ssiga
ssigala
ssikirizo
ssimbwa
ssimu
ssinga
ssingo
ssiniya
ssinziggu
ssira
ssitakange
sso
ssomabibuuzo
ssomankula
ssomelo
ssomero
ssomo
ssonko
ssowaani
ssozi
ssukaali
ssukweya
ssuubi
st
stable
stacie
stadium
staff
stage
stain
stanbic
standard
standards
star
stars
start
started
startimes
starts
state
statehouse
statement
statements
states
statesman
static
station
statistics
stats
status
stay
steam
stecia
steel
steeplechase
steepness
stella
stem
step
stephen
steps
steve
steven
stick
stiftstidende
still
stimulated
stimulus
stm
stock
stockholm
stone
stop
stored
stories
storm
story
storyid
straight
strategic
strategy
stream
street
streicher
strength
strengthening
stress
striker
strong
struct
structural
structure
structures
struggle
stuart
student
students
studies
studio
studios
study
stuttgart
style
styles
suam
sub
subatomic
subject
subsidy
substance
substances
substitute
success
successful
succession
such
sudan
sue
sued
suffix
suffixes
sugar
sugars
suggestions
sugra
sukaali
sukali
sulfur
sulphur
sum
summary
summer
summit
sump
sumulula
sun
sundance
sunday
sundowns
sunrise
suns
super
supernova
supersport
superstar
superstitution
superstructure
supplement
support
supported
supporters
supreme
supu
surface
surgeon
surgeons
surgery
surprises
survey
survival
susan
sustainable
sustaining
suubi
suzan
sverige
swahili
swamps
swangz
swangzavenue
swaziland
sweden
sweet
swiiden
switzerland
sworn
sydney
sylver
sylvia
symbol
symbols
symmetry
symptomatically
syndrome
synonym
synonyms
synthesize
system
systems
t
taaba
taabulo
taaka
taano
taata
taba
table
tableso
tabulamu
tafaayo
tafuna
tag
take
takes
taking
takisi
takola
takozesa
takozesezza
takyalina
talanta
tale
talent
talented
tali
taliiwo
talina
talk
talks
tamale
tamanya
tamanyi
tamaze
tambula
tame
taminologiya
tanaba
tandika
tandikira
tangent
tangenta
tanka
tannaba
tannadda
tannafa
tannafuuka
tannagenda
tannajja
tannalondebwa
tannatuuka
tannayingira
tannazaalibwa
tanneegatta
tanzania
tanzanian
targettitle
tarsis
task
tasobola
tat
tawuni
tax
taxonomy
tayagala
tayebwa
tayinza
tayogera
te
tea
teacher
teachers
teaching
team
teams
tears
teba
tebaagala
tebaalina
tebaasobola
tebaba
tebafuddeyo
tebalaba
tebalina
tebamanyi
tebannaba
tebannajja
tebasobola
tebiba
tebiri
tebirina
tebisobola
tebuba
tebuli
tebulina
tebusobola
tebutera
technical
techniques
technology
teddy
teebereza
teeka
teenies
teeniez
tegakosa
tegasobola
tegeeza
tegeka
teguba
tegubalibwa
tegumala
tegusobola
tekako
tekalina
tekamu
tekiba
tekijja
tekikola
tekikwata
tekimanyiddwa
tekinnaba
tekinnabaawo
tekinnabawwo
tekinologia
tekinologiya
tekiri
tekiriiwo
tekirina
tekisoboka
tekisobola
tekitegeeza
tekitera
tekola
tekuli
tekunnabaawo
tekyetaagisa
tekyuka
telefayina
telescope
television
televizoni
teli
tell
tells
temala
temperature
template
templates
tempulikya
temuli
ten
tendekero
tensile
tension
terefayina
teri
teriba
terina
terisobola
teritoliya
term
terminologist
terminology
terms
terra
terror
terrorism
teso
tesobola
test
tetanus
tetera
tetulina
tetumanyi
tetusobola
tetutegeeza
tetuyinza
tewaaliwo
tewaba
tewabaawo
tewali
tewaliiwo
tewaliwo
tewandibaddewo
tewayinza
tewerabira
tewetaaga
text
teyali
teyalina
teyandisobodde
teyasobola
teyinza
teziba
tezikula
tezimala
tezirina
tezisobola
teziva
th
than
that
the
theater
theatre
thecitizen
theeastafrican
theguardian
theinsider
their
them
themselves
then
thenextwoman
theology
theorem
theorise
theorize
theory
therapy
there
therefore
theresa
thermal
thermology
thermometer
these
theta
thetowerpost
thetribeug
they
thickness
thing
things
think
thinker
thinkers
thinking
third
this
thomas
those
thought
thoughts
thousand
three
through
thrown
thrust
thursday
ti
tiananmen
ticket
tierney
tiimu
tiiro
tiketi
tikiti
tilahun
time
times
timothy
tin
tiny
tirana
tissues
title
tito
tk
to
toba
tobacco
today
togasseemu
togenda
together
togezaako
tojja
tokoze
tokyo
toli
tolina
tom
tomala
tomanya
tomanyi
tombs
ton
tongue
tonight
toniks
tonnaba
tonny
tons
tony
too
tooki
tools
tooro
top
topic
topics
toplace
topology
toro
toronto
tororo
torque
tosobola
total
totem
totems
tottenham
touch
tour
tourism
tournament
towers
town
toxicology
toyinza
tr
trace
track
tract
trade
traditional
tragedy
tragic
train
training
transboundary
transcriptase
transfer
transfers
transformation
transformations
transition
translated
translates
translation
translations
transmission
transport
transversal
traumatology
travel
treatment
tree
trees
trial
trials
triangle
triangles
tribology
trichology
trigonometry
trigony
trinity
trinomial
triumphs
tropical
true
trumpetnews
trust
truth
ttaala
ttaano
ttabamiruka
ttabi
ttaka
ttakisi
ttale
ttama
ttani
ttawulo
tteeka
ttendekero
ttiimu
ttimu
ttino
ttivi
ttivvi
ttl
ttono
ttuluba
ttundutundu
ttunzi
ttutumu
tu
tuba
tubadde
tubeera
tuberculosis
tubonge
tucker
tufts
tufuna
tufunamu
tugamba
tugambe
tugatta
tugenda
tugende
tugufunako
tujja
tujjamu
tukiraga
tukiyita
tukola
tukozesa
tukozese
tukuba
tulaba
tulabye
tulaga
tulakita
tuli
tulina
tulinamu
tulowooza
tuluba
tulya
tumala
tumanya
tumanyi
tumaze
tumukunde
tumusiime
tumuyita
tumwebaze
tunisia
turbine
turkey
turn
turned
turning
turns
turyahikayo
tusaana
tusabire
tusalira
tusangamu
tusigala
tusinza
tusker
tusobola
tusobole
tusoma
tusooke
tussa
tutandika
tutandike
tutasobola
tuteekawo
tutegeeza
tutera
tuti
tutwaliramu
tutya
tuwandiika
tuwangaalira
tuyinza
tuyita
tuyungako
tuziyita
tv
twagala
twala
twalabye
twali
twaweza
twetaaga
tweyambisa
twice
twinobusingye
twitter
two
twogera
type
types
typhoid
typology
tyre
tyubu
tz
u
uace
uae
ubc
uce
ud
udo
udoma
uefa
ufa
ug
uga
uganda
ugandaat
ugandadecides
ugandan
ugandans
ugandaonline
ugandapmstemplate
ugandaradionetwork
ugandas
ugchristiannews
ugo
ugpulse
ugx
uhuru
uk
ukkonika
ukpressonline
ulcers
ultraviolet
umony
un
unaids
unc
under
undercover
understand
understanding
undo
undp
unesco
union
unique
unit
united
units
unity
univasite
universal
universe
university
unla
unlike
unopposed
unrecognized
unrf
unstable
unta
until
unveiling
unveils
up
upc
upcoming
updated
updf
uploads
upper
ura
uranium
uranus
urban
urbanhype
urinary
url
urogenital
ursb
us
usa
use
used
useful
ush
using
usl
utc
uu
uwa
uwopa
v
va
vaccine
vacuum
vakisini
valence
valency
valley
valu
value
values
vampa
vampawengwa
vampino
vamposs
van
vanguardngr
vapour
variable
variables
variation
various
vatican
vatomu
vatone
vatopo
vayilaasi
vayiraasi
vayola
vector
vegetation
vehicology
velocity
venerated
venus
verb
verbs
vernacular
veronica
vertebrae
vertex
vertical
very
vi
vibration
vicariate
vice
victor
victoria
victory
video
vidiyo
vienna
vietnam
view
viga
vii
viii
viini
vikaliyeeti
villa
village
villages
vincent
vinka
violence
vipers
viral
virgil
virology
virtues
virunga
virus
viruses
visa
viscocity
viscosity
visible
visiblepolls
vision
visiongroup
visit
visits
visram
vitamiini
vitamin
vitamini
vitamins
vivi
viyiraasi
vladimir
vocational
vogue
voice
voices
vol
volima
volleyball
volume
vote
voted
voters
vp
vs
vu
vuvuzela
vva
vvu
w
wa
waabwe
waakiri
waako
waakyo
waali
waaliwo
waaliyo
waayitawo
waayo
waazo
waba
wabaawo
wabaddewo
wabeerawo
wabeerayo
wabula
wabulongota
wabwe
wabweeru
wabweru
wabyo
wadada
wadde
wadri
waffe
wafula
waggulu
wagulu
wait
waiting
wajja
wajjawo
waka
wakati
wakiri
wakiso
wako
wakyaliwo
wakyo
wala
walala
wales
wali
waligo
waliifu
walina
waliw
waliwo
waliyo
walk
walker
wall
walter
walugembe
walugi
walumbe
walusimbi
waluyanja
wamala
wamanga
wambuzi
wamma
wammanga
wamu
wandera
wandibadde
wandiika
wanga
wange
wangi
wannema
wano
wansi
want
wants
wantu
wanume
wanvu
wanyana
wanyange
wapakhabulo
war
warden
warming
warszawa
was
washington
wasswa
waste
watch
watchdoguganda
wateekwa
water
watera
watomu
watt
wattu
wava
wave
waves
way
waya
wayback
wayini
wayinza
wayise
wayiseewo
wayo
wazo
wbs
we
wealth
weapons
weasel
weasle
weather
web
webaali
webarchive
website
webusayiti
webuuza
webuuze
wedge
week
weekend
weekly
weetaaga
weetegereze
weewale
wegendereze
weight
wekengedde
wekenneenya
wekenneenye
wekka
wekubisaamu
wekwase
welcome
welfare
well
wemanyiize
wennyini
were
wesanga
wesiga
west
western
wetaaga
wetaagisa
wetegereza
wetegereze
wetisse
wetlands
wewale
weyali
weyambisa
weyongerayo
what
wheel
when
where
which
while
white
who
whole
whose
why
wife
wiiki
wiingi
wiki
wikimedia
wikipedia
wikiproject
wilberforce
wild
wildlife
will
william
williamson
wilson
win
wind
winds
wine
winifred
winner
winners
winnie
winning
wins
wires
wisdom
wise
with
within
without
wits
wo
wofiisi
wokisigeni
wokisijeni
woman
women
womens
won
wonder
wong
wonna
wood
woodard
woofiisi
wooteri
word
wordpress
words
work
workers
working
works
world
worldathletics
worldcat
worry
worship
worth
woteeri
wougnet
would
woyiro
wozoni
wp
wright
write
writers
writing
writings
written
wrong
wuliriza
wuuma
wwf
www
x
xenobiology
xfm
xhtml
xi
xii
xiii
xinhuanet
xiv
xix
xml
xv
xvi
xvii
xviii
xx
xxi
xxxi
xylology
y
ya
yaabwe
yaabwo
yaabyo
yaadi
yaafeesi
yaago
yaakamala
yaakyo
yaalwo
yaalyo
yaayo
yaazo
yababinywera
yabadde
yabanga
yabeera
yabeeranga
yabeerera
yabwe
yabwo
yabyo
yadda
yaddamu
yaddayo
yadde
yaddira
yadduka
yaddukira
yafa
yaffe
yafiira
yafiirwa
yafuga
yafuka
yafuluma
yafulumizibwa
yafulumya
yafumbirwa
yafuna
yafunamu
yafunira
yafuuka
yafuukira
yafuulibwa
yagaana
yagamba
yagatta
yagenda
yagezaako
yaggyibwa
yagibwa
yagifuna
yagifunira
yagisomera
yagitandika
yagoba
yagobwa
yagulawo
yagwo
yagyo
yajja
yajjira
yakakasa
yakakasibwa
yakifuna
yakiikirira
yakikola
yakizuula
yakkiriza
yakkirizibwa
yakola
yakolako
yakolanga
yakolebwa
yakolera
yakolerako
yakolerayo
yakomawo
yakoze
yakozesa
yakuba
yakubiriza
yakubwa
yakula
yakulembera
yakulemberamu
yakulira
yakulirako
yakutandika
yakutandikira
yakuzibwa
yakwata
yakwatibwa
yakyo
yakyusa
yakyusibwa
yalaba
yalabanga
yalabibwako
yalabika
yalabikira
yalabikirako
yalaga
yalagira
yalangirira
yalangirirwa
yalayizibwa
yaleeta
yaleka
yalekulira
yalemererwa
yali
yaliko
yalimu
yalina
yalinyisibwa
yaliwo
yalonda
yalondebwa
yalowooza
yalumbibwa
yalyo
yamala
yamalira
yamaliriza
yamanyika
yamba
yammwe
yamugaso
yamulonda
yamuwa
yamuyita
yandibadde
yange
yannyonnyola
yasaba
yasalawo
yasamba
yasambira
yasanga
yasibibwa
yasigala
yasigaza
yasiima
yasiimibwa
yasikira
yasikirizibwa
yasikirwa
yasikizibwa
yasinga
yasisinkana
yasobola
yasoma
yasomako
yasomera
yasomerako
yasomesaako
yasooka
yassa
yasubwa
yatambula
yatandiika
yatandika
yatandikawo
yatandikibwawo
yatandikira
yateeba
yateebera
yateebwa
yateeka
yateekawo
yateekebwa
yateesa
yategeeza
yategeka
yatekawo
yatekebwa
yatendekebwa
yatikirwa
yatikkirwa
yatonda
yatondawo
yatondebwawo
yatongoza
yatta
yattibwa
yatulugunyizibwa
yatuuka
yatuukako
yatuula
yatuulira
yatuuma
yatuumibwa
yatuuzibwa
yatwala
yatwalibwa
yava
yavaayo
yaviirako
yavuganya
yavumirira
yavumirirwa
yavunaanibwa
yawa
yawaayo
yawagira
yawakanya
yawandiika
yawandiikibwako
yawangula
yawangulira
yawangulwa
yawasa
yawe
yawebwa
yaweebwa
yaweereza
yaweerezaako
yaweerezako
yaweerezebwa
yawereza
yawerezaako
yawerezako
yawula
yawummula
yayagala
yayamba
yayambako
yayambibwako
yayatiikirira
yayawukana
yayimba
yayimbira
yayingira
yayingizibwa
yayisa
yayita
yayitamu
yayitibwa
yayitibwanga
yayo
yayogera
yayongera
yayongerako
yazaala
yazaalibwa
yazalibwa
yazannya
yazannyira
yazannyirako
yaziikibwa
yazimba
yazo
yazuula
yazzibwa
ye
year
years
yeasts
yebulungudde
yebulunguddwa
yebuuza
yee
yeebase
yeebuuza
yeegasse
yeegata
yeegatta
yeenyigira
yeesimbawo
yeesimbyewo
yeetaaga
yeetaba
yeewala
yeeyali
yeeyongera
yeeyongerayo
yeeyunga
yefumiitiriza
yegatta
yegeyege
yekengera
yekenneenya
yekka
yekubagiza
yellow
yemu
yena
yenga
yenkana
yenkanankana
yenna
yennyini
yensi
yenyigidde
yenyigira
yesigamye
yesimbawo
yesu
yet
yetaaga
yetaagibwa
yetaagisa
yetaba
yetoloola
yetoloolera
yetoolatoola
yeyali
yeyalinga
yeyambisa
yeyawangula
yeyisa
yeyolekera
yeyongera
yeyongerayo
yezu
yiga
yiika
yikweta
yindasitule
yindigo
yingini
yinginiya
yinginiyologia
yingira
yinsi
yinsuwa
yintaneeti
yintaneti
yintegya
yisaaya
yisirayiri
yita
yitale
ykee
yo
yobuswavu
yogera
yokka
yona
yongerezaako
yonna
yoona
york
you
young
your
youth
youtube
yoweri
yuganda
yukrein
yulaniyaamu
yulaniyamu
yumbe
yunivaasite
yunivasite
yusuf
z
za
zaabu
zaabwe
zaabyo
zaafuuka
zaagala
zaake
zaali
zaalimu
zaatandika
zaavudde
zaayo
zaazo
zabbuli
zabwe
zabyo
zaffe
zaire
zakaria
zamba
zambia
zange
zannya
zanzibar
zawedde
zayo
zazo
ze
zebaali
zee
zeero
zeetaaga
zegatta
zegattisa
zenkanankana
zennyini
zero
zetaaga
zetoloola
zeyali
zeyongerayo
zi
ziba
zibaamu
zibaawo
zibadde
zibeera
zidda
ziddirira
zifaanagana
zifulumya
zifuna
zifuuka
zigamba
zigenda
zigendana
ziggaasi
ziggy
zijja
zikiikirira
zikola
zikolebwa
zikoma
zikomekkereza
zikozesa
zikozesebwa
zikubibwa
zikula
zikulila
zikuuma
zikwata
zikwatagana
zikwataganye
zili
zilina
zimala
zimbabwe
zimu
zingirako
zinno
zino
ziraga
ziragibwa
zireeta
zireetawo
zireetera
ziri
ziriko
zirimu
zirina
ziringa
zirintusa
ziro
zirya
zisangibwa
zisasulwa
zisengekeddwa
ziseyeeya
zisigala
zisinga
zisobola
zisobole
zisobozesa
zisooka
zitandika
zitandikira
ziteeka
ziteekebwa
zitera
ziti
zitondekawo
zitonya
zituuka
zituwa
zitya
zityo
ziva
zivaako
zivaamu
ziviirako
ziwa
ziweebwa
ziyamba
ziyingiza
ziyinza
ziyite
ziyitibwa
zize
zizimba
zizze
zo
zokka
zomba
zombi
zombo
zomwezi
zona
zone
zoning
zonna
zooarchaeology
zoology
zoopathology
zoopsychology
zuena
zuula
zymology
zzaabu
zze
zzina
zziwa
zzo
{
|
}
~
£
°
²
·
º
¼
½
¾
×
÷
ło
ŋ
ŋŋoma
ə
ˈ
ː
̀
́
̂
̃
̄
̆
̈
̊
̌
̦
̧
̨
̸
͂
β
π
ω
َ
‎
‐
–
—
‘
’
“
”
•
…
′
″
€
™
→
↔
↷
−
√
∝
≤
≥
③
④
⑦
⺀
⺄
⺆
⺈
⺊
⺌
⺕
⺝
⺸
⺼
⿰
⿱
⿲
⿳
⿴
⿵
⿶
⿷
⿸
⿹
⿺
⿻
〢
゙
コ
ユ
ー
㇁
㇂
㇄
㇇
㇈
㇉
㇓
㐁
㐄
㐅
㐌
㐫
㐬
㐭
㐮
㐱
㑒
㒵
㒸
㒼
㓁
㓞
㔾
㕛
㕣
㖾
㘝
㚅
㚇
㚔
㚘
㝉
㝡
㝴
㝵
㞋
㞢
㞷
㠩
㠭
㠯
㡀
㡭
㡿
㢲
㢴
㣇
㣺
㥯
㪅
㫄
㫐
㫒
㫺
㬅
㬎
㬥
㬰
㲋
㳄
㷠
㸒
㸚
㸦
㼌
㼲
㽞
㿟
䀠
䂞
䍃
䏍
䒑
䖍
䖒
䖝
䖵
䙴
䚻
䜌
䝿
䡛
䧹
䪞
一
丁
丂
七
丄
丅
丆
万
丈
三
上
下
丌
不
与
丏
丐
丑
专
且
丕
世
丘
丙
业
东
丞
丢
丣
两
严
並
丨
丩
个
丫
丬
中
丮
丰
丱
串
丵
丶
丷
丸
丹
为
主
丽
丿
乀
乂
乃
久
乆
乇
么
义
之
乌
乍
乎
乏
乐
乑
乔
乖
乗
乘
乙
乚
乛
乜
九
乞
也
习
乡
乳
乾
亀
亅
了
亇
予
争
事
二
亍
于
亏
亐
云
互
亓
五
井
亘
亚
亜
亞
亟
亠
亡
亢
交
亥
亦
产
亨
亩
享
京
亭
亮
亯
亰
亲
亳
亶
亷
人
亻
亼
亾
仁
今
介
仌
从
仐
仑
仒
仓
仕
他
付
仝
代
令
以
任
企
伊
伏
伐
休
会
伯
但
位
何
佘
余
作
佥
使
來
侈
侌
侖
侯
侵
便
保
俞
信
修
倉
倍
候
倠
備
僉
僕
儿
兀
允
兂
元
兄
充
兆
兇
先
光
兊
克
兌
免
兑
兒
兓
兔
党
兜
兟
入
全
兩
兪
八
公
六
兮
兰
共
关
兵
其
具
典
兹
兼
冀
冂
冃
冄
内
冈
冉
冊
冋
册
再
冎
冏
冐
冒
冓
冖
冗
冘
军
农
冝
冡
冥
冫
冬
冷
几
凡
凢
凵
凶
凷
凸
凹
出
函
凾
刀
刁
刂
刃
刄
刅
分
切
刍
刑
刕
刖
列
刘
则
初
別
利
别
到
制
刺
則
削
剌
前
剡
剽
劉
力
功
加
劦
助
劫
劳
劵
勃
勇
勉
勒
動
務
勞
勤
勹
勺
勻
勾
勿
匀
匂
包
匆
匈
匊
匋
匍
匕
化
北
匚
匝
匡
匪
匱
匸
匹
区
医
匽
匿
區
十
卂
千
卄
卅
卆
升
午
卉
半
卌
华
卑
卒
卓
单
卖
南
卜
卝
卞
占
卡
卢
卣
卤
卦
卩
卪
卬
卯
印
危
即
却
卵
卷
卸
卻
厂
厃
厄
历
厈
厉
厌
厓
厘
厚
原
厤
厥
厨
厭
厲
厶
厷
厸
去
厼
厽
叀
参
參
叅
又
叉
及
友
双
反
叐
发
叒
叔
叕
取
受
叚
叜
叟
口
古
句
另
叩
只
召
可
台
叱
史
右
叵
号
司
叹
吂
各
吅
合
吉
吊
吋
同
名
后
吏
向
吕
君
吝
吞
否
含
启
吳
吴
吹
吾
呂
呆
呈
告
员
呙
周
命
咅
和
咎
咠
咢
咨
咸
咼
哀
品
哉
員
哥
哲
唐
商
啇
問
啚
啬
啻
善
喜
喬
單
喿
嗇
噩
嚴
囊
囗
囘
囙
囚
四
回
囟
因
囧
囬
困
囱
囷
固
国
圂
圅
國
圍
圓
土
圡
圣
圥
在
圭
地
圶
圼
坐
坒
坚
坴
垂
垔
垚
埀
埋
埶
執
基
堂
堅
堆
堇
堯
塞
墨
壘
士
壬
壯
声
壳
壴
壹
壺
壽
夂
处
夅
夆
备
夊
夋
夌
复
夏
夒
夕
外
夗
夘
多
夜
夢
大
夨
天
太
夫
夬
夭
央
失
夲
头
夷
夸
夹
夻
夾
奂
奄
奇
奈
奉
奎
奏
奐
契
奓
奔
奚
奞
奠
奢
奥
奭
女
奴
奻
好
如
妄
妙
妟
妥
妻
妾
姑
委
姜
威
娄
婁
婴
嬰
嬴
子
孑
孔
孕
孖
字
存
孚
孛
孝
孟
季
孤
学
孫
孱
學
宀
宁
宂
它
宅
宇
守
安
宋
完
宏
宓
宗
官
定
宛
宜
宝
客
宣
室
宮
宰
害
家
容
宾
宿
寄
寅
密
富
寒
察
寧
審
寫
寬
寮
寸
对
寺
寻
寽
対
寿
封
尃
射
将
將
專
尉
尊
尋
尌
對
小
少
尒
尓
尔
尖
尗
尚
尞
尢
尣
尤
尧
尨
尭
就
尸
尹
尺
尻
尼
尽
尾
尿
局
居
屈
屋
屎
屏
屑
展
屖
屚
属
屠
屡
屬
屮
屯
屰
山
屵
屾
岁
岂
岑
岡
岩
岳
岸
峯
島
崇
崑
崔
崖
崙
崩
嵬
嶲
巂
巛
川
州
巟
巠
巢
巤
工
左
巧
巨
巩
巫
差
己
已
巳
巴
巷
巸
巽
巾
巿
帀
市
布
希
帚
帛
帝
带
師
席
帶
常
干
平
年
幵
并
幷
幸
幺
幻
幼
幽
幾
广
広
庄
床
底
店
庚
府
度
庫
庭
庶
康
庸
廉
廌
廛
廣
廩
廴
延
廷
建
廾
廿
开
弁
弃
弄
弇
弋
式
弓
弔
引
弗
弘
弜
弟
弥
弦
弱
張
強
强
彊
彌
彎
彐
彑
当
彔
录
彖
彗
彡
形
彥
彦
彧
彭
彳
役
彼
往
待
律
徒
得
徙
從
復
微
徵
心
忄
必
忌
忍
志
忝
忠
忩
快
念
忽
忿
思
怠
急
怱
恆
恒
恩
恭
息
悉
患
悤
悲
悶
惠
惡
惢
愁
愈
意
愛
感
慈
慧
慮
憂
憲
應
戀
戈
戉
戊
戋
戌
戍
戎
成
我
戒
戔
或
戚
戠
戢
截
戲
戶
户
戹
戼
戾
房
所
扁
扇
手
扌
才
打
托
执
承
折
拉
拜
拿
掌
推
提
摩
支
攴
攵
收
攸
改
放
政
敄
敏
敕
敖
敗
敝
敞
敢
散
敦
敫
敬
数
敷
數
斂
文
斉
斊
斗
斤
斥
斩
斬
斯
新
方
於
施
斿
旁
旋
族
无
旡
既
旣
日
旦
旧
旨
早
旬
旱
旲
时
旾
昆
昇
昌
昍
明
昏
易
昔
昗
昜
星
春
昬
是
昱
昴
昷
時
晃
晋
晏
普
景
晶
智
暑
暴
曇
曩
曰
曲
曳
更
曷
書
曹
曼
曾
替
最
朁
會
月
有
朋
服
朔
朕
朗
望
朝
木
朩
未
末
本
札
朮
术
朱
朵
朶
朿
杀
杏
杜
束
条
来
東
杲
杳
松
析
林
枚
果
枝
枲
枼
某
柔
查
柬
柰
柴
栗
桀
桑
桼
梁
條
梟
梨
棘
棠
棥
森
楚
業
楽
榮
樂
樊
欠
次
欣
欮
欲
欶
欽
款
歆
歇
歛
止
正
此
步
武
歨
歪
歮
歯
歰
歲
歴
歷
歸
歹
歺
死
殳
段
殷
殸
殹
殺
殻
殿
毋
毌
母
每
毒
比
毕
毚
毛
毳
氏
氐
民
气
氣
水
氵
氶
氷
永
氺
氾
求
汝
汞
江
沃
沓
沙
沝
泉
法
波
泣
泥
泰
洛
洪
活
派
流
浦
浪
浮
淡
淮
清
渚
渠
湯
滿
漸
火
灬
灭
灰
灵
灷
炅
炎
炏
炗
炙
炭
為
烈
烏
烝
焉
無
焦
焱
然
煞
熊
熏
燕
營
燮
爪
爫
爭
爯
爰
爱
爲
爵
父
爻
爽
爾
爿
片
牙
牚
牛
牜
牟
牢
牧
牪
牽
犀
犬
犭
犮
狂
狄
狊
独
狺
猋
猒
猪
献
獻
玄
率
玉
王
玟
玨
珎
班
琴
瑟
瑩
瓜
瓦
甘
甚
生
産
用
甫
甬
田
由
甲
申
电
甶
男
甸
甹
画
甾
畀
界
畏
畐
留
畜
畟
畢
畧
畨
番
畫
異
畱
當
畺
畾
疊
疋
疌
疑
疒
疾
癶
癸
癹
登
發
白
百
皀
皃
的
皆
皇
皋
皐
皕
皮
皷
皿
盃
盆
盇
盈
益
盍
盎
监
盒
盖
盛
盡
監
盤
盧
目
直
相
盾
省
眇
眉
看
眔
眞
真
眷
眼
眾
着
睘
睪
睿
瞏
瞢
瞿
矍
矛
矞
矢
矣
知
矦
短
石
破
碎
磊
磨
示
礻
礼
祟
票
祭
禀
禁
禸
禹
禺
离
禽
禾
禿
秀
秃
秉
秋
科
秝
秦
移
稟
穀
穌
穴
究
穹
空
穿
突
窄
窒
立
竒
竜
竝
竟
章
童
竹
笑
笠
筆
等
答
箕
算
箴
節
篤
篭
米
粉
粛
粟
粤
粦
粲
糞
糸
糹
系
約
納
素
索
紫
累
細
絜
絫
絲
維
綿
縣
繇
纍
纟
缶
网
罒
罔
罕
罗
罙
罡
罢
罪
署
罷
羅
羊
羌
羍
美
羔
羕
羗
羞
羡
羣
群
義
羲
羸
羽
翁
翏
習
翕
翟
翠
翼
老
耂
考
者
耆
而
耎
耑
耒
耳
耴
耶
耷
聂
聊
聖
聚
聶
聿
肀
肃
肅
肉
肖
肙
肥
肩
肯
育
肴
胃
背
胡
胥
能
脊
脩
膚
臣
臤
臧
自
臬
臭
臯
臱
至
致
臺
臼
臽
臾
臿
舀
舂
舄
與
興
舉
舌
舍
舛
舜
舞
舟
般
艮
良
色
艸
艹
艾
芒
芔
芬
芮
花
芳
芺
芻
苔
苗
苟
若
苦
英
茶
茸
荅
草
荒
荣
荼
莆
莧
莫
莽
菆
菊
菐
華
萬
落
葉
著
葛
董
葵
蒙
蒦
蒼
蓋
蓬
蓺
蔑
蔡
蕉
蕭
薄
薛
薦
薰
藍
藏
藥
蘭
虍
虎
虐
虒
虔
處
虖
虗
虘
虚
虛
虜
虞
虫
虽
蚤
蚩
蜀
蜜
蟲
蠡
血
行
衍
衛
衣
衤
表
衮
衰
袁
袞
褭
褱
襄
襾
西
覀
要
覃
見
規
覓
覧
親
覽
见
角
解
言
訁
訇
計
詹
誩
諸
讠
谷
豆
豈
豊
豐
豕
豖
豙
象
豦
豩
豪
豸
貇
貝
貞
貟
負
貢
貧
貪
貫
責
貳
貴
買
費
賁
資
賈
賏
賓
賔
賛
賞
賢
賣
質
賴
贊
贝
贡
责
贯
贲
贵
赖
赞
赤
赦
走
越
足
路
蹇
身
躬
車
軍
軎
軟
輦
车
辛
辜
辟
辥
辰
辱
農
辵
辶
边
达
过
近
连
迷
追
退
送
逆
逐
通
速
造
逢
連
逮
進
遀
遂
過
道
達
遣
適
遷
遺
邊
邑
邕
那
邦
邪
郎
部
郭
都
鄉
酉
酋
配
酓
釆
采
里
重
野
量
金
釒
錢
钅
長
镸
长
門
閃
閉
開
閏
閑
閒
間
閔
閵
閻
闌
门
间
闷
阑
阜
阝
阿
降
陳
隆
隊
隋
隡
隨
隱
隶
隹
隺
隻
隼
隽
难
雀
雁
集
雈
雋
雍
雐
雔
雙
雚
雜
雝
離
難
雨
雩
雪
雲
零
雷
需
霍
霜
霝
霞
霸
靈
靑
青
非
靡
面
靣
革
韋
韦
韭
韯
韱
音
頁
頃
項
須
頗
頡
頻
顛
页
風
风
飛
飞
食
飠
養
饣
首
香
馬
馮
駦
马
骨
高
髟
鬥
鬯
鬲
鬼
魚
魯
鮮
鱼
鲁
鳥
鳳
鸟
鹵
鹿
麃
麗
麥
麦
麻
黃
黄
黍
黎
黑
黒
黨
黹
黽
黾
鼎
鼓
鼠
鼻
齊
齋
齐
齒
齿
龍
龙
龜
龟
龠
龰
龱
龴
龵
龶
龷
龸
龹










者
艹
﻿
？
𠀁
𠀃
𠀆
𠀉
𠀎
𠀐
𠁁
𠁣
𠂆
𠂇
𠂈
𠂉
𠂊
𠂋
𠂎
𠂒
𠂔
𠂛
𠂡
𠂢
𠂤
𠂬
𠂭
𠂹
𠃊
𠃋
𠃌
𠃍
𠃎
𠃑
𠃓
𠃔
𠃜
𠄌
𠄎
𠄠
𠄢
𠆢
𠆥
𠇍
𠈌
𠌵
𠓜
𠔉
𠔥
𠔼
𠔽
𠔿
𠕀
𠕁
𠕋
𠘧
𠘨
𠙻
𠙼
𠚏
𠚒
𠚤
𠚪
𠣏
𠤎
𠤕
𠥓
𠦄
𠦑
𠦝
𠧒
𠧗
𠧪
𠩺
𠪚
𠫓
𠫔
𠫤
𠬛
𠬝
𠬞
𠬢
𠬤
𠬶
𠮛
𠮦
𠮷
𠯑
𠱠
𠳮
𠷎
𡈼
𡉀
𡉵
𡌥
𡍮
𡏳
𡕒
𡕩
𡕰
𡖅
𡗗
𡗜
𡘆
𡘤
𡧱
𡨄
𡩧
𡬠
𡭽
𡰣
𡰥
𡰪
𡰯
𡰱
𡷈
𡸁
𡿨
𡿩
𡿪
𡿺
𢀖
𢀛
𢀩
𢁙
𢆉
𢆰
𢆶
𢇁
𢇇
𢉖
𢌬
𢌿
𢏚
𢑑
𢑚
𢖻
𢙣
𢛳
𢦏
𢦒
𢧵
𢼄
𢾕
𣁋
𣄼
𣅀
𣅽
𣍘
𣎳
𣎵
𣏋
𣏼
𣗥
𣥂
𣥖
𣦵
𣦼
𣧄
𣪊
𣪠
𣬉
𣳾
𣶒
𤇾
𤊽
𤐫
𤓰
𤔔
𤕨
𤣩
𤰇
𤰔
𤰞
𤴓
𤴔
𤽄
𥁑
𥁕
𥃦
𥃩
𥃭
𥇡
𥑟
𥘅
𥘈
𥝢
𥫗
𥱡
𦈢
𦉪
𦉬
𦉼
𦍌
𦍒
𦎧
𦐇
𦓔
𦔮
𦘒
𦙃
𦚏
𦣝
𦣞
𦣻
𦥑
𦥔
𦥯
𦨉
𦭝
𦰩
𧆞
𧈧
𧘇
𧰨
𧴪
𧴮
𧵩
𧾷
𨸏
𨾴
𩙿
𩠐
𩫏
𩵋
𪉷
𪜀
𪟽
𪠲
𪩲
𫇦
𫔭
𫜸
𫝀
𫠣
𫠩
𫢉
𫥞
𫩏
𫩠
𫪡
𫲽
𫶧
𬀷
𬐘
𬗌
𬙙
𬛸
𬜯
𬟩
𬯁
𬴘
𬺻
𬼉
𬼖
𭀰
𭁈
𭁨
𭅰
𭑈
𭕄
𭗼
𭤨
𭥫
𭻾
𮅕
𮊿
𮍌
𮍏
𮓗
𮥼
𮧮
廾
𰀁
𰀄
𰀈
𰀉
𰀕
𰀠
𰀡
𰀢
𰀪
𰁜
𰃮
𰆊
𰆘
𰋙
𰕎
𰢴
𰧭
𰯲
07--
11--
12--
13--
14--
15--
16--
17--
18--
19--
20--
22--
23--
30--
31--
32--
33--
34--
38--
39--
40--
42--
43--
45--
47--
49--
51--
55--
56--
58--
59--
60--
61--
62--
63--
66--
68--
69--
71--
74--
78--
85--
a--
aa--
ab--
aba--
abaga--
abagu--
abana--
abat--
abavu--
abayam--
abe--
abi--
abis--
abit--
abo--
abu--
ac--
acqui--
ad--
advan--
af--
afa--
ag--
aga--
agat--
agatu--
age--
aggu--
agi--
ago--
agr--
air--
ajju--
ak--
aka--
akazi--
akee--
aki--
akim--
akit--
aku--
akula--
akus--
akwa--
aky--
akya--
al--
ali--
all--
alo--
alon--
alu--
am--
ama--
amag--
amo--
amu--
an--
ana--
ange--
anti--
appea--
apt--
ar--
arc--
ari--
art--
as--
ash--
asi--
asis--
assi--
astr--
at--
atabi--
atad--
atandiki--
ate--
att--
atu--
atuu--
au--
ava--
avu--
aw--
awa--
awe--
awo--
awu--
ay--
ayi--
ayo--
aza--
azi--
aziy--
azuu--
azzi--
b--
ba--
baaki--
baamu--
baba--
bac--
back--
bad--
bago--
bagu--
baka--
bake--
baki--
bakk--
baku--
bala--
balambu--
bali--
balu--
bama--
bamu--
bana--
banna--
bannassoma--
bapulo--
bar--
bas--
basa--
base--
basi--
bat--
bavu--
bay--
baz--
bazi--
bba--
bbe--
bbizine--
bbu--
be--
bees--
beesim--
ber--
bey--
beyo--
bi--
big--
bii--
bio--
bira--
bis--
bisa--
bise--
bisi--
bit--
bite--
bitu--
biy--
bizimbi--
bla--
blo--
bo--
booger--
br--
bre--
bro--
bru--
bu--
bubuga--
bud--
buf--
bufu--
buge--
bugye--
buj--
buju--
buka--
buken--
buko--
buku--
bul--
bulabi--
buny--
bur--
bus--
busa--
busi--
but--
butaa--
butuu--
buu--
buwe--
buy--
bwa--
bwe--
bwenk--
bweya--
bweyo--
bwo--
bya--
bye--
byo--
c--
ca--
cad--
cam--
can--
carp--
cc--
ce--
ch--
chi--
chic--
ci--
cl--
co--
colu--
com--
con--
contr--
contri--
cooper--
cor--
cot--
cov--
cra--
cro--
crocodi--
cs--
ct--
cu--
cy--
d--
da--
daily--
dd--
de--
dele--
dem--
dep--
deter--
di--
dial--
dif--
dis--
disitu--
div--
do--
dr--
du--
dw--
e--
ea--
eb--
eba--
ebbi--
ebbu--
ebi--
ebigoot--
ebigu--
ebii--
ebij--
ebiko--
ebiku--
ebikyankal--
ebim--
ebir--
ebira--
ebis--
ebisi--
ebisuu--
ebit--
ebitee--
ebiwa--
ebiy--
ebizi--
ebizii--
ebya--
ebye--
ebyo--
ec--
eco--
ed--
ee--
ef--
eg--
egi--
egit--
egizi--
egu--
ei--
ej--
ejju--
ek--
eka--
eki--
ekidd--
ekifa--
ekig--
ekina--
ekinn--
ekipima--
ekira--
ekisi--
ekiso--
ekit--
ekitu--
ekiwa--
ekizi--
ekke--
ekkumino--
ekol--
ekoo--
eku--
ekubi--
ekula--
eky--
ekya--
ekyef--
ekyoku--
el--
elec--
electro--
electros--
eli--
emb--
emer--
emi--
emizi--
emm--
emp--
empu--
emu--
emy--
en--
ena--
endaga--
enf--
enfu--
eng--
enj--
enjo--
enke--
enko--
enky--
enn--
enne--
enny--
enr--
ensi--
ensu--
enta--
entaba--
ente--
enterp--
entomeg--
enyi--
enzili--
ep--
er--
era--
eri--
erira--
ery--
erya--
eryo--
es--
esi--
esom--
essoma--
esu--
et--
eter--
etondo--
ett--
etu--
etun--
eva--
ew--
ewa--
ewer--
ewu--
ex--
exhi--
experim--
explos--
ey--
eya--
eye--
eyenk--
eyo--
ez--
eza--
ezi--
ezibbu--
ezif--
ezim--
ezira--
ezis--
ezisi--
ezit--
ezitambu--
ezitazzi--
ezo--
f--
fa--
fai--
far--
fe--
feesi--
fer--
ff--
fi--
fin--
fit--
fix--
fizi--
flo--
for--
fr--
fru--
fu--
fut--
g--
ga--
gabu--
gaf--
gag--
gaku--
gas--
gat--
gate--
ge--
gen--
geos--
ggal--
gi--
git--
gite--
giyin--
global--
go--
gon--
good--
gra--
gradu--
grass--
gu--
guf--
guken--
gur--
gut--
gutu--
guyin--
guzi--
gwa--
gwe--
gweya--
gwo--
gya--
gye--
gyo--
h--
ha--
happ--
he--
hi--
high--
ho--
hon--
honour--
hu--
hy--
hydro--
i--
ide--
im--
imp--
in--
incl--
indi--
influ--
inha--
inn--
inspi--
inst--
install--
int--
inter--
ir--
is--
it--
j--
ja--
jja--
jol--
ju--
k--
ka--
kabo--
kafu--
kal--
kala--
kand--
kap--
kar--
kase--
kat--
kate--
katu--
kay--
kazi--
ke--
key--
ki--
kiba--
kibu--
kic--
kidda--
kig--
kiga--
kigatti--
kigera--
kij--
kiko--
kiku--
kimu--
kin--
kinna--
kip--
kir--
kiro--
kiru--
kis--
kisan--
kise--
kisi--
kiso--
kisu--
kit--
kite--
kitege--
kitom--
kitu--
kiwa--
kiy--
kiya--
kizi--
kk--
ko--
ku--
kuba--
kubi--
kubu--
kuddi--
kuf--
kufu--
kuga--
kuju--
kuka--
kuki--
kuko--
kuku--
kule--
kulu--
kumu--
kun--
kur--
kusa--
kusi--
kuso--
kuw--
kuwe--
kuwu--
kuy--
kuyi--
kuzi--
kuzimbu--
kwa--
kwe--
kwo--
kya--
kyaga--
kye--
kyebo--
kyeya--
kyeyono--
kyo--
la--
land--
lay--
layi--
le--
len--
li--
libo--
lire--
lisi--
lite--
livu--
lo--
lu--
luj--
luku--
lus--
lut--
lute--
luy--
luz--
lwa--
lwe--
lwo--
lya--
lymp--
lyo--
m--
ma--
mag--
mal--
man--
math--
mba--
mbe--
mc--
me--
mer--
mi--
mid--
min--
miri--
misi--
mito--
mitokyo--
miy--
mm--
mo--
mono--
mor--
mp--
mu--
mudd--
mugu--
muj--
muka--
mule--
mulya--
mun--
munna--
munnassoma--
musi--
mut--
mute--
mutu--
muwa--
muy--
muz--
muzi--
mw--
mwa--
mwe--
mwo--
mwoyogwa--
my--
myri--
n--
na--
naa--
nabu--
nac--
naf--
nag--
nai--
naitwoki--
naka--
nakavu--
naki--
nakyenk--
nalu--
nama--
namu--
nan--
nans--
nansan--
nar--
nayitu--
naza--
nd--
ndaga--
ne--
neba--
nebamu--
nebi--
nega--
net--
neu--
neuro--
new--
news--
ney--
nfa--
nfuu--
ng--
nga--
ni--
nilo--
nit--
nj--
nji--
nk--
nkom--
nku--
nkwa--
nkwe--
nm--
nn--
nnakavu--
nno--
nny--
nnyuki--
no--
not--
note--
ns--
nsi--
nt--
ntaba--
ntuu--
nu--
nvu--
ny--
nyu--
nzi--
o--
ob--
oba--
obayi--
obi--
obit--
obu--
obubu--
obufa--
obukala--
obuku--
obula--
obunn--
obuse--
obut--
obutaa--
obutas--
obutasal--
obute--
obuzi--
obwa--
obwe--
oby--
of--
ofu--
og--
ogi--
ogit--
ogo--
ogu--
ogud--
ogug--
oguj--
oguk--
ogukwatag--
ogulu--
ogusi--
oguyi--
ogwa--
oki--
okite--
okkak--
okkiri--
oko--
oku--
okuba--
okubi--
okubo--
okubu--
okubuda--
okubuu--
okubye--
okufu--
okuga--
okuggyi--
okugi--
okugu--
okuji--
okuka--
okukaka--
okuki--
okuko--
okukye--
okuli--
okulu--
okuma--
okumu--
okunyu--
okusa--
okusasa--
okusi--
okusuu--
okuta--
okute--
okutu--
okuvu--
okuy--
okuyo--
okuzi--
okuzimbu--
okw--
okwa--
okwe--
okweb--
okwef--
okweg--
okweja--
okwek--
okwet--
okweya--
oky--
okyekeb--
ol--
oli--
olu--
olw--
olwa--
olwo--
olymp--
om--
omu--
omuka--
omule--
omulu--
omuna--
omut--
omuza--
omuzi--
omw--
omweg--
on--
oppor--
or--
os--
osem--
osi--
osim--
oso--
osuu--
ot--
ote--
otege--
oto--
otu--
otunuu--
out--
over--
ovu--
ow--
owa--
owe--
owo--
oy--
oyi--
oyimiri--
oyo--
ozi--
ozif--
ozza--
p--
pa--
paleo--
pam--
pan--
para--
paw--
per--
pet--
ph--
phili--
pi--
pic--
pil--
pla--
play--
pm--
po--
pol--
pot--
potasi--
pp--
pre--
prev--
prim--
pro--
prose--
psycho--
pu--
pula--
pulo--
pur--
pyra--
q--
qu--
quin--
r--
ra--
re--
rece--
requi--
res--
reti--
retro--
rev--
rho--
ri--
ribo--
ro--
round--
ru--
rw--
s--
sa--
saaba--
saba--
sad--
sam--
sanit--
sc--
se--
seki--
sen--
sepa--
set--
sh--
sharp--
si--
sii--
siki--
sili--
sit--
ski--
smo--
so--
soc--
sp--
spel--
spi--
squ--
ss--
ssa--
ssaba--
sse--
sseb--
ssen--
sser--
ssi--
ssoma--
st--
stimu--
su--
sub--
sun--
super--
sur--
suu--
sw--
swe--
sy--
symp--
t--
ta--
tak--
tana--
tanna--
tat--
tay--
te--
teba--
tebann--
tebi--
techno--
tegu--
teka--
tele--
ten--
tet--
tewa--
teya--
teze--
tezi--
th--
the--
thri--
ti--
to--
toki--
ton--
top--
tr--
tra--
tran--
trans--
tri--
trill--
tro--
tti--
tu--
tugi--
tuki--
tuku--
tusin--
tute--
tutu--
tuzi--
tw--
twa--
twe--
u--
ug--
un--
up--
ur--
uti--
v--
va--
ven--
ver--
vi--
vib--
vic--
vir--
vo--
vol--
vu--
vy--
w--
wa--
wabe--
wag--
was--
wave--
we--
web--
wet--
wey--
wo--
world--
x--
xx--
y--
ya--
yaaka--
yaba--
yag--
yaggi--
yagyi--
yaka--
yaki--
yaku--
yala--
yale--
yali--
yamu--
yasa--
yasi--
yaten--
yatonde--
yatu--
yavu--
yawa--
yawu--
yay--
yaya--
yazi--
yazimbi--
ye--
yee--
yeesi--
yeeya--
yet--
yett--
yey--
yeyo--
yi--
yo--
z--
za--
ze--
zee--
zeeyo--
zetaa--
zeyo--
zi--
ziba--
zif--
zikuu--
ziky--
zise--
zisi--
zit--
zite--
zitu--
zo--
--0
--08
--1
--12
--16
--2
--22
--28
--3
--31
--332
--36
--39
--4
--44
--5
--53
--556
--56
--59
--6
--63
--67
--7
--72
--76
--8
--9
--94
--a
--aala
--aamu
--aba
--abi
--abika
--able
--ache
--ad
--ae
--afa
--afu
--age
--agga
--agi
--agira
--ah
--aka
--ako
--akulana
--al
--ala
--ale
--ali
--ally
--alo
--alu
--am
--amira
--amu
--an
--ana
--anana
--ance
--ani
--ano
--ant
--ants
--anya
--anyisiganya
--ar
--ard
--as
--asa
--asi
--asira
--aso
--at
--ata
--ate
--ation
--ator
--avu
--awa
--awe
--awo
--ay
--aya
--ayo
--aza
--aze
--azi
--azole
--b
--ba
--badde
--baka
--bbuka
--be
--bejje
--bererwa
--bi
--bira
--birwa
--bisa
--bo
--boggolera
--bola
--bra
--bu
--buga
--buko
--bula
--bulwa
--bunizo
--burg
--buuza
--buzi
--buzz
--bwa
--bwamu
--bwe
--by
--bya
--bye
--c
--ca
--cal
--ce
--cent
--ces
--ch
--ci
--ck
--cks
--co
--code
--cs
--ct
--cy
--d
--da
--dde
--ddeko
--ddemu
--ddewo
--ddirira
--ddiwa
--ddwa
--de
--debwawo
--dedde
--deka
--dekebwawo
--demu
--dewo
--di
--diope
--dium
--do
--domola
--dron
--ds
--du
--dwa
--dy
--e
--ea
--eae
--ebi
--ebonga
--ebwa
--ebwe
--ed
--edde
--eddwa
--eebereza
--eeka
--eeko
--eera
--eere
--eesa
--eeta
--eeza
--ega
--egeela
--egeevu
--egeeza
--ek
--eka
--eke
--ekeddwa
--ekera
--eko
--ekuusa
--el
--ell
--em
--ema
--eme
--en
--ence
--ene
--enga
--eni
--enic
--ening
--enium
--ens
--eous
--er
--era
--ere
--ereza
--ero
--ers
--eru
--erwa
--es
--esa
--ese
--esi
--eso
--ess
--est
--estry
--et
--eta
--etebwawo
--etolooza
--evu
--ewo
--ewuunyisa
--ey
--eyunga
--eza
--eze
--ezebwa
--f
--fa
--fayo
--fc
--ffa
--fic
--frika
--fu
--fuluma
--fumiitiriza
--fumiitririza
--fuuka
--fuula
--fuya
--g
--ga
--gabi
--gadde
--gako
--gala
--gambe
--gambo
--gana
--ganamu
--gane
--ganira
--ganya
--ganyampewo
--ganye
--ganyi
--ganyizibwa
--ganyo
--gate
--gattisa
--gavu
--gaza
--gazi
--ge
--gedde
--gejja
--ger
--gera
--gere
--geredde
--gerera
--gereza
--gero
--gerwa
--geza
--gezi
--gga
--ggo
--ggula
--ggwa
--ght
--gi
--gibwa
--gic
--giddwa
--gies
--gira
--girwa
--gisa
--go
--goga
--gole
--govu
--gs
--gu
--gula
--guzi
--gwa
--gy
--h
--ha
--he
--hed
--hood
--hop
--ht
--https
--hy
--i
--ia
--ial
--iba
--ibuka
--ibwa
--ic
--ical
--id
--idde
--ie
--ied
--ies
--iga
--ige
--iika
--iira
--ijja
--ika
--ike
--iki
--ikibwa
--ikibwawo
--iko
--ikwa
--il
--ila
--illa
--im
--ima
--imba
--imi
--imu
--in
--ina
--indika
--ine
--ing
--ingira
--ings
--ini
--inya
--io
--iology
--ion
--ious
--ir
--ira
--irako
--iramu
--ire
--iri
--iriddwa
--irira
--irirwa
--irivu
--iriza
--irizi
--iro
--iroodi
--irwa
--is
--isa
--ise
--ish
--isi
--isibwa
--ism
--ist
--ists
--it
--ita
--itance
--ite
--iti
--ities
--itious
--ity
--ium
--ive
--ivu
--iya
--iyiza
--iyo
--iza
--ization
--ize
--ized
--izi
--izibwa
--izing
--izo
--izza
--izzi
--j
--ja
--jaalo
--jaba
--je
--jeemu
--ji
--jja
--jjawo
--jje
--jjere
--jjo
--jjuvu
--jo
--jola
--jole
--jovu
--ju
--k
--ka
--kabirungi
--kako
--kala
--kalu
--kamu
--kana
--kanya
--kanyizibwa
--kasa
--kasibwa
--ke
--kebe
--kebejja
--kebwa
--kebwawo
--keddwa
--kera
--kere
--ki
--kibwa
--kiddwa
--kiise
--kima
--kira
--kirwa
--kizo
--kka
--kkira
--kkiririza
--kku
--kkulizo
--ko
--kole
--kolebwa
--kondo
--koomo
--kooye
--kooza
--kosa
--kosi
--kozi
--ks
--kti
--ku
--kudde
--kufu
--kugiro
--kujjukujju
--kula
--kule
--kumi
--kusifu
--kutte
--kuukuutivu
--kuusiza
--kuza
--kya
--kyala
--kyebwa
--kyuka
--l
--la
--laala
--lako
--lala
--lali
--lamu
--land
--langa
--laze
--lazo
--ld
--le
--lebwa
--led
--ledde
--lee
--leeta
--leetebwa
--leka
--lekedde
--lekera
--lembe
--lemesa
--lemu
--lenzi
--ler
--lera
--ley
--leza
--lf
--li
--lia
--libwa
--libwamu
--libwawo
--lic
--lidde
--liga
--liiro
--liki
--lina
--ling
--lira
--lirizibwa
--liro
--liya
--lla
--lle
--lo
--loga
--logy
--lokole
--loola
--ls
--lu
--luku
--lukufu
--lukuku
--lum
--luma
--lumya
--lumye
--lungi
--lwa
--lwamu
--ly
--m
--ma
--magi
--mal
--mala
--man
--mawo
--maze
--mazzi
--mba
--mbayo
--mbe
--mberwa
--mbi
--mbibwa
--mbiddwa
--mbira
--mble
--mbo
--mbula
--mbulula
--mbye
--me
--media
--ment
--mera
--merusa
--mesa
--mi
--mifu
--mira
--mise
--mivu
--miza
--mo
--mon
--mpi
--mpitawa
--mpuni
--mu
--mubiri
--muka
--mula
--muwa
--muweebwa
--mwa
--my
--mya
--mye
--myufu
--myuka
--n
--na
--naana
--nafu
--nal
--nan
--nana
--nary
--nawo
--nce
--nces
--ncy
--nd
--nda
--ndaze
--nde
--ndebwa
--ndesi
--ndi
--ndiika
--ndiikibwa
--ndiikiddwa
--ndiisa
--ndika
--ndo
--ndu
--ndwa
--ne
--ned
--neenya
--nenya
--ner
--news
--ng
--nga
--ngaala
--ngaalira
--ngako
--ngana
--nganya
--nge
--ngera
--ngereza
--ngi
--ngibwa
--ngirizi
--ngo
--ngs
--ngu
--ngudde
--nguka
--ngula
--ngulwa
--nguza
--nguzo
--ni
--nia
--nibwa
--nica
--nie
--nika
--ning
--nira
--nirira
--nirirzi
--nirizi
--nirwa
--nisa
--nity
--nium
--nja
--njaba
--njabiddwa
--nje
--nji
--njo
--njovu
--nkana
--nna
--nniiya
--nnya
--nnyalazo
--nnye
--nnyeze
--nnyi
--nnyisa
--nnyisibwa
--no
--nolo
--noona
--noonyereza
--ns
--nsa
--nsi
--nt
--nta
--ntanyi
--nti
--ntly
--nto
--nts
--ntu
--nty
--nvu
--nwa
--ny
--nya
--nyalaza
--nye
--nyereza
--nyi
--nyifu
--nyiga
--nyigira
--nyikiddwa
--nyiriza
--nyirizaako
--nyisa
--nyiza
--nyizibwa
--nyizibwamu
--nyo
--nyola
--nyolwa
--nyu
--nyufu
--nywa
--nza
--nze
--nzi
--nzira
--o
--od
--odi
--of
--oga
--ogo
--ogram
--ogy
--oids
--oka
--ola
--ole
--olo
--ology
--oloola
--ometer
--omo
--omu
--on
--ona
--onal
--one
--oni
--ons
--onya
--onye
--oola
--oosa
--op
--or
--ored
--orm
--orous
--ors
--os
--osa
--ot
--ota
--oto
--oul
--ous
--out
--ovu
--ow
--owu
--oya
--oye
--oza
--oze
--ozi
--p
--pa
--pi
--piira
--po
--post
--ppa
--pt
--pu
--pulaazi
--q
--r
--ra
--raaniganye
--raanye
--raanyeewo
--rabu
--radio
--rako
--ramu
--ranwa
--ranya
--ranye
--ranyizza
--rawo
--rayo
--rd
--re
--red
--reeta
--reka
--rekera
--reko
--ren
--rera
--rere
--rerwa
--reza
--rezi
--ri
--ria
--rical
--ridde
--riddeko
--ries
--rika
--rimu
--rina
--rine
--rira
--ririza
--rirwa
--riza
--rizaamu
--rize
--rizi
--rizo
--rizza
--ro
--rs
--rt
--ru
--rwa
--rwamu
--rwo
--ry
--ryo
--rzo
--s
--sa
--saamu
--saana
--saayi
--sani
--sawaza
--se
--sebwa
--seka
--sembayo
--sezza
--sh
--si
--sibwa
--sigamye
--siimba
--sika
--sinza
--sinze
--sion
--sis
--sisa
--sitaayo
--siza
--sizi
--sm
--so
--sobola
--sobozesa
--sobozese
--soga
--sogga
--son
--soose
--ss
--ssa
--st
--stic
--su
--sukka
--sula
--susse
--swa
--t
--ta
--taaga
--taaganya
--taagisa
--taali
--tadde
--tan
--te
--tebe
--ted
--teebi
--teeka
--teeke
--teekebwa
--teekebwawo
--tegeevu
--tegekebwa
--tegereza
--teka
--temu
--ter
--tera
--th
--ti
--tic
--tics
--ties
--tikka
--tikkirwa
--tiko
--tindo
--tion
--tions
--tira
--tisse
--tive
--to
--toloola
--toloovu
--toloozo
--ton
--tono
--tor
--ts
--tta
--ttavu
--tte
--tti
--ttisa
--tto
--tty
--tu
--tugerekerwa
--tugga
--tuka
--tukuvu
--tula
--tulwa
--tume
--tunda
--tuuka
--tuukira
--tuukirivu
--tuuma
--tuuti
--tuuza
--tuza
--tv
--ty
--tya
--tz
--u
--ual
--ubo
--ucing
--udde
--ue
--uel
--ues
--ufu
--ug
--ujje
--ujjo
--uka
--ukira
--ukka
--uku
--ula
--ular
--ulata
--ule
--uli
--ulire
--ulu
--um
--uma
--ume
--umi
--umu
--una
--unda
--undu
--ungula
--unula
--ure
--us
--usa
--usi
--usibwa
--ut
--uto
--uufu
--uuka
--uuma
--uumizi
--uza
--uze
--uzi
--uzo
--v
--va
--val
--vanga
--ve
--veera
--ves
--vi
--viirako
--viiramu
--ving
--vo
--vu
--vubuka
--vudde
--vugo
--vuma
--vumula
--vve
--w
--wa
--waggula
--wangula
--wanika
--wavu
--wawo
--waza
--waze
--we
--wedde
--weebwa
--wera
--west
--wewufu
--weza
--wi
--wide
--wo
--woko
--woman
--wooza
--woozaako
--wozaako
--wufu
--wuka
--wula
--wule
--wumula
--wuna
--wunga
--wunzifu
--wuza
--wuzi
--wuzo
--x
--y
--ya
--yaamu
--yaga
--yala
--yambe
--yamu
--yawudde
--ye
--yekera
--yi
--yigila
--yigira
--yigirako
--yika
--yima
--yimba
--yina
--yingiza
--yingizo
--yini
--yira
--yiriro
--yirwa
--yisa
--yisaamu
--yise
--yisiti
--yiti
--yitiridde
--yitirivu
--yiwa
--yiza
--yizi
--ymes
--yo
--yoleka
--yolekera
--yorekera
--yukufu
--yumirwa
--yunira
--yute
--ywa
--z
--za
--zaako
--zaala
--zaamu
--zanga
--zanyira
--ze
--zesa
--zese
--zeso
--zi
--zibwa
--ziganya
--zimbe
--ziso
--zizza
--zo
--zu
--zz
--zza
--zzi
