!
"
#
##0
##1
##10
##11
##12
##13
##14
##15
##16
##17
##18
##19
##2
##20
##21
##22
##23
##24
##25
##26
##27
##28
##29
##3
##30
##31
##32
##33
##34
##35
##36
##37
##38
##39
##4
##40
##41
##42
##43
##44
##45
##46
##47
##48
##49
##5
##50
##51
##52
##53
##54
##55
##56
##57
##58
##59
##6
##60
##61
##62
##63
##64
##65
##66
##67
##68
##69
##7
##70
##71
##72
##73
##74
##75
##76
##77
##78
##79
##8
##80
##81
##82
##83
##84
##85
##86
##87
##88
##89
##9
##90
##91
##92
##93
##94
##95
##96
##97
##98
##99
$
%
&
'
(
)
*
+
,
-
.
/
0
00
000
01
011
02
021
03
04
05
06
060
07
08
09
1
10
100
1000
1001
11
110
11000
12
129
13
130
132
14
140
15
150
1500
158
16
160
165
17
170
178
18
180
19
1914
1927
195
2
20
200
2000
2001
2003
2005
2006
2007
2008
2009
2010
2011
2012
2013
2014
2015
2016
2017
2018
2019
202
2020
2021
2022
2023
206
21
212
22
23
24
25
250
2500
26
260
27
28
288
29
290
3
30
300
31
32
33
34
35
350
36
360
361758
37
38
381
39
4
40
400
4000
41
42
43
44
45
450
46
468
47
48
49
5
50
500
5000
51
52
53
54
540
55
56
57
58
59
6
60
600
63
65
66
68
69
7
70
7000
71
74
772
773
8
80
800
85
87
88
9
90
900
91
92
:
;
=
?
@
[
]
_
a
able
about
academy
access
accomplishing
accordance
according
accredited
acer
active
actively
activities
activity
acts
addition
additionally
administrative
adoption
adventure
affairs
africa
after
agenda
aim
akademija
aktivnosti
aktuelno
aleksandar
all
also
among
amount
an
analysis
and
annual
another
any
appropriate
april
arabic
archive
archives
are
article
articles
arts
as
assembly
assets
assistant
association
at
attention
attract
attracting
available
awards
awareness
b
balkan
based
basic
be
because
become
been
being
belgrade
beograd
beograda
beogradu
beside
better
between
bi
biblioteka
bine
birthday
biti
blog
board
boards
both
broader
brought
bug
business
but
by
c
camp
can
capacities
capacity
cc
cee
centar
center
centra
certain
cet
chapters
cilj
citizen
citizens
clear
codes
collecting
com
come
commons
communication
communications
communities
community
competition
competitions
complete
completed
conducts
conference
conferences
contact
content
continuation
continue
cooperation
cooperations
copyright
could
create
creating
creation
creative
creativecommons
cultural
current
d
da
data
database
day
days
de
debates
decision
decisions
defined
details
develop
developing
development
digital
direct
directions
director
diversity
do
document
documentation
documents
dom
drus
due
dungodung
during
duties
e
each
earth
economy
edit
editing
editors
edu
educating
education
educational
elected
employee
employees
en
enable
enables
enabling
encyclopedia
endowment
engage
english
enje
ensure
establish
established
establishing
etc
eur
event
events
every
executive
existing
exit
expect
expected
expedition
expert
f
fabrika
facebook
faculty
fakultet
family
fields
filip
finalist
financial
first
focus
following
for
form
fotografije
foundation
founded
four
free
freedom
from
fulfilling
full
functioning
future
g
galerija
galleries
gallery
gap
gender
general
give
given
giving
glam
global
gmail
gnu
goal
goals
godina
godine
goldfinger
good
google
gopro
gorana
government
governmental
grants
greater
group
groups
guslarevic
gymnasium
h
had
harassment
has
have
he
held
help
here
heritage
high
hiring
his
history
hold
holding
home
how
however
hp
hr
http
https
human
i
ic
iconia
icteachers
ideas
if
implementation
importance
important
improve
improving
in
inc
include
included
includes
including
increase
increases
increasing
independent
info
information
informed
innovation
institut
institute
institution
institutions
intellectual
intends
interest
interested
intermedichbo
internal
international
internet
into
introducing
ip
is
issues
it
italian
its
ivana
iz
j
ja
je
jovan
jpg
justuser
k
kancelarija
kao
ki
kind
knowledge
ko
koje
koji
konkvistador
kreativnost
l
language
large
last
lasts
later
law
learning
least
lecture
lectures
led
legal
level
lgbt
lib
libraries
library
licenses
licensing
like
lists
ljudi
local
logo
loves
m
made
madzarevic
magacina
main
make
making
maljkovic
manager
mandate
many
marebg
markovic
matematic
material
materials
mathematics
may
means
media
meeting
member
members
meta
millosh
milos
mission
mk
montenegro
months
monuments
more
most
mostly
movement
mrez
much
museum
museums
muzej
n
na
nacionalni
name
naslovi
national
natural
nauka
nauku
ne
near
neboysha
necessary
needs
neodređeno
neprofitno
nestranac
net
network
networking
nevladino
new
news
nezavisno
ni
nikola
nis
no
non
not
noticed
novi
now
number
o
objective
objectives
obligations
obliged
od
of
office
official
omladine
on
one
online
only
open
or
order
org
organizacija
organizacijama
organization
organizations
organize
organized
organizers
organizing
osnovano
ostale
ostalim
other
otherwise
our
own
p
papers
part
participants
participate
participation
partner
partners
parts
party
pc
pdf
people
period
person
photo
photographs
photos
physical
pilot
place
plan
planned
planning
plans
platform
png
pokreta
policies
policy
posao
positive
possible
potential
praxis
present
president
presidium
press
previously
problems
procedure
process
professional
professors
profit
program
programa
programs
project
projects
projekat
projekta
projektima
promote
promoting
promotion
property
provide
prva
public
publishing
pupils
purpose
q
qr
quality
quantity
r
rac
rad
radi
radionica
razmena
razvoja
reach
read
realizacije
ref
regarding
region
regional
regular
related
relations
relevant
reporter
republic
research
residence
resources
results
rex
rights
room
rs
rules
s
sa
sadrz
same
sanu
saradnji
sasa
scg
school
schools
science
sciences
scientific
se
secretary
seecult
seminars
serbia
serbian
session
several
share
should
simic
similar
since
site
skup
slobodnog
smaller
smolenski
so
social
society
some
sony
space
specific
sr
srbije
srpska
srpske
srpski
srs
staff
standards
start
started
state
statistics
status
statute
stewards
strategic
strategy
strengthening
students
su
successful
such
supervision
support
supporters
supporting
svetozar
svg
t
take
taking
target
tb
teachers
teaching
technical
technology
term
terms
tesla
texts
th
than
that
the
their
them
there
these
they
this
thon
those
three
through
throughout
time
tina
to
topics
training
trainings
tvo
two
u
uc
udruz
ukljuc
umetnosti
umrez
unarskog
under
universities
university
univerzitet
univerzitetska
unlimited
up
urban
usd
use
used
user
users
using
v
very
vesti
video
viki
vikimedija
vikimedije
vikimediji
vikimedijinim
vikipedije
vikipediji
visibility
voli
volunteer
volunteers
vreme
vux
w
was
way
ways
we
web
week
well
were
what
when
where
which
who
wider
wiki
wikigap
wikilive
wikimania
wikimedia
wikinews
wikipedia
wikipedian
wikipedians
wiktionary
will
with
within
wle
wlm
wm
wmrs
women
words
work
working
workshop
workshops
world
would
write
writing
www
x
y
year
years
you
your
z
za
zaduz
zapis
znanja
zvanic
{
}
£
§
©
«
­
°
»
́
̂
̌
а
абурас
авала
август
августа
августу
агенција
агенције
агенцијом
ада
адам
адама
адаму
адвокат
административне
администратор
адреса
адресе
адреси
адресу
академске
академски
академског
академском
аката
ако
аконтације
акредитација
акредитован
акредитовани
акредитованог
акта
активан
активни
активних
активније
активно
активност
активности
активностима
актуелан
актуелна
актуелне
актуелни
актуелним
актуелних
актуелно
акценат
акција
акцијама
акције
акцији
акцију
алата
александар
александра
александри
александру
алексић
али
алис
ало
алфа
амбасада
амбасаде
амбасадор
амбасадора
амбасадоре
амбасадори
амбасадорима
амброзић
америчких
ана
анализа
аналогне
ангажман
ангажован
ангажовани
ангажовања
ангажовање
ангажовању
ангелина
андреја
ани
анимирање
анка
анкета
антанасијевић
антић
антонић
ану
анчики
анђела
анђелка
анђелковић
апликација
аплицира
април
априла
априлу
арапска
арапске
арапски
арапско
арапског
арапском
арна
арт
архив
архива
архиве
архиви
архивима
архивирања
архивом
архивске
архивских
архивску
архиву
аспект
аспектима
астра
аудио
аутобуских
аутоматски
аутомобила
аутор
аутора
аутори
ауторка
ауторке
ауторска
ауторским
ауторских
ауторског
ауторском
африке
африком
африци
афричке
ацо
б
баве
бави
база
базе
базу
банке
бар
батерија
батутова
бачком
башта
баште
баштине
бајта
бајтова
бања
бг
бгб
бгд
без
безбедности
београд
београда
београде
београдска
београдске
београдски
београдским
београдског
београдском
београдској
београду
берлин
берлину
бесплатан
бесплатна
бесплатно
бета
би
библиотека
библиотекама
библиотекар
библиотекара
библиотекаре
библиотекари
библиотеке
библиотеком
библиотеци
била
билдинг
биле
били
било
билтен
био
биографија
биографијама
биографије
биодиверзитет
биолошки
биолошког
бира
бирати
бирају
бисмо
бисте
бити
битно
бих
бихаљи
биљака
биљана
биљних
биће
бићима
бк
благајница
благо
благовремено
близу
блиц
блица
блог
блога
блогу
блутут
богатија
богатијег
богић
бодова
бозало
бонус
бор
боравка
борба
борбе
бору
босна
ботаничка
ботаничке
ботова
бошко
бојан
бојана
бојани
бојану
боље
бољег
бољем
бољи
бр
браловић
бране
бранислав
бранислава
браниславу
бранка
бранко
брајковић
брдских
брзанско
брзо
брине
брисање
брише
бришу
брошура
брошуре
број
броја
бројем
бројне
бројни
бројним
бројних
бројности
броју
бугарске
бугарски
буде
буду
будуће
будућем
будући
будућим
будућих
будућност
будућности
будућом
булевар
булевару
бум
буне
бургић
буха
буџет
буџета
в
важан
важе
важи
важне
важно
важност
важности
ваздухопловства
вам
вама
ван
ванредна
ванредне
ванредној
вас
васпитања
васпитне
ваучер
ваучера
ваучери
ваучером
ваше
вашој
вашу
ваљево
ваљевске
веб
вежбање
веза
везана
везане
везани
везаним
везаних
везе
вези
везу
век
века
велика
велике
велики
великим
велико
великог
великом
великој
велику
величина
величини
величковић
венац
веома
вера
верзија
верзијама
верзије
верзији
верзију
вероватно
верујемо
веселиновић
весић
весна
вест
вести
вестима
вечерње
вечерњих
вештина
вештине
вејлс
вељко
већ
већа
веће
већег
већи
већим
већина
већином
већину
ви
виганд
виде
видео
видети
види
видику
видите
видова
виду
видљивост
видљивости
визе
визит
визија
визуелног
вики
викиверзитет
викивести
викивестима
викигеп
викизворник
викизин
викиизворник
викиизворнику
викикњигама
викикњиге
викилајв
викиманија
викиманији
викимедија
викимедијанаца
викимедијанског
викимедијанце
викимедијанци
викимедијанцима
викимедије
викимедији
викимедијин
викимедијина
викимедијине
викимедијини
викимедијиним
викимедијиних
викимедијиног
викимедијином
викимедијиној
викимедијину
викимедијом
викимедију
википедија
википедијама
википедијанац
википедијанаца
википедијанка
википедијанска
википедијанца
википедијанце
википедијанци
википедијанцима
википедијанцу
википедије
википедији
википедијом
википедију
википодатака
википодатке
википодацима
викиречник
викиречника
викиречнику
викицитат
викицитати
висини
висок
висока
високо
високом
високој
виша
више
вишер
вишејезичке
виши
владан
владимир
владимира
владислав
влаовић
власништву
влм
вмрс
воде
водених
води
водич
возила
возилом
воле
воли
волонтер
волонтера
волонтере
волонтери
волонтеризам
волонтерима
волонтерка
волонтерке
волонтерска
волонтерске
волонтерски
волонтерских
волонтерском
волонтирања
волонтирање
вођа
вођама
вође
вођење
вођењу
војводина
војводине
војводини
војводину
војвођанских
војвођанског
војиновић
воље
вољу
врата
врање
врању
врбас
врбаса
врбасу
вредна
вредне
вредни
вредности
врело
време
времена
временом
временски
временском
времену
врло
врста
врстама
врсте
вртови
врше
врши
вршити
вук
вукашин
вукићевић
вуковић
вучићевић
вучковић
вујичић
г
га
галерија
галеријама
галерије
галерији
галерију
гајић
где
генерални
генералног
географија
географије
географске
географски
географским
географског
геолошком
геоморфологију
гимназија
гимназијалац
гимназијама
гимназије
гимназији
гимназијом
гинисова
главна
главне
главни
главној
глам
глас
гласа
гласала
гласале
гласали
гласало
гласао
гласати
гласају
гласања
гласање
гласањем
гласању
гласи
гласова
гласом
глобална
глобалне
глобални
глобално
глобалног
глобалном
глобалној
глуме
говоре
говори
говорила
говорили
говорило
говорио
говорити
говориће
година
годинама
године
години
годину
годишња
годишње
годишњег
годишњи
годишњим
годишњих
голија
голији
гомирац
гора
горан
горана
гораном
горе
горенаведеним
горива
гору
горња
горњи
госпођа
гост
гости
гостију
гостовала
гостовали
гостовао
гостовања
гостовање
гостовању
готово
гошћа
гојко
град
града
градова
градовима
градска
градски
градског
градском
граду
граница
граници
грант
гранта
грантове
грантовима
грантом
грађа
грађана
грађе
грађевине
грађу
грешке
грза
грин
група
групама
групе
губитак
губитка
гугл
гудовић
гусларевић
д
да
давали
давање
давањем
давању
даворин
дакле
дала
дали
дан
дана
данас
данашњице
данило
данима
дану
дао
дарко
дат
дата
дати
дато
датом
датотека
датотеке
датум
датума
дахија
даје
дају
даље
даљем
даљи
даљу
два
двадесет
двадесете
дванаесте
две
двогодишњем
двогодишњи
дводневни
двосмерна
двосмерне
двосмерну
двоје
дебате
деведесет
девет
девета
девете
деветнаесте
деветој
девуар
дела
делатност
делатности
дели
деликатесни
дело
делова
деловања
делове
делом
делу
делује
делфен
делфи
денара
део
десет
десета
десете
десетине
детаљан
детаље
дефинисаних
децембар
децембарску
децембра
децембру
деценија
децентрализација
дечанска
дечанској
дешавања
дешавањима
дејан
дејли
дељења
дељење
дељењу
дивљи
дигитализација
дигитализације
дигитализацији
дигитализацијом
дигитализацију
дигитализован
дигитализована
дигитализоване
дигитализованих
дигитализовано
дигитална
дигиталне
дигитални
дигиталном
дигиталну
дизајн
дизајна
димић
динамичан
динара
динарида
динарској
динић
дипломе
дипломирани
директно
директном
директор
директора
директорка
директорком
диск
дискусија
дискусије
дисциплинске
дисциплинском
дијаспора
дијаспору
длану
дневни
дневник
дневнику
дневница
дневнице
дневницу
дневно
дневног
дневном
до
доба
добар
добара
добила
добили
добио
добит
добити
добитник
добитници
добија
добијају
добијање
добију
добиће
добра
добре
добрима
добрислава
добрих
добрињска
добро
добровољаца
добровољна
добровољно
добровољци
добродошли
добру
довољно
догађај
догађаја
догађаје
догађаји
догађајима
догађају
договор
договорен
договорено
договорили
договору
додавања
додатак
додати
додатна
додатне
додатних
додатно
додаје
додају
доделе
додели
доделу
додељена
додељене
додељени
додељивања
додељује
додељују
дозвољено
док
докумената
документ
документа
документарног
документацију
документовање
долазак
долазе
долази
долара
доласка
дом
дома
домаћим
домаћин
домена
домену
домино
дому
донатора
донација
донације
донацији
донацију
донела
донели
донело
донео
донета
донете
донети
донето
донирала
донирало
донирао
донирање
доноси
доношења
доношење
допиру
допринела
допринели
допринело
допринео
допринесе
допринесете
допринесу
допринети
допринос
доприноса
доприносе
доприноси
доприносити
доприносом
доприносу
допуна
допуне
допуни
допунила
допунили
допунило
допунити
допуну
допуњавање
допуњавању
допуњена
допуњени
допуњених
допуњено
дораду
досадашње
досадашњег
досадашњи
досадашњих
доста
доставите
доставити
доставља
достављају
достављање
достигла
достигнућа
доступан
доступна
доступне
доступни
доступним
доступно
доступност
доступности
дошло
дође
дођу
дојкић
доњем
др
драган
драгана
драго
драгоцена
драмских
дрво
држава
државама
државе
државна
државне
државних
држи
друга
другачији
друге
други
другим
других
друго
другог
другом
другонаграђени
другој
другу
дружења
дружење
дружењу
друштава
друштв
друштва
друштвене
друштвени
друштвеним
друштвених
друштвену
друштво
друштву
дугогодишња
дугогодишњи
дугорочне
дужан
дуже
дужни
дужност
дужности
дух
душан
е
евалуација
евалуације
евидентирања
евиденције
евиденцији
евра
европа
европе
европске
еду
едувики
едукативни
едукациони
едукација
едукације
едукацији
едукацијом
едукацију
едукују
екапија
економија
економију
економски
економског
експедиција
експеримената
експериментална
експоната
екстерна
екстерни
електронске
електронских
електронском
електротехнике
електротехничком
емисија
емисијама
емисије
емисији
емисију
емитери
емитовала
емитован
енглеска
енглески
енглеским
енглеског
енглеском
енергија
ентузијазма
ентузијаста
енциклопедија
енциклопедије
енциклопедији
енциклопедијских
енциклопедијског
енциклопедију
естела
етно
етнографски
етнолошког
етф
етш
еур
жарковић
жарковића
желе
желели
жели
желимо
желите
жена
женама
жене
женски
женског
жеље
жељи
жељом
жељу
живановић
живе
живи
живковић
живковићу
живог
живот
живота
животић
животу
жикина
жири
жирирању
жирија
журка
жујковић
з
за
заборављених
заведен
заведених
зависности
завичајни
завичајном
завод
завода
заводом
заводу
завршава
завршен
завршена
завршено
завршетак
завршетка
завршетку
заврши
завршна
завршни
завршних
загребу
задатак
задате
задовољни
задовољство
задруге
задужбина
задужбине
задужбини
задужбином
задужења
заинтересоване
заинтересовани
заинтересованим
заинтересованих
заинтересује
заиста
заказана
заказивање
закона
законом
законске
законски
законског
закључак
закључено
закључио
закључује
залагања
замењује
замисао
замишљен
занима
занимљив
занимљиве
занимљиво
западне
запис
записа
записи
записима
записник
записника
записнику
записничара
запослена
запослене
запослени
запосленима
запослених
запосленој
започела
започет
започета
започети
запошљавање
заправо
зарад
заредом
заседања
заседање
заседању
заступа
заступник
заступника
заступнике
заступљене
заступљених
затим
зато
заузела
заузео
захвалио
захвалнице
захвалницу
захваљује
захваљујемо
захваљујући
захтев
захтева
захтеву
заштита
заштите
заштити
заштиту
заштићеним
заштићених
заштићеног
зашто
заједница
заједницама
заједнице
заједници
заједницом
заједницу
заједничке
заједнички
заједничким
заједничких
заједничког
заједничком
заједно
збиркама
збирке
збирки
због
званичан
званичне
званични
званично
званичног
званичном
званичној
звучник
зграда
зграде
здравља
земаља
земља
земљама
земље
земљи
земљу
зимско
змај
зна
знала
знали
знаменита
знаменитим
знаменитих
знаменитости
значај
значаја
значајан
значајне
значајни
значајним
значајних
значајно
значају
значи
знају
знања
знање
знањем
знању
зона
зоолошки
зоран
зорана
зорану
зрењанин
зрењанину
зувић
зум
и
иако
иван
ивана
иване
ивани
иваном
ивану
игор
идеална
идеја
идејама
идеје
идеји
идејом
идеју
из
иза
изабран
изабрана
изабрани
изабрати
изазов
изазован
изазови
изашао
избор
избора
избору
известили
известио
извештавала
извештавали
извештавао
извештај
извештаја
извештаје
извештаји
извештају
изводе
извор
извора
изворе
извори
изворима
извршава
извршеног
изврши
извршни
извршног
извршном
изгласавањем
изгласана
изгласано
изгледа
издавач
издавања
издања
издање
издању
издвајају
изложба
изложбама
изложбе
изложби
изложбом
изложбу
изложене
измена
изменама
измене
измени
измену
између
изнајмљивања
изнео
износ
износа
износи
износу
израда
израде
изради
израду
изражавања
изразио
израђују
изузетан
изузетно
изузетног
изјава
изјаве
изјавио
изјаву
изјаснила
изјаснио
иконе
или
илић
илустрације
илустрацију
илустровала
илустрована
илустровани
илустровано
илустровање
илуструју
им
има
имала
имале
имали
имало
имамо
имао
имате
имати
имајте
имају
имајући
имаће
име
имена
именовала
именована
именовању
именом
именује
именују
имејл
имовине
имплементације
имплементирају
инвентарским
индије
индустријско
иницијатива
иницијативе
иницијативи
иницијативног
иницијативу
иницијатор
иновативни
иновације
иностранству
институт
института
институту
институција
институцијама
институције
институцији
институцијом
инструментима
интелектуалне
интервју
интереса
интересовања
интересовање
интернационални
интернационално
интернационалног
интернационалном
интерне
интернет
интернета
интернету
интерну
инфо
информативнијег
информатике
информатику
информатичко
информатичком
информациона
информација
информацијама
информације
информер
информисања
информисање
информисању
информише
информишу
ипак
искусни
искусних
искустава
искуства
искуство
искуством
искључиво
исписано
исплата
исплате
исплати
исплаћен
исплаћује
исплаћују
испод
испред
испричао
истакао
истакнутим
исте
истека
исти
истим
истих
истиче
истичу
исто
истовремено
истог
истоименог
истом
историчар
историја
историје
историји
историјске
историјски
историјским
историјских
историјско
историјског
историјском
историју
источне
истраживача
истраживачима
истраживачкој
истраживања
истраживање
истраживању
исту
иступање
иступању
иступити
исхране
ит
италија
италијанском
италије
итд
их
ица
ице
иј
к
ка
кад
када
кадрова
каже
кажем
кажу
какве
како
кале
калембер
календарска
калинић
калинића
каличанин
калкан
камером
камиону
камп
кампа
кампања
кампање
кампањи
кампери
кампови
кампу
канал
канала
канале
каналу
кандидат
кандидата
кандидати
кандидату
кандидатуру
кандидовао
кандидује
кандидују
канцеларија
канцеларије
канцеларији
канцеларијско
канцеларију
као
капацитет
капацитета
карактеристика
карановић
карата
караџић
каријере
карловачкој
карловцима
карта
карте
карти
карту
касније
каталога
категорија
категорије
категорији
катедре
каштеровић
кањон
квалитет
квалитета
квалитетне
квалитетним
квалитетних
квалитетнијег
квалитетног
квалитету
квантитет
квиз
кворум
кинески
кирила
кирилу
ких
киш
киша
кишу
кладову
класификовања
класичан
клемперта
клисуре
клуб
клуба
клубу
кнежевић
кнез
кнеза
ко
кобсон
ког
кога
код
кода
кодова
кодове
кодови
кодовима
колегама
колеге
колекционара
колекција
колекције
колико
количина
количине
количину
колубара
ком
комарчић
коме
коментар
коментара
комисије
комитета
комонс
компанија
компаније
компетенција
композиторима
компјутера
комуникационе
комуникација
комуникације
комуникацији
комуникацију
коначна
коначни
коначно
конгреса
конкретном
конкурс
конкурса
конкурсом
конкурсу
констатовано
констатовао
констатује
консултација
консултације
контакт
контакте
континента
конференција
конференцијама
конференције
конференцији
конференцију
концептом
координатора
координација
координацији
координацију
координира
коперникус
копија
корак
кордић
корејски
корејског
корејском
кори
корисник
корисника
кориснике
корисници
корисницима
корисничке
корисничким
корист
користан
користе
користећи
користи
користити
коришћене
коришћења
коришћење
коришћењу
корпуса
корњачи
котизације
која
које
којег
којем
који
којим
којима
којих
којом
којој
коју
крагујевац
крагујевцу
кратак
кратким
кратког
крај
краја
крајем
крајпуташи
крају
крајњи
краља
краљевства
краљевство
краљевству
краљеву
краће
креативних
креирали
креиран
креирана
креирања
креирање
креирању
кринуловић
кријејтив
кроз
крстарица
крстом
круг
кругу
култура
културама
културе
култури
културна
културне
културни
културним
културних
културно
културног
културном
културу
куповину
курир
курсу
кућа
кцн
кључне
књажевац
књажевцу
књига
књигама
књиге
књиговодствени
књиговодственог
књигу
књижарама
књижаре
књижевност
књижевности
л
лабораторија
лазар
лако
лакше
лампа
лансиран
лансирање
лаптоп
ласло
латов
лајв
лгбт
лежи
лепота
лепотама
лепоте
лесковцу
летње
ли
лидерке
лик
лина
лингвистику
линије
линк
линковима
линку
лист
листа
листе
листи
листу
литература
литературе
литературу
лица
лице
лиценца
лиценцама
лиценце
лиценци
лиценцом
лицима
лицу
лична
личне
лични
личним
личних
лично
личности
личностима
лого
локализација
локализације
локална
локалне
локални
локалним
локалних
локалног
локалну
локације
лондон
лондону
лоренте
лоци
лоција
лоцију
лузофоније
лука
лукић
м
ма
мавренски
магазин
македонија
македоније
македонском
максимовић
мала
мале
мали
мало
малолетног
малој
манастири
мандат
мандата
мандати
мандату
манифестација
манифестацијама
манифестације
маратон
маратона
маратоне
маратони
маратонима
маратоном
маратону
маргиналне
марина
марија
марији
марка
марко
марковић
марку
март
марта
марту
мастер
математике
математичара
математички
математичког
математичком
математичкој
материјал
материјала
материјале
материјали
материјалима
материјалног
материјалом
матејић
матејића
матејићу
матице
матични
матић
матовић
мачве
мађарске
мај
маја
мајсторовић
мају
маљковић
маљковића
маљковићу
мање
мањег
мањи
мањим
мањинска
мањих
маџаревић
ме
мегатренд
медиа
медија
медије
медији
медијима
медијске
медијски
медијским
медијског
медијском
медијску
меморандум
менар
менаџер
менаџера
менаџерка
мени
мера
мере
мери
мерин
месец
месеца
месеци
месецу
месечне
месечни
месечно
места
местима
место
месту
металургије
мети
метрополис
међу
међувремену
међународна
међународне
међународни
међународним
међународних
међународно
међународног
међународном
међународној
међусобно
међусобном
међутим
мејл
мејла
мејлинг
мења
мењају
ми
микрогрант
микрогрантова
микрогрантове
микрогрантови
милан
милана
милановац
милановцу
милану
миле
милена
миленковић
милета
милету
милион
милиона
милица
милице
милици
милићевић
миловановић
милорад
милосављевић
милосављевића
милош
милоша
милошевић
милошу
министар
министарства
министарство
министарством
министарству
министра
минута
мирко
мирослав
мирослава
мирославу
мисија
мисији
мисијом
мисију
мислим
митић
михајло
мишљења
мишљење
мијаиловић
мијаиловића
миљан
миљана
миљану
мићовић
младе
младеновић
млади
младим
младине
младих
многе
многи
многим
многих
много
многобројне
многобројним
моб
мобилни
мог
могао
могла
могли
могу
могуће
могућим
могућих
могућност
могућности
могућностима
могућом
моде
модел
модела
моделе
модерно
можда
може
можемо
можете
молим
молимо
момчиловић
мондо
мора
моравичког
моравиште
морају
мотивација
мотивације
мотивисаног
мотивисати
мотивишемо
мој
моја
моје
моћи
мрежа
мрежама
мреже
мрежи
мрежна
мрежне
му
мудри
музеј
музеја
музеје
музејем
музеји
музејима
музејом
музејске
музејских
музеју
музика
музике
музици
мултимедијална
мултимедијалне
мултимедијалних
мултимедијалног
мултимедијалној
мултимедијалну
мушкарцима
мље
н
на
наведене
наведени
наведеним
наведеног
наводи
навођење
нагласила
нагласио
наглашава
награда
награде
наградни
наградно
награду
награђен
награђене
над
надам
надамо
надаље
надгробни
надзорни
надзорног
надметање
надор
надора
назив
назива
називом
наивне
накнадно
накнаду
након
налаже
налазе
налази
налога
налогодавац
налогодавца
налогодавце
налогодавци
налозима
нам
нама
намерама
намењен
намењене
намењени
намењеног
написала
написали
написало
написан
написана
написани
написаним
написаних
написано
написао
напише
напишем
напишу
напомена
напомене
напоменуо
напомиње
напоре
направи
направио
направити
направљен
напустила
напустио
наравно
наредна
наредне
наредним
наредних
наредном
народа
народи
народима
народна
народне
народни
народним
народног
народном
народној
нарочито
нарушавања
нас
насеља
наслеђа
наслеђе
наслеђу
наслов
наслова
наслови
насловом
наставак
настави
наставимо
наставити
наставка
наставку
наставника
наставнике
наставница
наставници
наставницима
наставног
наставља
настављен
настављена
настала
настале
насталих
настанка
настао
наталија
наука
науке
науку
науци
науче
научне
научни
научника
научним
научних
научно
научном
научној
национална
националне
национални
националним
националних
националног
начелница
начин
начина
начине
начину
начињене
начињено
наш
наша
наше
нашем
наши
нашим
наших
нашли
нашом
нашој
нашу
најава
најаве
најавила
најавио
најаву
најављено
најбоље
најбољем
најбољи
најбољих
најважнијих
највећа
највеће
највећем
највећи
највећим
највећих
највећој
највећу
највише
најзаступљенији
најзначајнији
најкасније
најлепша
најлепше
најлепших
најлепшу
најмање
најпознатији
најпре
најстарији
најуспешнији
најчешће
наћи
нбс
нд
не
неа
неактивности
небојша
небојше
небојши
невена
невенка
невладина
невладиним
невладино
невладином
негде
него
недавно
недеља
недеље
недељи
недељковић
недељник
недељом
недељу
недић
недовољно
недостатак
недостајале
недостају
недоумице
независних
независно
нека
некад
неке
неки
неким
неких
неко
неког
неколико
неком
некој
неку
нела
нема
немамо
немачка
немачке
немачком
немају
немања
нена
неопходан
неопходне
неопходно
непознат
непокретна
непокретних
непосредно
непоштовања
непредвиђене
непрофитан
непрофитна
непрофитно
нерасподели
нераспоређене
неретко
нестраначко
нет
нето
нешто
неће
ни
нибар
ниво
нивоу
низ
низа
низу
никакву
нико
никола
николе
николети
николи
николић
николу
никчевић
нина
нисам
нисмо
нисте
нису
нити
ниш
ниша
нишвил
нишвила
нишвилу
нишке
нишки
нишкој
ништа
нишу
није
ниједан
нов
нова
новац
новајлија
нове
новембар
новембра
новембру
нови
новим
новинама
новинара
новинари
новине
новински
нових
ново
новог
новом
новонастало
новости
новој
нову
новчана
норвешки
носи
носилац
ноћ
ноћи
нпр
нуди
нудимо
нужног
о
обавеза
обавезе
обавезна
обавезно
обавезну
обавезу
обавестио
обавештава
обавештени
обавештења
обавештење
обавља
обављају
обављања
обављање
обе
обезбедити
обезбеђена
обезбеђене
обезбеђени
обезбеђује
обележава
обележавања
обележавање
обележен
обележено
обележио
обележити
обележиће
обзир
обзиром
обилазак
обиласке
обиласци
обим
обима
обимнији
обимом
обичајима
област
области
областима
облик
облика
облике
облику
обновљен
обогате
обогатили
обогатио
обогатити
обогаћена
обогаћивање
обогаћивању
обострано
обрада
обраде
обради
обрадовић
обрадовића
обраду
образац
образложени
образложење
образовања
образовање
образовању
образовне
образовни
образовним
образовних
образовно
образовног
образовном
обрасца
обратите
обратити
обрачун
обрачуна
обрађује
обрнуто
обука
обуке
обуку
обухвата
обухваћене
обуци
објава
објаве
објави
објавила
објавио
објављен
објављена
објављене
објављени
објављено
објављивања
објављивање
објављује
објављују
објаснио
објекти
објектив
објектима
ова
овакав
оваква
овакве
овакви
оваквих
овако
овај
овде
ове
овера
оверава
овере
овери
оверила
овером
ови
овим
ових
овлашћен
овлашћена
овлашћени
овлашћених
овлашћено
овлашћеног
овлашћује
ово
овог
овога
овогодишњег
овом
овоме
овој
ову
огледало
огранак
огранака
огранка
огранке
огранци
огранцима
од
одабир
одабрани
одабрао
одабраће
одакле
одбор
одбора
одборе
одбори
одбором
одбору
одбране
одвија
одговарајућим
одговор
одговора
одговоре
одговорност
одговорности
одељења
одлагања
одлазак
одласка
одлике
одлична
одличне
одлука
одлукама
одлуке
одлуком
одлуку
одлуци
одлучено
одлучи
одлучивање
одлучили
одлучује
одмах
односа
односе
односи
односно
односу
одобрава
одобравају
одобрене
одобрени
одобри
одрадио
одредаба
одредбама
одредбе
одредница
одређена
одређене
одређени
одређеним
одређених
одређеног
одређену
одређује
одржава
одржавања
одржавање
одржала
одржали
одржан
одржана
одржане
одржани
одржаним
одржано
одржаног
одржаном
одржаној
одржану
одржао
одржати
одржаће
одрживе
одсуства
одузимања
оквир
оквиру
око
околине
округа
округлог
округу
окружењу
оксана
октобар
октобра
октобру
окупио
окупљања
окупљање
окупљању
окупљене
олакша
омладине
омладински
омладинског
омогућава
омогућавају
омогућено
омогући
омогућио
омогућити
он
она
онај
онда
оне
они
онима
оних
онлајн
оно
опис
опозива
опрема
опреме
опробају
опцију
опширније
опште
општина
општине
општини
орбовић
орган
органа
органи
организама
организационе
организациони
организационих
организација
организацијама
организације
организацији
организацијом
организацију
организовала
организовали
организован
организована
организоване
организовано
организованом
организовати
организовања
организовање
организовањем
организовању
организује
организујемо
организују
органима
осам
осамдесет
осамнаесте
освежавање
освојила
освојили
освојио
освојити
осврт
освртом
осигурање
осим
ослобађања
ослобађање
ослобађању
ослободила
ослободило
ослободио
ослобођене
ослобођеним
ослобођених
ослобођено
осма
осме
осмишљавање
осмишљен
оснива
оснивач
оснивача
оснивачка
оснивачке
оснивачкој
оснивачку
оснивања
оснивање
оснивању
основ
основан
основана
основано
основе
основна
основне
основни
основних
основно
основу
оснује
особа
особе
особи
особом
особу
оспособљавање
остава
оставе
остави
оставку
оставу
оставци
остала
остале
остали
осталим
осталих
осталог
остао
остаје
остварен
остварена
остварења
остварењу
остваривања
остваривање
остваривању
остварила
остварио
остварити
остварује
остварују
отвара
отварања
отварање
отварању
отворен
отворена
отворене
отворени
отворених
отворено
отвореног
отвореном
отвореност
отворио
ото
отпремила
офлајн
охрабрује
оцене
очекивања
очекује
очекујемо
очију
очувања
очување
очувању
ош
оја
ојачати
оља
п
па
павле
павловић
пажња
пажњу
пазару
пазови
паланке
палићу
пало
пангеа
панел
панелу
паноније
панонске
пантомима
пантомиме
пантомимичара
панчева
панчево
панчеву
папић
пар
параћину
парк
парка
паркови
партнер
партнера
партнери
партнерима
партнерских
партнерстава
партнерства
партнерство
патрисио
педагогију
педесет
пекић
период
периода
периоду
песми
пет
пета
петак
петар
пете
пети
петка
петнаесте
петница
петници
петоро
петровац
петровић
петровцу
печат
печата
пећине
пи
пинк
пирот
пирота
пиротском
пироту
писали
писало
писане
писани
писаним
писаног
писао
писати
писања
писање
писањем
писању
писменост
писмо
питања
питање
питањима
питању
пише
пишите
пишу
пишући
плаката
плакете
план
плана
планети
планина
планине
планира
планирамо
планирана
планиране
планирани
планираних
планирано
планова
планове
плановима
планом
плану
плату
платформа
платформе
платформи
плаћања
плаћање
плус
по
победник
победника
победнику
победница
победници
победницима
победничке
победничких
побољшају
побољшање
побољшању
повежи
повезивање
поверава
повереника
поверенику
поверењу
повећа
повећава
повећала
повећао
повећати
повећају
повећања
повећање
повећању
поводом
повратка
повраћаја
повреде
повреди
повремено
поглавља
погледати
погледајте
погледу
поготово
под
податак
података
податке
подаци
подацима
подгорина
подгорине
поделе
поделили
подиже
подизање
поднео
поднесу
поднети
подноси
подносиоци
подносиоцима
подношење
подразумева
подразумевају
подржава
подржавамо
подржавају
подржавање
подржала
подржали
подржало
подржан
подручја
подручју
подршка
подршке
подршком
подршку
подршци
подсетио
подстицање
подухват
подухвате
подухвати
пожега
пожеги
пожељно
позвани
позив
позива
позивамо
позивају
позитивна
позитивне
позиција
позицији
позицију
познавање
познатим
познатих
позоришном
позоришта
позориште
позоришту
показале
показали
показало
показао
показује
поклапају
поклон
покренула
покренули
покренуо
покренут
покренута
покрет
покрета
покретање
покретању
покрету
покрива
покривање
покривени
покривеност
покриће
покрићу
пола
поласка
политика
политикама
политике
политиком
политику
политици
политичке
политичких
половина
помаже
помажу
поменута
поменути
поменутим
поменутих
поменуто
помогао
помогла
помогли
помогне
помогну
поморавља
помоћ
помоћи
помоћник
помоћу
понавља
понаособ
понедељак
понедељка
поново
поноса
понуда
поповић
поподне
попуне
попуните
попунити
попут
попуњава
попуњавања
попуњавањем
попуњен
попуњеног
поред
породице
портал
поруке
посао
посвети
посвећен
посвећена
посвећене
посвећени
посвећено
посебан
посебна
посебне
посебним
посебно
посебног
посебној
посебну
поседу
поседује
поседују
посета
посете
посетиоци
посетиоцима
посетите
посећености
посећује
посла
послали
послало
послао
послат
послата
послати
после
последње
последњег
последњим
последњих
послова
пословања
пословање
послове
послови
пословима
пословни
пословник
пословника
пословником
пословној
пословну
послодаваца
послу
посредује
поставе
поставили
поставило
поставио
поставља
постављали
постављају
постављања
постављање
постављању
постављен
постављена
постављене
постављени
постављено
постала
постане
постану
постао
постати
постаје
постају
постигнут
постиже
постојања
постојање
постоје
постојеће
постојећи
постојећим
постојећих
постоји
поступак
поступку
потврда
потврди
потенцијал
потом
потпис
потписани
потписивање
потписивањем
потписивању
потпише
потпредседник
потпредседника
потпредседнике
потпредседница
потпредседници
потпредседницима
потпуно
потпуности
потреба
потребама
потребе
потреби
потребна
потребне
потребни
потребно
потребу
похвала
похвале
поцерине
почасне
почасни
почасних
почасно
почасног
почела
почели
почело
почео
почетак
почетка
почетком
почетку
почиње
почне
пошаљем
пошаљете
пошаљите
пошта
поште
пошто
поштовати
поштом
поштујући
пођимо
појаснио
појашњење
појединаца
поједине
појединим
појединце
појединци
појединцима
појмовима
пољска
пољске
пољу
пр
права
прави
правила
правилима
правилник
правилника
правилно
правило
правима
правна
правне
правни
правнике
правним
правних
правно
правног
правном
право
правом
праву
прављења
прављење
прављењу
праг
прагу
пракса
праксе
пракси
практичан
практично
прате
пратеће
прати
пратите
пратити
прајд
праћење
прва
прве
првенствено
први
првих
прво
првог
првом
првој
прву
пре
пребивалишта
преведен
превод
превоз
превоза
превођења
преглед
прегледа
пред
предавач
предавачи
предавања
предавање
предавању
предвиђени
предвиђено
предлаже
предлажем
предлог
предлога
предлоге
предлогу
предложен
предложене
предложени
предложених
предложено
предложи
предложила
предложили
предложио
предложити
предлози
предлозима
предмета
предмети
предмету
предност
предностима
предочен
председава
председавао
председавајућа
председавајући
председник
председника
председником
председнику
председништва
председништво
представа
представе
представила
представили
представио
представити
представиће
представник
представника
представнике
представници
представницима
представља
представљају
представљања
представљање
представљању
представљен
представљена
представљене
представљени
презентација
презентације
презентацији
презентацију
презентовала
презентовао
презентује
презиме
преко
према
пренели
пренео
пренето
пренос
препорука
препоруке
препоруку
препоручује
препоручујемо
прерасти
прес
престанку
престати
престаје
престају
преточени
претходне
претходних
претходно
претходног
претходном
претходну
преузете
преузети
преузима
преузимање
преузме
при
прибављену
приватни
приватним
приватног
приватности
привлачење
привредне
привремена
привремене
привремени
привремено
придруже
придружена
придружене
придружени
придружених
придружено
придруженог
придружи
придружила
придружио
признати
признају
прикаже
приказ
приказује
приказују
прикупио
прикупља
прикупљају
прикупљања
прикупљање
прикупљању
прикупљен
прикупљене
прикупљених
прикупљено
прикључиле
прилика
прилике
приликом
прилику
прилог
прилога
прилогу
приложеним
приложених
примена
примене
примени
примену
пример
примери
примењене
примењују
принцип
принципа
принципи
приоритет
припада
припрема
припреми
природе
природи
природне
природним
природних
природно
природног
природу
пристигле
пристигло
приступ
приступа
приступање
приступе
приступили
приступило
приступни
приступница
приступнице
приступницу
приступног
приступном
приступом
приступу
присуства
присуство
присуствовала
присуствовали
присуствовало
присуствовао
присуствују
присутан
присутне
присутни
присутним
присутнима
присутних
присутно
прихвата
прихвати
прихватила
прихватио
прихваћен
прихваћени
прихода
приходе
прича
причала
причао
причаће
приче
причу
приштина
пријава
пријаве
пријави
пријавити
пријавни
пријаву
пријављени
пријатеља
пријатељског
пријем
пријему
проблем
проблема
проверу
проглашена
проглашени
проглашења
проглашење
проглашењу
програм
програма
програме
програми
програмима
програмом
програмске
програмски
програмских
програму
продановић
производ
проистекла
проистекле
пролеће
пролећно
промена
променама
промене
промени
промену
промету
промењен
промо
промовисања
промовисање
промовисању
промовише
промовишу
промотивним
промоција
промоције
промоцији
промоцијом
промоцију
проналажење
пронаћи
пропагирање
прописима
просвете
просветни
просеку
прослава
прославе
прослави
прославила
прославу
прославља
простор
простора
просторијама
простору
протеклих
протеклом
протесту
против
противвредности
протокол
проф
професионализације
професионална
професионално
професионалном
професор
професора
професори
професорима
професорка
профила
процедура
процедуре
процес
процеса
процесима
процесу
процењује
прочитан
прочитана
прочитао
прочитати
прочитај
прочитајте
проширеном
проширења
проширење
проширењу
прошири
проширивање
проширио
прошле
прошло
прошлогодишњег
прошлост
пројекат
пројеката
пројекта
пројекте
пројекти
пројектима
пројектне
пројектних
пројектом
пројекту
пројекција
проћи
пружа
пружања
пружање
пружио
публикација
публиком
публици
пун
пуно
пуном
пуноправно
пуну
пут
пута
путем
путне
путни
путника
путних
путници
путно
путног
путовања
путовање
путу
путују
пујин
р
равничарских
равногорски
равноправно
равноправности
рад
рада
радан
раде
ради
радила
радили
радимо
радио
радионица
радионицама
радионице
радионици
радионицу
радити
радија
радију
радиће
радна
радне
радника
радним
радно
радног
радном
радо
радова
радован
радове
радом
радоњић
раду
развија
развијају
развијање
развије
развијену
развој
развоја
развојем
развоју
разгледница
разгледнице
разговарали
разговор
различите
различитим
различитих
разлог
разлога
разлози
разматра
разматрање
размена
размену
разне
разним
разних
разно
разноврсне
разноврстан
разноликости
разреда
разрешава
разрешење
разумевања
разумевање
разумевању
ранац
рангирању
раније
ранијих
ранчић
ранчића
ранчићу
расписан
расписује
располагању
располаже
расправа
расправе
расправи
расправу
расправљало
раст
раста
растић
расту
расхода
рат
рата
ратковић
ратковића
ратковићу
рату
раче
рачун
рачуна
рачунарски
рачунарства
рачунару
рачуне
рајковић
реализација
реализације
реализацији
реализацијом
реализацију
реализовали
реализован
реализована
реализоване
реализовани
реализовано
реализовао
реализовати
реализује
реализујемо
реализујете
реализују
региона
регионална
регионалне
регионални
регионалних
регионалног
регионалном
региону
регистрације
регистрацију
регистровани
регистрованих
регистровано
ред
реда
редакција
редни
редован
редовна
редовне
редовни
редовним
редовних
редовно
редовног
редовном
редовну
редом
реду
резервата
резервисан
резултат
резултата
резултате
резултати
резултатима
резултирала
резултирао
рекао
реке
рекла
рекорд
рекорда
релевантних
репортер
репризирала
република
републике
републици
републички
републичког
републичком
ресурс
ресурса
ресурси
ретке
реф
референце
референци
референцирања
реформа
рефундира
рефундирају
рефундирање
реч
речи
речник
речника
решења
рибар
ризница
ризнице
ризници
рифат
родног
рок
роковима
року
роман
рођендан
рођендана
рођендану
рођења
рс
ртв
ртс
рубрике
рубрици
рударско
рударства
ружић
руководи
руме
руски
с
са
сав
сава
савет
савета
саветодавно
саветодавну
савремене
савски
сагласност
сагласности
сад
сада
садржај
садржаја
садржаје
садржајем
садржаји
садржајима
садржају
садржи
саду
сазива
сазнао
сазнају
сазнања
сакупљања
сакупљању
сали
салону
сам
сама
саме
сами
самим
самиту
само
самог
самом
самостално
самоуправе
сан
сану
саобраћаја
саопштења
саопштење
сарадник
сарадника
сарадници
сарадња
сарадње
сарадњи
сарадњом
сарадњу
сарађује
сасвим
састав
састава
саставни
саставу
састављен
састанак
састанака
састанка
састанку
састанцима
састоји
сат
сата
сатарић
сатарића
сати
сафари
сачињен
саша
сашастефановић
сајму
сајт
сајта
сајтова
сајту
сања
сање
сањи
сва
свака
свакако
сваке
сваки
свако
сваког
свакодневно
сваком
свакој
сваку
све
свега
свежим
свезнања
свест
свести
свет
света
свети
светлост
свето
светог
светозар
светом
светска
светске
светски
светских
светског
светском
светској
светску
свету
свечано
сви
свим
свима
свитање
свих
свиђа
свог
свом
свој
своја
своје
својим
својине
својих
својој
својство
своју
сврха
сврхе
сврху
се
себе
себи
седам
седамдесет
седамнаесте
седишта
седиште
седиштем
седма
седме
седмој
седница
седнице
седници
седницом
седницу
секретар
секретара
секретаријат
секретаријата
сектора
сектору
секулић
села
селекције
селекцију
семинар
семинара
семинаре
семинари
семинарима
семинарских
семинару
сениор
сенке
сеоских
септембар
септембра
септембру
сервис
сервиса
серија
сертификати
сесија
сесије
сеферовић
си
сигурни
сигурно
симболичне
симболично
симеоновски
симеоновског
симеоновском
симић
симовић
симоновић
симоновића
симоновићу
симпозијуму
сингидунум
систем
система
сити
скенирано
складу
склопу
скопља
скоро
скуп
скупу
скупшине
скупштина
скупштине
скупштини
скупштином
скупштину
скц
сл
слави
слаже
слатине
слање
слањем
следећа
следеће
следећем
следећи
следећим
следећих
следећу
следи
слика
слике
слици
сличне
сличним
сличних
слично
сличног
слобода
слободан
слободе
слободна
слободне
слободни
слободним
слободних
слободно
слободног
слободном
слободној
слободну
слободу
словака
словачка
словачки
словачком
словеначка
словеније
службене
службени
службено
службеног
службеном
служи
служити
случајевима
случају
сматра
сматрам
сматрамо
сматрају
смедерево
смедеревске
смедереву
смерница
смерницама
смернице
смештај
смештаја
смислу
смо
смоленски
смоленског
снагу
снажну
снежани
снимак
соба
сопственом
софтвер
софтвера
социјалног
спада
спасојевић
специјални
специјалних
специјалног
списа
списак
спискове
спискови
споменик
споменика
споменике
споменици
споменицима
споменицу
споменичко
споразума
спорт
спорта
способног
способност
способности
спрат
спрема
спремност
спречени
спроведен
спроводе
спроводи
спровођење
срби
србија
србије
србији
србију
средини
средстава
средства
средствима
среду
средње
средњем
средњим
средњих
средњошколаца
средњој
сремским
сређивање
сродним
сродних
српска
српске
српски
српским
српских
српско
српског
српском
српскохрватском
српској
српску
срђан
ст
стабилне
став
става
стави
ставио
ставу
ставља
стављен
стажирања
стажирање
стажирању
стажиста
стажисте
стажисти
стажисткиња
стажисткињи
стажистом
стажисту
стакић
стакића
стакићу
стална
стално
сталном
сталну
стан
станивук
станислава
станици
станишта
станковић
становништва
станојевић
станојевићу
стара
старатељем
старе
стари
старих
старије
старог
старој
старт
стартит
статистике
статус
статуса
статусу
статут
статута
статутом
статуту
стања
ствара
стваралаштва
стварају
стварања
стварање
стварању
ствари
стварни
сте
стеван
стекли
стекну
степен
стерија
стефан
стефановић
стигло
стила
стилизована
стипендистима
стипендија
стипендије
стипендију
стицање
стиче
сто
стога
стокхолму
стопића
стотине
стотину
стошић
стојановић
стојановића
стојановићу
стоје
стоји
стојковић
стр
страна
странама
стране
страни
страница
странице
страници
страницу
страну
стратегија
стратегије
стратегији
стратегијом
стратегију
стратешки
стратешких
страхиња
струке
струковних
стручна
стручне
стручни
стручним
стручних
стручно
стручног
стручном
стручњака
стручњаци
студената
студент
студенте
студенти
студентима
студентски
студентског
студио
студија
студије
ступа
ступањем
су
суботице
суботу
суд
сузана
сукобу
сусрет
сфери
сфрј
сцг
сцене
т
та
таблет
тава
тада
таида
такав
таква
такве
таквим
таквих
такмичари
такмиче
такмичења
такмичење
такмичењима
такмичењу
тако
такође
такси
талас
таласање
таленте
тамара
танјуг
тарлановић
тачка
тачкама
тачке
тачку
тачније
тачно
тај
тајно
тања
тв
тва
те
текло
текст
текста
текстова
текстове
текстови
текстом
тексту
тела
телевизија
телевизије
телевизији
телеграф
телекомуникација
телефон
телефона
телефоном
телефонски
телефонском
телефону
тело
телфор
тема
темама
тематских
теме
теми
темом
тему
теодора
теодору
теорију
теразијама
територији
тесла
технике
техничка
техничке
технички
техничким
техничких
техничко
техничкој
техничку
техно
технологија
технологије
технолошког
тешко
ти
тим
тима
тиме
тиму
типа
типова
типу
тита
тих
тиче
тичу
тијана
то
тог
тога
тодоровић
током
току
толико
том
томе
топ
траг
традиционално
тражених
тражимо
трајала
трајало
трајао
трајати
трајања
трајање
трајању
трајаће
траје
трајковић
трају
трг
трговине
треба
требала
требало
тренинг
тренутка
тренутку
тренутни
тренутно
трећа
треће
трећег
трећи
трећој
трећу
три
трибина
трибине
тринаест
тринаесте
триста
трочлани
трошењу
трошкова
трошкове
трошкови
трошковима
трстеник
трстенику
трудимо
ту
тумарић
тура
туре
туризма
туристима
туристичка
туристичке
туристички
туристичком
туристичкој
туторијала
тј
у
убрзо
уведен
уведена
увек
увести
увећати
увећање
увећању
увид
увида
увођење
углавном
угледа
уговор
уговора
уговоре
уговорена
удружења
удружење
удружењем
удружењима
удружењу
уживо
уз
уздржан
уздржана
уздржаним
уздржаних
узети
укида
укидање
укидању
укинут
уколико
укратко
украјине
украјински
укупан
укупно
укупном
укључе
укључење
укључењу
укључи
укључивати
укључивање
укључивању
укључује
укључују
укључујући
улица
улици
улога
улогу
улози
умањује
уместо
уметник
уметника
уметничке
уметнички
уметност
уметности
умножавања
умножавању
умрежавање
унапред
унапреде
унапређење
унапређењу
унапређивање
унетих
унето
универзитет
универзитета
универзитетска
универзитетске
универзитетском
универзитетској
универзитету
унилиб
унион
унитас
унос
уноса
уноси
унс
унутар
уо
уопште
упис
уплата
упознавања
упознавање
упознали
упознате
упознати
упознајмо
упознају
упоредни
употреби
употребу
управе
управи
управни
управног
управном
управо
управља
упутства
упућена
упућено
упућивање
упућује
упућују
урађено
уреди
уредник
уредника
уреднике
уредница
уредници
уредницима
уређивача
уређивачка
уређивачке
уређивачки
уређивачким
уређивачких
уређивачког
уређивачком
уређивања
уређивање
уређивањем
уређивању
уређује
уређују
урош
усавршавања
усавршавање
усаглашено
усваја
усвајања
усвајање
усвајањем
усвајању
усвојен
усвојена
усвојене
усвојени
усвојено
усвојеном
усвоји
усвојила
усвојио
ускоро
уследила
уследило
услови
условима
условом
услуге
усмени
усмерава
усмерених
успео
успесима
успех
успеха
успехе
успеху
успешан
успешна
успешне
успешни
успешним
успешних
успешно
успешног
успешност
успешној
успешну
успоставља
успостављања
успостављање
успостављању
успостављеним
устанак
установа
установама
установе
установи
установљено
утврђен
утврђује
утиске
утисци
уторак
ухвати
ученика
ученике
ученици
ученицима
учесник
учесника
учеснике
учеснику
учесница
учесници
учесницима
учествовала
учествовали
учествовало
учествовао
учествовати
учествовања
учествовање
учествоваће
учествује
учествују
учешћа
учешће
учешћем
учешћу
учења
учење
учењу
учини
учинили
учинити
учионици
учитељског
учитељском
ушли
уђе
уједињено
уједињеног
уједињеном
уједно
фабрика
фази
фазу
факултет
факултета
факултетима
факултетом
факултетског
факултету
фармацеутско
фајлова
фебруар
фебруара
фебруару
фем
фемвики
феминизам
феста
фестивала
фестивалу
фесту
фигура
физичка
физичко
физичку
филип
филипа
филипу
филм
филма
филмстрита
филозофију
филозофски
филозофског
филозофском
филолошки
филолошког
филолошком
финан
финанасијских
финансира
финансирало
финансирани
финансирања
финансирање
финансија
финансијска
финансијске
финансијски
финансијским
финансијских
финансијског
финансијском
финансијској
финансијску
фирми
флексибилним
флексибилно
флоренс
фокус
фокусу
фон
фонд
фонда
фондација
фондова
фондом
форд
формално
формат
форме
форми
формирање
формулар
формулара
фото
фотограф
фотографисати
фотографисање
фотографисању
фотографишу
фотографија
фотографијама
фотографије
фотографијом
фотографију
франкфурт
франкфурту
франциску
француска
француске
фрушку
фундуса
функционисање
функционише
функција
функције
функцији
функцију
х
хард
хемију
хепи
херцеговина
хиљада
хиљаде
хиљаду
холандије
хране
хрватска
хрватске
хрватско
хрватском
хтео
ц
цветановић
цветановићу
цвијића
цее
целе
целина
целине
целини
целог
целом
целости
центар
центра
централне
центром
центру
цео
циљ
циља
циљева
циљеве
циљеви
циљевима
циљем
циљним
циљних
циљу
црвеним
црква
цркве
црна
црне
цукић
цц
чак
час
часова
часопис
часописа
часописи
часописима
часопису
част
чачак
чега
чедомира
чему
честа
често
четврта
четвртак
четврте
четврти
четврто
четири
четрнаесте
чешке
чешће
чиме
чине
чини
чинили
читаоци
читање
чија
чије
чији
чијој
чињеница
чињенице
чл
члан
члана
чланак
чланака
чланарина
чланарине
чланарини
чланица
чланице
чланицу
чланка
чланке
чланком
чланку
чланова
чланове
чланови
члановима
чланом
чланства
чланство
члану
чланци
чланцима
човечанства
чува
чувају
чувања
чувању
чују
ш
шаблон
шареница
шаље
шведска
шведске
шведски
шевкушић
шездесет
шеснаесте
шест
шеста
шесте
шестомесечни
шира
шире
ширења
ширење
ширењу
шири
широм
широј
шијаковић
школа
школама
школарац
школе
школи
школом
школске
школској
школску
шта
штампа
штампано
штампаног
штампаном
штампе
штампу
штанд
што
штрковској
шумановић
шуњеварић
ђ
ђеврек
ђорђа
ђорђе
ђорђевић
ђорђу
ја
јабланичког
јавна
јавне
јавни
јавних
јавно
јавног
јавном
јавност
јавности
јавношћу
јавну
јагодини
јаз
јаза
јако
јан
јана
јанковић
јануар
јануара
јануару
јасно
јачање
јачању
је
јевремовац
један
једанаест
једини
једино
једна
једнак
једне
једним
једно
једног
једногласно
једном
једноставног
једној
једну
језик
језика
језике
језику
језицима
језичка
језичким
језичких
језичкој
јелена
јелене
јелисавета
јелисавчић
јер
јесте
јестиве
јесу
јован
јована
јованвб
јовани
јовановић
јовановића
јовановићу
јовичић
још
јошиловић
јој
ју
јубиларни
јубилеј
јубилеју
југ
југоисток
југоисточне
југославије
јужне
јужнословенска
јужнословенске
јужну
јул
јула
јули
јулија
јун
јуна
јуни
јуну
јуришић
јутарњег
јутарњем
јутарњи
јутро
љиљана
људе
људи
људима
људска
људски
људским
људских
људског
људској
њ
ње
њега
његов
његова
његове
његових
његово
његовог
његовом
његову
његомир
њему
њен
њена
њене
њеним
њених
њено
њеног
њеном
њима
њих
њихов
њихова
њихове
њихови
њиховим
њихових
њихово
њиховог
њиховом
њихову
њој
њу
ће
ћемо
ћете
ћирилице
ћирилицом
ћирић
ћошак
ћу
џез
џимбо
џими
۞
​
–
—
‘
’
‚
“
”
„
•
…
€
↔
↷
③
④
⑦
⺀
⺄
⺆
⺈
⺊
⺌
⺕
⺝
⺸
⺼
⿰
⿱
⿲
⿳
⿴
⿵
⿶
⿷
⿸
⿹
⿺
⿻
〢
コ
ユ
㇁
㇂
㇄
㇇
㇈
㇉
㇓
㐁
㐄
㐅
㐌
㐫
㐬
㐭
㐮
㐱
㑒
㒵
㒸
㒼
㓁
㓞
㔾
㕛
㕣
㖾
㘝
㚅
㚇
㚔
㚘
㝉
㝡
㝴
㝵
㞋
㞢
㞷
㠩
㠭
㠯
㡀
㡭
㡿
㢲
㢴
㣇
㣺
㥯
㪅
㫄
㫐
㫒
㫺
㬅
㬎
㬥
㬰
㲋
㳄
㷠
㸒
㸚
㸦
㼌
㼲
㽞
㿟
䀠
䂞
䍃
䏍
䒑
䖍
䖒
䖝
䖵
䙴
䚻
䜌
䝿
䡛
䧹
䪞
一
丁
丂
七
丄
丅
丆
万
丈
三
上
下
丌
不
与
丏
丐
丑
专
且
丕
世
丘
丙
业
东
丞
丢
丣
两
严
並
丨
丩
个
丫
丬
中
丮
丰
丱
串
丵
丶
丷
丸
丹
为
主
丽
丿
乀
乂
乃
久
乆
乇
么
义
之
乌
乍
乎
乏
乐
乑
乔
乖
乗
乘
乙
乚
乛
乜
九
乞
也
习
乡
乳
乾
亀
亅
了
亇
予
争
事
二
亍
于
亏
亐
云
互
亓
五
井
亘
亚
亜
亞
亟
亠
亡
亢
交
亥
亦
产
亨
亩
享
京
亭
亮
亯
亰
亲
亳
亶
亷
人
亻
亼
亾
仁
今
介
仌
从
仐
仑
仒
仓
仕
他
付
仝
代
令
以
任
企
伊
伏
伐
休
会
伯
但
位
何
佘
余
作
佥
使
來
侈
侌
侖
侯
侵
便
保
俞
信
修
倉
倍
候
倠
備
僉
僕
儿
兀
允
兂
元
兄
充
兆
兇
先
光
兊
克
兌
免
兑
兒
兓
兔
党
兜
兟
入
全
兩
兪
八
公
六
兮
兰
共
关
兵
其
具
典
兹
兼
冀
冂
冃
冄
内
冈
冉
冊
冋
册
再
冎
冏
冐
冒
冓
冖
冗
冘
军
农
冝
冡
冥
冫
冬
冷
几
凡
凢
凵
凶
凷
凸
凹
出
函
凾
刀
刁
刂
刃
刄
刅
分
切
刍
刑
刕
刖
列
刘
则
初
別
利
别
到
制
刺
則
削
剌
前
剡
剽
劉
力
功
加
劦
助
劫
劳
劵
勃
勇
勉
勒
動
務
勞
勤
勹
勺
勻
勾
勿
匀
匂
包
匆
匈
匊
匋
匍
匕
化
北
匚
匝
匡
匪
匱
匸
匹
区
医
匽
匿
區
十
卂
千
卄
卅
卆
升
午
卉
半
卌
华
卑
卒
卓
单
卖
南
卜
卝
卞
占
卡
卢
卣
卤
卦
卩
卪
卬
卯
印
危
即
却
卵
卷
卸
卻
厂
厃
厄
历
厈
厉
厌
厓
厘
厚
原
厤
厥
厨
厭
厲
厶
厷
厸
去
厼
厽
叀
参
參
叅
又
叉
及
友
双
反
叐
发
叒
叔
叕
取
受
叚
叜
叟
口
古
句
另
叩
只
召
可
台
叱
史
右
叵
号
司
叹
吂
各
吅
合
吉
吊
吋
同
名
后
吏
向
吕
君
吝
吞
否
含
启
吳
吴
吹
吾
呂
呆
呈
告
员
呙
周
命
咅
和
咎
咠
咢
咨
咸
咼
哀
品
哉
員
哥
哲
唐
商
啇
問
啚
啬
啻
善
喜
喬
單
喿
嗇
噩
嚴
囊
囗
囘
囙
囚
四
回
囟
因
囧
囬
困
囱
囷
固
国
圂
圅
國
圍
圓
土
圡
圣
圥
在
圭
地
圶
圼
坐
坒
坚
坴
垂
垔
垚
埀
埋
埶
執
基
堂
堅
堆
堇
堯
塞
墨
壘
士
壬
壯
声
壳
壴
壹
壺
壽
夂
处
夅
夆
备
夊
夋
夌
复
夏
夒
夕
外
夗
夘
多
夜
夢
大
夨
天
太
夫
夬
夭
央
失
夲
头
夷
夸
夹
夻
夾
奂
奄
奇
奈
奉
奎
奏
奐
契
奓
奔
奚
奞
奠
奢
奥
奭
女
奴
奻
好
如
妄
妙
妟
妥
妻
妾
姑
委
姜
威
娄
婁
婴
嬰
嬴
子
孑
孔
孕
孖
字
存
孚
孛
孝
孟
季
孤
学
孫
孱
學
宀
宁
宂
它
宅
宇
守
安
宋
完
宏
宓
宗
官
定
宛
宜
宝
客
宣
室
宮
宰
害
家
容
宾
宿
寄
寅
密
富
寒
察
寧
審
寫
寬
寮
寸
对
寺
寻
寽
対
寿
封
尃
射
将
將
專
尉
尊
尋
尌
對
小
少
尒
尓
尔
尖
尗
尚
尞
尢
尣
尤
尧
尨
尭
就
尸
尹
尺
尻
尼
尽
尾
尿
局
居
屈
屋
屎
屏
屑
展
屖
屚
属
屠
屡
屬
屮
屯
屰
山
屵
屾
岁
岂
岑
岡
岩
岳
岸
峯
島
崇
崑
崔
崖
崙
崩
嵬
嶲
巂
巛
川
州
巟
巠
巢
巤
工
左
巧
巨
巩
巫
差
己
已
巳
巴
巷
巸
巽
巾
巿
帀
市
布
希
帚
帛
帝
带
師
席
帶
常
干
平
年
幵
并
幷
幸
幺
幻
幼
幽
幾
广
広
庄
床
底
店
庚
府
度
庫
庭
庶
康
庸
廉
廌
廛
廣
廩
廴
延
廷
建
廾
廿
开
弁
弃
弄
弇
弋
式
弓
弔
引
弗
弘
弜
弟
弥
弦
弱
張
強
强
彊
彌
彎
彐
彑
当
彔
录
彖
彗
彡
形
彥
彦
彧
彭
彳
役
彼
往
待
律
徒
得
徙
從
復
微
徵
心
忄
必
忌
忍
志
忝
忠
忩
快
念
忽
忿
思
怠
急
怱
恆
恒
恩
恭
息
悉
患
悤
悲
悶
惠
惡
惢
愁
愈
意
愛
感
慈
慧
慮
憂
憲
應
戀
戈
戉
戊
戋
戌
戍
戎
成
我
戒
戔
或
戚
戠
戢
截
戲
戶
户
戹
戼
戾
房
所
扁
扇
手
扌
才
打
托
执
承
折
拉
拜
拿
掌
推
提
摩
支
攴
攵
收
攸
改
放
政
敄
敏
敕
敖
敗
敝
敞
敢
散
敦
敫
敬
数
敷
數
斂
文
斉
斊
斗
斤
斥
斩
斬
斯
新
方
於
施
斿
旁
旋
族
无
旡
既
旣
日
旦
旧
旨
早
旬
旱
旲
时
旾
昆
昇
昌
昍
明
昏
易
昔
昗
昜
星
春
昬
是
昱
昴
昷
時
晃
晋
晏
普
景
晶
智
暑
暴
曇
曩
曰
曲
曳
更
曷
書
曹
曼
曾
替
最
朁
會
月
有
朋
服
朔
朕
朗
望
朝
木
朩
未
末
本
札
朮
术
朱
朵
朶
朿
杀
杏
杜
束
条
来
東
杲
杳
松
析
林
枚
果
枝
枲
枼
某
柔
查
柬
柰
柴
栗
桀
桑
桼
梁
條
梟
梨
棘
棠
棥
森
楚
業
楽
榮
樂
樊
欠
次
欣
欮
欲
欶
欽
款
歆
歇
歛
止
正
此
步
武
歨
歪
歮
歯
歰
歲
歴
歷
歸
歹
歺
死
殳
段
殷
殸
殹
殺
殻
殿
毋
毌
母
每
毒
比
毕
毚
毛
毳
氏
氐
民
气
氣
水
氵
氶
氷
永
氺
氾
求
汝
汞
江
沃
沓
沙
沝
泉
法
波
泣
泥
泰
洛
洪
活
派
流
浦
浪
浮
淡
淮
清
渚
渠
湯
滿
漸
火
灬
灭
灰
灵
灷
炅
炎
炏
炗
炙
炭
為
烈
烏
烝
焉
無
焦
焱
然
煞
熊
熏
燕
營
燮
爪
爫
爭
爯
爰
爱
爲
爵
父
爻
爽
爾
爿
片
牙
牚
牛
牜
牟
牢
牧
牪
牽
犀
犬
犭
犮
狂
狄
狊
独
狺
猋
猒
猪
献
獻
玄
率
玉
王
玟
玨
珎
班
琴
瑟
瑩
瓜
瓦
甘
甚
生
産
用
甫
甬
田
由
甲
申
电
甶
男
甸
甹
画
甾
畀
界
畏
畐
留
畜
畟
畢
畧
畨
番
畫
異
畱
當
畺
畾
疊
疋
疌
疑
疒
疾
癶
癸
癹
登
發
白
百
皀
皃
的
皆
皇
皋
皐
皕
皮
皷
皿
盃
盆
盇
盈
益
盍
盎
监
盒
盖
盛
盡
監
盤
盧
目
直
相
盾
省
眇
眉
看
眔
眞
真
眷
眼
眾
着
睘
睪
睿
瞏
瞢
瞿
矍
矛
矞
矢
矣
知
矦
短
石
破
碎
磊
磨
示
礻
礼
祟
票
祭
禀
禁
禸
禹
禺
离
禽
禾
禿
秀
秃
秉
秋
科
秝
秦
移
稟
穀
穌
穴
究
穹
空
穿
突
窄
窒
立
竒
竜
竝
竟
章
童
竹
笑
笠
筆
等
答
箕
算
箴
節
篤
篭
米
粉
粛
粟
粤
粦
粲
糞
糸
糹
系
約
納
素
索
紫
累
細
絜
絫
絲
維
綿
縣
繇
纍
纟
缶
网
罒
罔
罕
罗
罙
罡
罢
罪
署
罷
羅
羊
羌
羍
美
羔
羕
羗
羞
羡
羣
群
義
羲
羸
羽
翁
翏
習
翕
翟
翠
翼
老
耂
考
者
耆
而
耎
耑
耒
耳
耴
耶
耷
聂
聊
聖
聚
聶
聿
肀
肃
肅
肉
肖
肙
肥
肩
肯
育
肴
胃
背
胡
胥
能
脊
脩
膚
臣
臤
臧
自
臬
臭
臯
臱
至
致
臺
臼
臽
臾
臿
舀
舂
舄
與
興
舉
舌
舍
舛
舜
舞
舟
般
艮
良
色
艸
艹
艾
芒
芔
芬
芮
花
芳
芺
芻
苔
苗
苟
若
苦
英
茶
茸
荅
草
荒
荣
荼
莆
莧
莫
莽
菆
菊
菐
華
萬
落
葉
著
葛
董
葵
蒙
蒦
蒼
蓋
蓬
蓺
蔑
蔡
蕉
蕭
薄
薛
薦
薰
藍
藏
藥
蘭
虍
虎
虐
虒
虔
處
虖
虗
虘
虚
虛
虜
虞
虫
虽
蚤
蚩
蜀
蜜
蟲
蠡
血
行
衍
衛
衣
衤
表
衮
衰
袁
袞
褭
褱
襄
襾
西
覀
要
覃
見
規
覓
覧
親
覽
见
角
解
言
訁
訇
計
詹
誩
諸
讠
谷
豆
豈
豊
豐
豕
豖
豙
象
豦
豩
豪
豸
貇
貝
貞
貟
負
貢
貧
貪
貫
責
貳
貴
買
費
賁
資
賈
賏
賓
賔
賛
賞
賢
賣
質
賴
贊
贝
贡
责
贯
贲
贵
赖
赞
赤
赦
走
越
足
路
蹇
身
躬
車
軍
軎
軟
輦
车
辛
辜
辟
辥
辰
辱
農
辵
辶
边
达
过
近
连
迷
追
退
送
逆
逐
通
速
造
逢
連
逮
進
遀
遂
過
道
達
遣
適
遷
遺
邊
邑
邕
那
邦
邪
郎
部
郭
都
鄉
酉
酋
配
酓
釆
采
里
重
野
量
金
釒
錢
钅
長
镸
长
門
閃
閉
開
閏
閑
閒
間
閔
閵
閻
闌
门
间
闷
阑
阜
阝
阿
降
陳
隆
隊
隋
隡
隨
隱
隶
隹
隺
隻
隼
隽
难
雀
雁
集
雈
雋
雍
雐
雔
雙
雚
雜
雝
離
難
雨
雩
雪
雲
零
雷
需
霍
霜
霝
霞
霸
靈
靑
青
非
靡
面
靣
革
韋
韦
韭
韯
韱
音
頁
頃
項
須
頗
頡
頻
顛
页
風
风
飛
飞
食
飠
養
饣
首
香
馬
馮
駦
马
骨
高
髟
鬥
鬯
鬲
鬼
魚
魯
鮮
鱼
鲁
鳥
鳳
鸟
鹵
鹿
麃
麗
麥
麦
麻
黃
黄
黍
黎
黑
黒
黨
黹
黽
黾
鼎
鼓
鼠
鼻
齊
齋
齐
齒
齿
龍
龙
龜
龟
龠
龰
龱
龴
龵
龶
龷
龸
龹
者
艹
？
𠀁
𠀃
𠀆
𠀉
𠀎
𠀐
𠁁
𠁣
𠂆
𠂇
𠂈
𠂉
𠂊
𠂋
𠂎
𠂒
𠂔
𠂛
𠂡
𠂢
𠂤
𠂬
𠂭
𠂹
𠃊
𠃋
𠃌
𠃍
𠃎
𠃑
𠃓
𠃔
𠃜
𠄌
𠄎
𠄠
𠄢
𠆢
𠆥
𠇍
𠈌
𠌵
𠓜
𠔉
𠔥
𠔼
𠔽
𠔿
𠕀
𠕁
𠕋
𠘧
𠘨
𠙻
𠙼
𠚏
𠚒
𠚤
𠚪
𠣏
𠤎
𠤕
𠥓
𠦄
𠦑
𠦝
𠧒
𠧗
𠧪
𠩺
𠪚
𠫓
𠫔
𠫤
𠬛
𠬝
𠬞
𠬢
𠬤
𠬶
𠮛
𠮦
𠮷
𠯑
𠱠
𠳮
𠷎
𡈼
𡉀
𡉵
𡌥
𡍮
𡏳
𡕒
𡕩
𡕰
𡖅
𡗗
𡗜
𡘆
𡘤
𡧱
𡨄
𡩧
𡬠
𡭽
𡰣
𡰥
𡰪
𡰯
𡰱
𡷈
𡸁
𡿨
𡿩
𡿪
𡿺
𢀖
𢀛
𢀩
𢁙
𢆉
𢆰
𢆶
𢇁
𢇇
𢉖
𢌬
𢌿
𢏚
𢑑
𢑚
𢖻
𢙣
𢛳
𢦏
𢦒
𢧵
𢼄
𢾕
𣁋
𣄼
𣅀
𣅽
𣍘
𣎳
𣎵
𣏋
𣏼
𣗥
𣥂
𣥖
𣦵
𣦼
𣧄
𣪊
𣪠
𣬉
𣳾
𣶒
𤇾
𤊽
𤐫
𤓰
𤔔
𤕨
𤣩
𤰇
𤰔
𤰞
𤴓
𤴔
𤽄
𥁑
𥁕
𥃦
𥃩
𥃭
𥇡
𥑟
𥘅
𥘈
𥝢
𥫗
𥱡
𦈢
𦉪
𦉬
𦉼
𦍌
𦍒
𦎧
𦐇
𦓔
𦔮
𦘒
𦙃
𦚏
𦣝
𦣞
𦣻
𦥑
𦥔
𦥯
𦨉
𦭝
𦰩
𧆞
𧈧
𧘇
𧰨
𧴪
𧴮
𧵩
𧾷
𨸏
𨾴
𩙿
𩠐
𩫏
𩵋
𪉷
𪜀
𪟽
𪠲
𪩲
𫇦
𫔭
𫜸
𫝀
𫠣
𫠩
𫢉
𫥞
𫩏
𫩠
𫪡
𫲽
𫶧
𬀷
𬐘
𬗌
𬙙
𬛸
𬜯
𬟩
𬯁
𬴘
𬺻
𬼉
𬼖
𭀰
𭁈
𭁨
𭅰
𭑈
𭕄
𭗼
𭤨
𭥫
𭻾
𮅕
𮊿
𮍌
𮍏
𮓗
𮥼
𮧮
廾
𰀁
𰀄
𰀈
𰀉
𰀕
𰀠
𰀡
𰀢
𰀪
𰁜
𰃮
𰆊
𰆘
𰋙
𰕎
𰢴
𰧭
𰯲
18--
19--
33--
6--
7--
74--
8--
9--
a--
accompl--
acti--
adequ--
al--
an--
att--
b--
be--
bo--
br--
by--
c--
ch--
cha--
cl--
con--
conclusi--
cond--
cons--
cont--
contri--
coordin--
cou--
d--
da--
de--
dicti--
do--
dr--
e--
ev--
ex--
experi--
f--
fe--
fi--
fo--
g--
gat--
gre--
h--
ha--
i--
im--
in--
int--
j--
k--
ko--
konfer--
kr--
kul--
kultur--
l--
la--
le--
lic--
lo--
m--
ma--
magaz--
me--
mul--
n--
na--
nev--
o--
ob--
os--
out--
ov--
p--
pa--
pe--
pet--
po--
pod--
pol--
pr--
pre--
pri--
prior--
propo--
r--
re--
real--
realiz--
regulati--
rep--
reprod--
s--
sa--
sem--
sl--
slobod--
sm--
sp--
spr--
sr--
st--
str--
stu--
su--
sub--
sv--
t--
te--
teh--
tr--
tra--
transl--
u--
un--
uni--
v--
versi--
vi--
vis--
vo--
vrb--
w--
web--
wiki--
y--
z--
ze--
а--
аван--
ад--
акти--
актив--
ала--
алат--
ам--
ан--
анке--
археол--
архитек--
астр--
ата--
атм--
ау--
б--
ба--
баш--
бе--
бео--
бесплат--
би--
биз--
бирок--
бит--
бло--
бо--
бога--
богат--
бол--
бота--
бу--
в--
ва--
важ--
ван--
вар--
ваљевс--
ве--
веру--
ви--
видљи--
вики--
више--
вл--
влас--
вој--
вр--
врс--
ву--
г--
ге--
генери--
гла--
гле--
гос--
гр--
гру--
д--
дв--
дво--
де--
деба--
делега--
детаљ--
дефини--
деш--
ди--
дигитализ--
дим--
димитр--
димитров--
директ--
до--
доби--
допу--
допуњава--
држа--
дри--
ду--
дуго--
дуж--
е--
евро--
европс--
експедиц--
експо--
електр--
електронс--
елемен--
еми--
ентуз--
енциклопед--
ефек--
ефи--
ефикасно--
жељ--
з--
за--
заинтерес--
закљ--
зас--
захв--
зајед--
збир--
здрав--
зе--
зна--
и--
ивањ--
из--
изве--
изла--
изме--
израз--
илу--
илустр--
име--
имплемен--
ин--
инду--
иниц--
интелек--
интер--
интере--
ис--
иску--
к--
ка--
карактер--
кв--
ки--
кла--
кли--
ко--
колекц--
колу--
ком--
комуникаци--
кон--
конкрет--
конкури--
кооперац--
коорди--
координа--
кр--
краљ--
кре--
креа--
креи--
крс--
ку--
кул--
кулу--
књижев--
л--
лати--
ле--
лес--
ли--
ло--
локац--
лу--
м--
ма--
маке--
мани--
марке--
машинс--
ме--
мед--
медици--
ми--
мир--
мо--
мод--
моти--
мотиви--
мр--
мул--
н--
на--
надок--
нак--
нај--
најак--
најпо--
не--
неопх--
непотр--
нес--
ни--
но--
ново--
о--
об--
обе--
обога--
обра--
обрађе--
обре--
обучава--
објаш--
овлашће--
огле--
огр--
од--
ода--
одг--
одеље--
одмр--
одо--
оз--
окр--
оку--
окупи--
оп--
опе--
опц--
опш--
ориги--
оригинал--
ос--
ослоб--
осми--
от--
отвор--
отпре--
оцењива--
очек--
оште--
па--
пал--
пан--
пас--
пе--
педији--
пеш--
пи--
пис--
пла--
по--
пов--
пог--
погле--
под--
поз--
покр--
покре--
покриве--
пол--
пома--
понос--
популар--
пор--
пору--
пост--
пот--
поуз--
похв--
почет--
поједи--
пољоприв--
пр--
прак--
пре--
прег--
пред--
презенто--
препо--
при--
приме--
про--
пропра--
пру--
пчињс--
р--
ра--
раз--
разг--
различи--
рас--
ре--
реализ--
реве--
реги--
регистр--
рекон--
рела--
реле--
реш--
род--
ру--
руко--
с--
са--
сал--
све--
се--
секц--
си--
скенира--
сл--
сла--
сло--
слож--
сме--
смедеревс--
сми--
смр--
сни--
со--
соли--
соп--
социолог--
социјал--
спа--
специфич--
спо--
спр--
ср--
сре--
ст--
ста--
стал--
су--
субо--
сјај--
сједи--
т--
та--
так--
тв--
те--
теле--
теор--
тер--
ти--
тим--
тимс--
тр--
тра--
транс--
трг--
тренут--
тро--
тру--
ту--
у--
ув--
уврс--
уг--
уз--
ука--
ул--
умет--
умножава--
уна--
унес--
упит--
упла--
уплати--
упо--
ур--
уре--
уређив--
ус--
успо--
утица--
уч--
учи--
уш--
фестив--
фејсб--
фото--
х--
хер--
хо--
хр--
хрва--
ц--
це--
ци--
цита--
црв--
чес--
чо--
ш--
шеснае--
ши--
шумад--
ђа--
ја--
јас--
је--
једи--
једин--
јер--
ју--
љуби--
љубо--
њ--
џами--
--0
--1
--2
--3
--4
--5
--6
--7
--8
--84
--9
--a
--ak
--al
--ar
--ary
--ation
--ations
--b
--c
--ce
--ces
--ch
--ct
--cts
--d
--ds
--e
--ed
--er
--es
--ess
--est
--et
--g
--ge
--ger
--ges
--gs
--h
--hip
--ht
--i
--ia
--ic
--ies
--il
--ima
--ing
--io
--ion
--ions
--ive
--j
--ja
--ji
--k
--ka
--ke
--key
--ks
--l
--le
--li
--ly
--m
--ma
--ment
--ments
--n
--nce
--ne
--ng
--nih
--nje
--o
--ology
--or
--ous
--pa
--pedija
--que
--r
--ra
--red
--rm
--s
--se
--sk
--ss
--st
--t
--ta
--tary
--te
--ted
--ter
--tion
--ts
--u
--ure
--us
--v
--ve
--w
--x
--y
--z
--а
--ав
--аве
--аже
--ак
--ала
--али
--ални
--алног
--ама
--ан
--ано
--ао
--ар
--ати
--ација
--ације
--ацији
--аје
--ају
--б
--в
--ва
--вао
--вати
--вац
--вају
--вања
--вање
--вању
--ве
--веде
--вела
--вено
--вену
--ви
--вима
--вић
--вне
--вни
--вно
--во
--вца
--вши
--г
--глед
--д
--да
--де
--ду
--е
--ев
--евић
--еву
--ед
--ела
--ели
--ем
--ен
--ена
--ено
--еном
--ер
--ере
--ења
--жа
--же
--жи
--з
--зано
--зи
--зни
--зор
--зује
--и
--игла
--ику
--иле
--им
--има
--ин
--ина
--ио
--ира
--ирање
--ис
--ите
--ити
--их
--ија
--ије
--ић
--к
--ка
--ке
--ки
--киња
--кла
--ко
--ком
--кој
--ку
--кује
--кључила
--л
--ла
--лажу
--ле
--ли
--лно
--лног
--лност
--лну
--ло
--логија
--логије
--лу
--м
--ма
--ме
--мо
--мчевић
--н
--на
--наеста
--нг
--нгу
--не
--ни
--ник
--нику
--ним
--нима
--них
--ница
--нице
--ници
--нији
--нијих
--но
--ног
--ном
--ност
--ној
--нска
--нске
--нски
--нским
--нском
--нску
--нти
--ну
--нут
--нци
--о
--ова
--ове
--ови
--овић
--овне
--овно
--ову
--ог
--ожава
--ом
--он
--оца
--оцу
--ој
--п
--р
--ра
--ран
--рања
--рање
--рању
--рди
--ре
--рже
--ри
--рима
--рић
--рку
--рно
--рност
--рној
--ру
--рци
--с
--са
--си
--ска
--ске
--ски
--ским
--ских
--ско
--ског
--ском
--ску
--сни
--сно
--сну
--ст
--ствима
--ство
--ству
--сти
--су
--т
--та
--танак
--те
--тет
--тељством
--ти
--тичке
--тне
--тним
--тно
--то
--тра
--траже
--у
--ус
--учене
--ује
--ују
--ф
--х
--ц
--ца
--це
--ци
--ција
--ције
--цији
--цијом
--цију
--цом
--цу
--ч
--ча
--чан
--че
--чевић
--чић
--чка
--чке
--чки
--чким
--чкој
--чку
--чна
--чни
--чних
--чну
--ш
--ша
--шке
--шла
--шу
--шњава
--шње
--шћена
--шћено
--ђе
--ђења
--ђи
--ј
--ја
--је
--ји
--јих
--јић
--јно
--ју
--ља
--ље
--љевић
--љено
--љке
--њ
--ња
--ње
--њем
--њи
--њу
--ћ
--ћа
--ће
--ћем
--ћено
--ћи
--ћим
--ћих
--ћу
